[PAD]
[UNK]
[CLS]
[SEP]
[MASK]
!
"
#
$
%
&
'
(
)
*
+
,
-
.
/
0
1
2
3
4
5
6
7
8
9
:
;
<
=
>
?
@
\
_
a
b
c
d
e
f
g
h
i
j
k
l
m
n
o
p
q
r
s
t
u
v
w
x
y
z
{
¡
¢
£
§
«
°
±
²
³
µ
·
¸
¹
º
»
½
ð
÷
ø
þ
đ
ı
ł
ʺ
ʻ
˚
α
β
γ
δ
ε
ζ
η
ι
κ
λ
μ
ν
ξ
ο
π
ρ
ς
σ
τ
υ
φ
χ
ω
а
б
в
г
д
е
ж
з
и
к
л
м
н
о
п
р
с
т
у
ч
ш
ъ
ы
ь
ю
я
є
і
–
—
―
“
”
„
•
…
€
−
≤
##i
##s
##a
##g
##n
##e
##t
###
##r
##o
##p
##l
##u
##k
##d
##v
##5
##-
##0
##4
##1
##8
##2
##6
##/
##c
##h
##b
##j
##f
##m
##z
##3
##y
##7
##9
##w
##'
##)
##.
##,
##q
##x
##=
##–
##ł
##+
##ı
##ø
##!
##?
##ы
##½
##_
##¸
##о
##б
##р
##е
##:
##(
##&
##ε
##λ
##ο
##ν
##т
##а
##к
##;
##º
##ι
##>
##τ
##ρ
##η
##μ
##α
##ω
##²
##н
##д
##я
##л
##с
##в
##ь
##υ
##χ
##σ
##у
##ж
##и
##м
##і
##ю
##ч
##δ
##ς
##ъ
##ð
##κ
##φ
##є
##¹
##β
##ш
##п
##þ
##γ
##ξ
##з
##ζ
##@
##đ
##ʺ
##π
##
##en
##er
##an
de
##ij
##et
##aa
##el
##or
##ie
##in
van
##at
##st
##ch
##it
het
##ing
##oor
##ijn
in
en
##eer
##ro
##aar
##ee
zijn
ge
##is
een
voor
##on
##id
ver
be
dat
##ijk
te
##oe
##ig
op
##al
on
##der
##cht
##le
##om
##re
aan
he
al
##ver
##de
##ge
##ent
##and
st
##eid
##ar
heb
##ol
##elijk
##ord
ik
##aat
eu
die
word
om
##ze
mo
##il
##ot
met
##aal
euro
##ur
##iet
##sch
##eg
er
##end
europ
over
##ct
niet
con
##un
##heid
we
##ra
moet
uit
##ees
wij
##atie
##oo
zal
##ang
##erk
oo
##uw
##iss
##ens
##isch
kan
dit
##eel
##ment
europees
##ik
##miss
ook
##sl
re
##eem
##ag
##aak
##stel
deze
##ap
als
##am
##rij
onder
waar
##missie
zo
##een
bij
##ru
##aag
pro
bel
##ien
##icht
##den
par
##us
##oed
##ier
tot
##lijk
mijn
##uit
toe
daar
maar
wil
##og
door
alle
##zit
##eit
##lement
gro
##dig
##sp
##ctie
##eef
##ul
##kom
##em
dan
##nie
##ou
##aad
##gen
an
af
parlement
##te
##raag
belang
land
##schap
vol
##ind
##as
##orm
##aan
goed
ont
##ant
##ist
##ijd
##ken
werk
##slag
##iteit
##ut
geb
com
unie
me
##uur
##heer
##itie
reg
##oc
ter
of
##tre
##oord
##kel
##ree
##oud
##ven
sp
wat
##ter
##ak
nog
##ic
##eld
ons
##neem
lid
sch
meer
##rouw
##rijk
##gelijk
##staat
##ich
##du
##con
##es
##acht
ander
naar
onze
##im
##ga
##be
raad
##ort
pl
ga
##bl
##op
##oer
verslag
##vaar
##gel
hier
zich
geen
##os
wel
ze
##ied
##onder
##ect
##ir
##wij
##andel
##ste
##um
##uid
##eur
##wee
##00
##voor
nu
##est
##oop
##org
##dat
##ond
##oel
groot
##amen
ten
##chter
na
##elf
##werk
##del
hun
##aam
tegen
##vol
##oek
##rie
mens
recht
##pro
##als
##kt
kom
##ast
inter
##dra
heer
##meen
nie
##ikkel
##uss
europa
jaar
##air
##wikkel
##baar
##unt
vraag
her
##deel
##ger
##ri
zij
##eng
zoals
nieuw
##oog
##land
##geef
##conom
##oon
samen
##onaal
am
maak
mil
##iddel
##entie
##gro
##iseer
##pl
sta
##conomisch
##reek
##sluit
laat
##aats
##iaal
##mm
twee
##ijf
##voer
ar
##reng
##val
##anc
tijd
##ff
##regel
alleen
##bo
economisch
##inn
pol
##leg
ste
##egen
bl
##waar
##bleem
##bel
##houd
hoe
##reer
##handel
le
mogelijk
##ussen
echter
veel
##vrouw
kw
zeg
doe
##iek
mevrouw
##recht
##zien
##eed
doel
per
##ep
tussen
##zoek
##io
steun
##ruik
##inanc
##trek
stel
min
##urger
probleem
##ve
politie
gemeen
bet
richt
##woord
sl
no
intern
##ement
##me
plaats
##sel
dien
##nd
burger
duid
##aris
##itu
maat
##innen
heel
##ank
##ies
omdat
##zet
wet
##ood
soc
mar
##over
##tref
##van
financ
##tal
conc
politiek
##drag
volg
##ug
##ber
##groot
vrij
##igen
stem
##af
200
##wer
##wel
##port
nam
haar
##ker
beg
proc
mij
##iee
##lijn
##au
gebruik
##erm
##ilig
##missaris
vind
zelf
##volg
##ke
beleid
commissaris
##endeer
zeer
##raat
##if
neem
zaak
##rijd
mee
##rijf
geef
##bat
zorg
##ult
sociaal
##stand
##eeds
##ader
##tijd
gel
##sta
##rijg
mag
el
amendeer
vast
houd
middel
##bouw
##paal
den
wer
##zaak
##stem
##oof
##we
to
even
deel
##veer
debat
##scherm
##bij
##dien
res
##ruk
overeen
##reed
##gang
drie
##beleid
##gra
natie
##atief
gen
versch
##rek
col
or
##moc
nodig
regel
ve
wereld
##eder
actie
##itueer
dus
##ractie
##se
maatregel
part
##daag
##wijs
eigen
##estie
##mma
##uk
colle
##gramma
bo
gebied
##zig
##zie
veilig
##rat
denk
##mocraat
di
man
grond
zie
hij
##tro
##doe
##oeg
pre
gez
blijf
##punt
##ust
##erg
##ati
##zonder
binnen
markt
##werp
##of
##mee
stand
eer
hel
kwestie
meen
##pas
##ran
##he
##uist
men
rap
##porteer
collega
##zelf
buit
hoog
##antwoord
##maak
naam
situeer
##bet
##form
##isme
krijg
feit
##waarde
verschil
vorm
##stru
##beel
hoop
##beeld
##ieu
produ
##zeg
democraat
mis
regeer
##ron
punt
##iel
##art
##neer
enkel
fun
##zicht
##rit
nood
ex
##ector
rapporteer
cons
buiten
##druk
##asis
##leid
geld
##drijf
##ige
vis
best
milieu
##vest
lang
##zaam
ber
##vang
weet
##enig
verb
##los
##geb
##ergie
##ec
dank
kader
##vorm
breng
##oem
vert
ma
financiee
##racht
##len
##iceer
##ander
zonder
kl
##kl
##breng
##atuur
mom
##reid
##ets
steeds
##yst
vandaag
##maal
su
##ysteem
##merk
weg
moment
##spreek
open
##utie
verdrag
##oriteit
handel
der
vl
fractie
##vaardig
##ft
ieder
##ost
staat
voort
##zak
vrouw
##di
##schik
##middel
uw
sle
##inde
##zake
verantwoord
##zij
verenig
ru
##ereer
19
comm
##isc
##ud
pers
internati
##olveer
##treed
##ive
##ab
##je
##ces
##loop
leid
natuur
##iveau
##eek
milj
inzake
##nel
graag
energie
##ip
manier
##beter
##ers
internationaal
##oen
reken
##ucht
##formeer
##lend
##zen
##rift
##ame
##orden
##keer
imm
##ineer
eff
zeker
##reik
geval
##teken
##uig
hand
bijzonder
##oei
##spect
##edu
##keur
int
mede
##edure
slecht
##dacht
##ris
##ledig
terug
##ctuur
verschillend
spreek
##veel
##vind
##rateg
oog
namelijk
##ac
waarde
##aans
##chn
##richt
commun
##gemeen
##hang
elk
ch
weer
gew
leven
aut
wan
want
##order
##ard
##ele
##oef
oor
##klaar
spec
tijdens
##oneel
##ister
ger
##voeg
enkele
##ss
##dank
leg
ant
begin
##rategisch
##ia
volk
##steun
informeer
##ende
##bs
##vat
##min
juist
##beid
##bied
##ulp
basis
rol
huid
toch
bedrijf
kle
##ad
##iti
##gaan
achter
tran
##risis
huidig
##perk
consum
##ring
minder
woord
wanneer
##woor
snel
##tik
stat
regio
##aut
##oep
##ubl
##strijd
##rens
##tuig
##gelegen
##zelfde
contro
onderneem
pos
bestaan
namens
programma
##do
volgens
som
bied
aange
##gader
pas
niveau
##ctief
net
##itiatief
##pak
##paald
##vorder
zelfs
ken
reden
consumeer
echt
##ei
iets
concur
verband
##kies
arbeid
aandacht
zowel
##naal
gezond
##ler
##itief
techn
##last
lig
disc
##sland
##ner
##ije
vergader
##voorbeeld
##act
conf
bijvoorbeeld
##woordig
beh
concurreer
klein
##onds
ad
sector
##cent
##ese
##ulteer
##ok
##rijp
crisis
procent
##ject
aanzien
##nee
##vl
dergelijk
##av
eu-
20
uiter
orgaan
##zijde
pri
##ogisch
dag
miljoen
resolveer
vaar
199
persoon
##oos
##per
wijze
##plicht
##neeom
wijs
uitb
duur
##vend
##nieuw
##geven
verl
##rijs
##uleer
altijd
##strument
##res
co
zodat
##aard
artik
artikel
##itair
##ium
##oofd
initiatief
resulteer
stap
##aaf
##echt
gelijk
welke
##maat
##biel
vor
slechts
sterk
##mijn
##egenwoordig
##autair
##toe
ag
##na
gebeur
schrift
##ont
moei
##daad
##arant
##oort
verzoek
##no
kind
##da
##raf
communautair
leden
##ief
partij
##uis
kost
##heel
##uut
strategisch
##programma
##einde
commissie
hulp
tur
##ultuur
##sterk
##volk
zet
##door
grens
afge
##rede
blijk
uitbreid
##ks
##rom
bovend
bovendien
id
##ologisch
orde
##wet
##ideer
systeem
##span
##aas
##voegd
slot
alles
vertegenwoordig
val
##erij
antwoord
verander
##rik
##rim
bijdra
controle
##wacht
eind
##gebied
##ater
##leen
##rakt
##vesteer
##enis
##zorg
##licht
##neemen
##vul
##koord
vrede
europese
##standig
toen
##get
kort
partner
##ificeer
##beer
##mar
aangezien
##iteer
##eu
##amp
groei
kracht
besl
##ument
##zeker
##weeg
##aast
##vaard
##raak
##ide
##kst
instrument
##ieer
bevoegd
##ubliek
hoofd
geloof
##ventie
##mis
behoef
cultuur
positief
speel
##igreer
product
##wijl
##vers
##mog
##hoor
minister
##s-
##wees
##stuk
##li
##nst
soort
vijf
verenigde
dame
ernst
##arm
##rect
strijd
##ueel
afgevaardig
prakt
je
li
##ept
##egreer
reeds
waa
##vraag
##qu
ak
stru
des
zit
elkaar
immers
lijk
investeer
##roep
##haal
##ceer
structuur
##ans
overheid
project
indu
indust
##ember
waarom
##ov
inst
transp
##ong
##ieed
somm
sol
lucht
oost
def
allemaal
##dament
industrie
via
##iode
##oot
maand
tev
procedure
betrek
##mo
##ouw
fundament
##fel
##ine
voorwaarde
##grijp
arm
beginnen
##ioo
gevaar
voed
cent
kwal
wens
aller
##reet
terwijl
##wijfel
##schien
misschien
plan
##kend
gebieed
meest
iedereen
##produ
nauw
##inig
th
tekst
##ool
akkoord
##loos
cont
werkelijk
##ite
proces
kans
##mp
##ifiek
##reff
un
meerder
amb
##ror
##mat
##ico
vaak
enige
niets
eis
pres
##luk
##voud
##reffende
betreffende
fr
prioriteit
##man
##lus
##laat
mor
jur
specifiek
hen
ruim
##ure
##cces
##doend
##tel
##markt
succes
##erik
wijzig
mon
concreet
##wicht
##rein
idee
autoriteit
##ho
##eling
##doel
##ern
##aloog
##ina
discuss
terror
##eden
##proces
str
opnieuw
taak
turk
vele
##sector
liss
##imaat
##-f
##ectief
##rake
##rum
vertrouw
##antie
help
zin
ged
aspect
sprake
##hal
bereid
##reeer
dezelfde
vorig
##tig
##lever
turkije
##imum
kant
anders
ris
termijn
ac
staten
norm
ap
prijs
behoefte
tra
##ituut
regioo
klimaat
##enda
uitst
##ureau
##lid
##systeem
##leef
mid
##rin
keer
##abon
##spraak
lissabon
gegeven
actief
openbaar
##genen
transparant
gericht
##ass
dialoog
loop
##idisch
mond
##ale
abs
juridisch
geleden
##lusie
vier
##kort
##tie
dring
tegelijk
lever
##wezig
##borg
discussie
##lang
##overeen
bijdrage
##boek
##stellen
##mer
##plan
erg
daad
ess
sluit
erken
##raad
##promis
##iliteit
pak
rusland
##com
zw
##cedure
midden
##yp
compromis
##geer
top
ser
##pres
##istisch
##dag
overtuig
probeer
helaas
##procedure
sommige
##oordineer
##beraal
essentie
##ate
##ade
##matig
risico
##reig
##andeer
hoor
kern
wie
agenda
##-fractie
##fonds
##ffer
##pij
onderwijs
praktijk
##draag
functie
financier
##inds
geweld
##age
##oneer
##oluut
uiteraard
elke
##ocument
##weg
comp
##denk
##ten
sinds
integreer
dier
solid
terecht
cor
kwaliteit
##lex
##hoog
##ne
enorm
hem
##eis
genoem
zee
##ertijd
technisch
##grond
gelegen
wijet
##log
##lict
##ket
##schouw
##vaart
einde
##liteit
beroep
duit
##gez
beide
##lo
##schappij
aanvaard
##arandeer
##ess
aanwezig
##uld
##geen
##woon
productie
##ster
tegelijkertijd
absoluut
##sn
huis
stabiel
##wezen
##structuur
slacht
##ueer
##nis
##lig
noem
ec
##actie
##stuur
##eeg
##bsid
solidair
publiek
##vloed
##rinc
amerik
##stof
##to
adv
##leer
hoewel
lees
uur
inder
gezamen
gesch
gezamenlijk
##offer
coh
201
blij
is
tevens
##pel
kijk
verz
##beg
##rus
##heb
bank
confereer
druk
##rincip
##apen
##basis
immigreer
##riter
degenen
##minder
creeer
bestaande
##rip
vertrouwen
##kw
macht
il
prec
##inner
betaal
##koop
##eens
##rop
bureau
##riterium
liberaal
defin
##beveel
inderdaad
uitsteek
##deer
herinner
vanuit
groep
##wust
kies
##sluiten
##plaats
##voel
hetgeen
terrein
aanpak
vlak
##raaf
direct
##rok
weten
effect
##krijg
##vestig
##zin
beslis
##icie
conflict
##schrijf
##esie
presideer
weinig
##bereid
zuid
leef
ext
draag
streef
morgen
##net
genoeg
##jaar
##rand
hart
ontvang
verhe
document
##itaal
##20
beheer
baan
as
just
water
##rincipe
inzien
dood
tien
geheel
##ritisch
gewoon
indi
justitie
du
##ensie
##iv
omstandig
##toon
acht
##red
dec
respect
straf
##maatregel
##ageer
advies
##europ
kritisch
gebruiken
terrorisme
gebrek
##ib
ital
##ef
##oeken
bar
##oede
##anen
bewust
boven
noo
nooit
##iz
##reken
##ici
fonds
onge
form
grie
rel
speciaal
coordineer
versterk
waarsch
weder
##wijd
noord
ontwerp
##schrift
##aus
groen
periode
brit
##bod
ol
china
win
inge
bezig
precies
##rael
##dring
besteed
ondank
ondanks
##elen
##room
kand
roep
##rimineer
subsid
monet
##wege
##bie
##urg
##issel
twijfel
mate
##ail
##ari
##schaf
uiterst
##armon
monetair
##eerst
##igens
overigens
laag
stim
fel
not
##goed
ziek
inno
##kracht
bal
##hode
##nader
militair
centr
licht
##ijst
##onden
##agen
##oren
vlucht
mijns
ontwer
bekend
effectief
pal
##breek
divers
oud
principe
oorlog
allen
##out
taal
wijk
##onger
##chan
armoede
bijeen
##werkelijk
totaal
2000
##reep
recent
innoveer
garandeer
##conf
indien
rond
##valueer
zes
##komen
##rong
##mak
rep
miljard
##ijg
plat
##ema
conclusie
##iciteer
##ret
##sten
##hand
midden-
##wil
produceer
criterium
##cept
##.00
fungeer
##groep
##legaal
##worden
internatie
vervolg
hetzelfde
##gebreid
##'n
##ging
verde
##riend
##one
##eken
verdien
verheug
im
##emaal
helemaal
toon
##ieus
##ts
##oet
##ijna
vn
bijna
spoor
tegenover
##part
##duid
ple
##sprong
##legging
brits
bi
ambitie
vanwege
##cl
verricht
##verander
breed
afrik
voorstellen
vr
invloed
kennis
##uitvoer
##juist
eenvoud
feliciteer
##burg
10
jong
##gezond
reglement
tal
trek
inhoud
ev
##ial
sy
##rug
##halve
verget
##rap
hum
##go
zo'n
##veilig
##naast
##bron
##organ
cohesie
uitgeb
##th
##ator
uitgebreid
toer
##rediet
##dium
real
los
tenuitvoer
oorsprong
##schrijd
vergeten
##perkt
fran
##ase
##ein
##contro
genoemd
zwaar
wit
##oordeel
inf
tel
span
paar
gezien
12
kop
##int
noch
tenuitvoerlegging
##co
leer
ding
nut
verdedig
##mogelijk
ele
rechtvaardig
har
##rust
extra
##treur
palest
port
##kun
##enteer
beteken
san
##atisch
##mand
##mogen
haal
flex
##ek
##oefen
herzie
##kijk
##ijnlijk
##rak
##ruc
##hav
instituut
##amer
##ref
##ding
11
##ijden
##elijks
##iger
##teland
##xt
platteland
dringend
##reden
meeste
##bind
##wijt
uitzonder
##moet
##niet
##aly
technologisch
##enie
##pleeg
##trof
##tern
andeer
neg
ontwikkel
##udeer
##tien
eg
evalueer
##alyse
##ha
serieus
##erland
##moed
element
neder
cruc
##teer
cruciaal
const
##vermogen
##vis
frank
##-de
15
hard
boek
mondiaal
bos
##200
wacht
centrale
uiteen
bedrag
amerikaans
hoef
##streep
sig
##ink
human
elekt
lok
voorzien
##aai
stimuleer
##indust
extern
schep
##presolveer
##biedig
##ateraal
jun
kon
schade
ramp
december
##ente
verslag-
oosten
##lob
##orgaan
##oorzaak
##laag
ts
##met
##centrum
minimum
derhalve
##begin
##eeel
harmon
##ban
instantie
parag
##wens
discrimineer
reeel
prof
##financ
vervolgens
##dreig
enig
##roken
se
##daan
asiel
##dracht
##vangen
niemand
partic
ondersteun
##ling
poog
##maatschappij
paragraaf
gebeuren
##par
schend
##staan
##genaam
##ma
##blijf
rom
frankrijk
hof
##niveau
##snoer
kap
##periode
ref
##istan
gang
hoeveel
dankzij
##name
##verslag
waarschijnlijk
##nodig
##pos
lijd
##oi
voordat
##weer
schuld
portug
europe
stof
##idu
##ijns
##ion
##strategisch
lokaal
week
wapen
##ioen
soms
aar
kar
vak
##minist
bouw
##rastructuur
humanitair
off
last
##strek
##gewoon
##dern
##-europ
gezin
##ditie
voren
israel
tele
##meld
evenals
##ieg
##wissel
##industrie
##mijd
##ice
##ime
##product
wellicht
jonger
begrip
##itiem
moe
behoud
##tenis
##ce
administ
gister
##izend
harte
rest
ne
##gee
med
##genaamd
##streek
##win
poseer
keu
mult
##ulen
##ouver
comite
##dur
##uister
besluit
##nam
act
iedere
##lobaal
##aanvaard
jongeren
##-land
uitge
model
garant
herhaal
##hef
opereer
lijst
##lateraal
indiv
centrum
individu
##roeg
##ijfer
##ooi
##ouverneer
fra
##prijs
verlijden
##wijzig
2007
kos
##straf
##slaag
bijdragen
keuze
##inst
vanaf
##bbel
##inder
##iswaar
weliswaar
jan
kwijt
##reg
##beur
ener
##scheid
ierland
##uil
##bedrijf
25
bepaal
boer
##dom
franse
##emen
kandid
ondersteunen
gee
deleg
##aterie
##ensioen
juni
naast
zoek
kandidaat
##zi
modern
##its
##russel
##ineel
gerecht
school
gun
irak
brussel
nederland
##eenvoud
bepaalde
vest
14
treed
##bank
geschied
##ilie
delegeer
streng
afval
vs
##afe
negatief
##bruik
##probleem
overweeg
qu
##doeld
##ensief
##orisch
traditie
imp
##gouverneer
conventie
globaal
diep
##ach
drug
hong
gemak
notulen
eerbiedig
##anig
##pe
houding
##ratisch
methode
vestig
##beheer
voet
##eik
##wek
financie
event
##kenland
em
gisteren
hal
##langs
sanctie
##terneer
duits
##geeafe
##od
##getwijfel
moed
##esseer
duitsland
##arije
##ovo
eventueel
##iaans
west
##dam
alterneer
signaal
##ulier
mobiel
buur
##abel
teneinde
onlangs
##structie
voorst
stijg
##ronteer
##ateer
dicht
voortdur
##financier
##verdrag
auto
bio
herstel
analyse
pass
13
voorstander
##/9
##betaal
##/200
migreer
##vrij
##zone
arg
pensioen
voortdurend
vroeg
##rest
##tisch
##aart
##ocol
trans
omvang
effici
##leven
##vervoer
ongeveer
##oodschap
##nemen
contin
lijn
##uari
januari
##icus
##ialist
##her
##zee
##rist
iers
kosovo
##bineer
2004
brand
##lot
boodschap
griekenland
ro
personeel
##hel
dreig
##gun
##kan
aard
verkeer
ja
ob
##risch
onderzoek
kapitaal
republiek
krediet
fact
##let
vriend
ageer
preventie
ambitieus
infrastructuur
##haaf
##rokken
dim
neer
ha
##dw
##ule
tevreden
##iep
nr
##-b
vervoer
mechan
ene
##grens
##riek
##ruim
get
hist
rijk
##ivers
##rimineel
betrokken
##organiseer
##uich
jul
2009
contact
##emand
pakket
##werpen
georganiseer
##quent
iemand
overgang
##ook
fout
##lende
ee
2001
2002
geslaag
oostenrijk
##ude
##biliteit
plicht
thema
##lotte
##nen
tens
##lijks
##partij
tenslotte
olie
univers
##ai
mechanisme
europeanen
##avond
roem
1999
la
##text
historisch
verzoeken
dw
vrees
##ril
##apac
##ratief
##tocol
##erend
mei
nov
##taal
spoed
eraan
##apaciteit
it
2006
##enaar
tref
oek
slo
koning
##hol
maart
zichzelf
afrika
##werken
oekra
##anteer
##han
context
rad
##'s
##ba
verbod
eeuw
begrijp
##ress
##speel
cat
schen
lu
##agne
fase
sport
2008
bese
regime
argument
##integreer
formuleer
##spreid
2005
woon
nr.
##kost
ambt
##spectief
##danig
reageer
definitief
zwak
##orie
##kwal
##confronteer
onderwerpen
##kamer
christ
aarde
##project
##plaus
medium
##ation
##sk
jo
sept
prote
2003
september
cl
applaus
italie
rede
##oge
##oss
##eeks
trouw
spaans
praktisch
ooit
##emin
communiceer
##wak
betal
bureauc
##disc
crimineel
##duur
roemenie
hecht
administratief
oekraine
constructie
##controle
plen
minst
concent
toerisme
aanvul
##iem
30
geest
ass
sc
##actief
ben
spanje
##zijn
bul
##ugd
voer
##besl
et
oorzaak
maatschappij
merk
ontbreek
verlie
accept
defensie
dra
##spreken
particulier
jam
materie
terrorist
2010
##zo
gesp
beperkt
uitspreken
reeks
bro
interesseer
pt
##techn
zul
geslaagd
start
##akter
dimensie
pot
##stroom
##vo
ou
mot
vlieg
##gericht
##tw
##ober
##ampagne
november
plenair
realiseer
munt
##pt
verbonden
ind
genees
for
opt
expl
relatie
stuk
prem
##afel
##arief
ade
gu
onderz
##blijk
erkennen
pij
##situeer
afg
gl
definitie
karakter
volkomen
##erendum
##tje
##ros
##iter
##uldig
##traag
##udie
##sla
##str
fl
mand
opdat
gedrag
##kundig
handvest
correct
##eraal
##rond
##icieentie
wezen
schaad
ouder
##ings
##productie
russ
##mid
onderzoeken
italiaans
palestijns
bewijs
17
##emmer
samenwerken
intergouverneer
bureaucratisch
##mede
max
rat
protocol
okt
oktober
beslist
serv
gaan
referendum
##voorwaarde
visum
##iland
turks
##-democraat
mandaat
bulg
gedur
det
overal
##ijt
##cie
vanzelf
controleer
##oosten
##ongen
aangegeven
##brand
gedurende
stil
fraude
##welkom
##ensus
erkend
##lei
noord-
russisch
inzet
##-0
##alisme
##oegen
##norm
##ton
##macht
subsidi
##ds
##aars
tro
jammer
maximum
##icap
##plom
##all
consensus
fam
flexib
stede
000
slaag
##trouw
zeven
##sequent
##stre
genereer
##zins
##dr
18
bron
##temin
intensief
inc
##hulp
##dus
pleit
dou
##ologe
##ubliceer
amster
aanvullende
##gaand
interventie
belg
##inie
amsterdam
stabiliteit
##ins
let
visie
##-ru
polit
##samen
##oever
praat
ident
##raan
onderhav
familie
##nut
21
honder
misbruik
mass
iran
##wijze
##zwaar
verliezen
presenteer
slotte
##eloos
beweeg
##quaat
subsidiaar
zwee
##ene
##zeer
ratificeer
cijfer
velen
flexibiliteit
gas
bind
consequent
##reuk
16
##grondslag
##och
##zu
##drage
##nisch
##iment
##centage
mondeling
##gebruik
subsidie
post
##economisch
##.000
genoegen
emissie
studie
diplom
herzi
##vel
##rer
##produceer
zweeds
##eemd
alsmede
##grijpen
voel
socialist
genoemde
adequaat
trouwens
##kop
##wapen
2020
zuid-
##ko
##ische
legitiem
##olie
sec
##middels
inmiddels
energ
##naam
##tr
##instrument
verdw
veront
verdwijn
tafel
##ose
perman
grondslag
##kond
onderling
permanent
cyp
weiger
##ressie
tab
##voldoend
##-t
##lant
respecteer
portugal
kwets
onthoud
##erp
juli
politicus
tijdelijk
duizend
spel
betekenen
koer
##gemoet
tegemoet
##sie
##bud
pijler
##water
onderhavige
midden-oosten
##vaat
##lijken
verwezen
##leng
verwezenlijken
raak
##isatie
schip
etik
etiket
export
beeld
status
betekenis
belemmer
nee
band
mark
##atient
kro
##ore
##energie
##rief
##-europa
gesprek
waarneem
##verkeer
##streeks
##oeverein
thans
half
##noem
##vuldig
strik
bepaald
stuur
##zel
eurozone
##agier
seks
es
balkan
27
statistisch
eiland
##ract
intel
##redig
##heids
##pret
totstand
sommigen
potentie
deskundig
##eff
strikt
##ple
##geval
steek
##sproken
ii
##ctro
##breuk
##sman
verschijn
##weden
##uif
##landse
##preteer
##nium
##ute
##cel
##vuil
uitgesproken
niet-
loon
##kwestie
rechtstreeks
ban
moeite
zulke
##zam
##..
soeverein
vorder
##wongen
gedwongen
zweden
minuut
ppe
##mun
profiteer
dr
stop
bulgarije
lux
##ausule
doordat
verloren
##streef
ab
verscheid
multi
rapport
##burger
##blik
corru
50
##cle
##amerik
##vant
kamp
##eb
meet
april
##enseer
##mechan
##even
##onie
##spaar
hoeveelheid
gelov
##studeer
naal
degelijk
##genoot
##nietig
##elevant
verscheiden
helder
##aden
grieks
the
##roso
sub
##rib
statuut
##jech
wit-ru
##heers
##naar
##la
detail
##ofte
welk
##meet
elektron
eu-lid
##wijzigd
##und
mal
##budsman
patient
tsjech
##pakket
##presenteer
naties
ton
oppos
navo
##hoofd
luister
##ocieer
1998
prest
##avie
##begrip
##rucht
##ossier
do
ombudsman
##visie
##achtig
##generaal
koop
##ectie
god
##ograf
premier
##schil
##hagen
deelname
belofte
##mechanis
continent
passagier
tabak
wijn
zu
bus
verstandig
vervangen
gep
ij
juich
##abriek
cyprus
bijstand
vierde
kust
##cleair
barroso
##sle
##egorie
wit-rusland
##werkstel
concept
perspectief
handhav
##formuleer
at
##mechanisme
complex
relevant
##pol
##are
##vig
douan
hef
##aap
polen
bestem
##mbo
unan
rac
##enhagen
##zamel
unaniem
don
opinie
ang
roma
corrupt
schiep
dubbel
##hinder
##instituut
eth
##opbouw
##tu
alsook
...
autom
feder
##feer
vanavond
nucleair
elektrisch
zol
oppositie
##ibel
klaar
##mon
aangelegen
bezoek
teleur
kandideer
wto
##veld
toestand
offici
zolang
##beslis
fisc
car
afspraak
##strekt
bud
##heim
relig
##ica
##snel
##bar
##beraden
volstrekt
luxem
##broken
co2
schengen
kopenhagen
rekenkamer
ecu
verplicht
verkoop
##haven
constateer
allerlei
##zend
voornaam
##best
##methode
##kle
enzo
kaderprogramma
verg
##iform
formeel
enzovoor
##creeer
beet
india
luxemburg
octro
##ance
##afrik
vreemd
haven
tsj
##hanistan
tw
##pen
econom
besliss
##aatsburg
##akel
vice
ingewikkel
dossier
gedacht
##itiek
straatsburg
afghanistan
budget
##oom
nadat
##vriend
technologe
capaciteit
nadeel
ongeacht
##wijk
inbegrip
gevangen
overheiden
##keurig
pool
zorgvuldig
##ders
##besluit
1997
##por
##entegen
##spel
daarentegen
##informeer
sim
verzoch
##auw
##rei
##crisis
can
welkom
##schuld
fil
##tan
commer
cu
##ay
##werf
bang
prim
inkomen
##ipeer
##coordineer
heers
flexibel
nauwelijks
ondernemen
beseff
##eten
dwing
##werkstellig
verlies
rei
afrikaans
dict
bond
commercie
brief
##ta
arrest
##ident
toename
kandidaat-land
##bal
##paraat
betoog
##oordelen
gewijzigd
##gegeven
ontmoet
hang
##elft
ster
##omstandig
vrucht
##stip
instem
##ande
##icieent
helft
##akkoord
##buur
bewij
##kunde
vang
##ermate
verlang
ep
##erve
jeugd
zicht
##wend
schijn
term
ofwel
associeer
##tast
kun
uitgebreide
##igeer
ngo
##orium
##by
sal
mooi
dy
interpreteer
stad
##uteur
rij
binnenkort
luid
sociaal-democraat
meerdere
##retaris
economie
##ender
##commun
40
##ype
chem
nauwkeurig
##ritorium
negen
##termijn
efficient
##istreer
isl
##belang
legaal
##ock
categorie
rust
##szins
enigszins
##oll
##vloei
##ell
moord
##ex
##ptie
compenseer
##vangenis
##koppel
23
ide
##spectie
lin
voeg
besluiten
red
reis
##ografisch
100
##gas
##gave
##dek
quot
##schuldig
beoordelen
civ
##raal
##urt
##efen
verstrek
klacht
compl
1996
zijde
gr
##garandeer
combineer
##controleer
oefen
##huis
##waak
##eikend
verhoud
##schat
##iciteit
##poseer
heden
protest
etnisch
feb
verbaas
##probeer
##ruari
uniform
februari
christen
##bestand
##oeder
##oto
##iterraan
aanslag
eenmaal
##aduw
islam
##neel
##inter
gevangenis
realistisch
tenmin
tenminste
schrijf
portugees
##confereer
##etail
##wijder
mel
jap
##rang
##aken
minste
##gene
kr
keur
deur
##en-
spijt
##pleit
pat
##boden
kaart
ingrijp
##ete
financieer
waarschuw
ky
##tussen
bloed
vn-
##kader
##arken
uitstoot
verboden
tol
auteur
##egendeel
integendeel
##assen
##osl
##kelijk
##rate
##itel
herhal
constituut
##help
daal
dynam
identiteit
ur
##cy
civiel
overtu
genese
kwaad
##stijg
##clame
kroatie
##selveilig
##kaart
24
##loon
##erent
##raelisch
dankbaar
bir
lat
##tegen
##partner
kool
gedetail
##magen
territorium
btw
##inees
##schema
##volge
##mbool
wissel
uitvoer
blok
##son
heen
##rol
##oest
##ramp
engel
##schrik
##handhaaf
##drukkelijk
##schoon
transport
##leden
##verschil
uitdrukkelijk
##terrein
efficiente
concentrer
schaal
##-brit
##initiatief
mondelinge
##jectief
douane
##tannie
##ob
##moord
opdracht
les
exc
dicteer
dynamisch
zodra
mac
geografisch
sug
##iegel
22
##uls
deskundigen
##oorlog
voldaan
ecologisch
##bond
thuis
##combineer
georg
##bureau
##wassen
nederlands
##itatief
televisie
honderd
bevestig
schoon
voorkeur
alsof
erf
wegens
mer
##zuinig
non
symbool
beloof
massa
##respect
##ruis
kunst
handhaaf
##su
##-lid
angst
##utel
verkeerd
##krediet
conver
moeder
groot-brit
##alleer
fin
gerechtvaardig
factoor
##icaal
groot-brittannie
opbouw
vee
##oiteer
objectief
##technologisch
gat
herstellen
##daar
##gev
##aliteit
##ah
##mor
##lop
##autoriteit
tun
##zichtig
datum
gepaard
contract
onszelf
chinees
##ingen
##war
##duceer
ofschoon
schaduw
##hof
##ontre
##tin
##-europees
##dem
198
integ
stroom
##olideer
diegenen
servie
##dificeer
meteen
##geld
motor
verbied
octrooi
##ratege
medisch
rund
##schuif
nota
##olf
del
maal
##eindig
##genoem
##atlant
##old
##usa
##invloed
##toer
trots
a5
##kwalificeer
afstand
##stoor
##maar
##ile
##spiegel
secretaris
ul
##beh
##ieeff
##meng
##verre
bijl
##jet
stadium
energieeff
jeg
links
compliment
veer
hanteer
mk
##spact
auton
##organisatie
##iste
##rapporteer
##was
##laaten
convergeer
nieuws
##erv
europol
##chtend
sla
uitermate
leger
##europees
##ollar
motie
inbreuk
alli
universeel
##gemak
leen
##reur
##atiek
##namelijk
kandidaat-lid
vracht
optie
jour
##aire
text
bloot
efficieent
ethisch
##pre
inclusie
##gest
autonoom
actueel
optimum
tam
anti
sleutel
textiel
vet
##luid
##ana
zwart
georgie
##sy
##oritair
##rel
##luister
##med
##ings-
alliantie
##ifeer
##amerika
##moe
goedkoop
##andaal
tracht
reclame
enzovoort
tarief
impuls
##campagne
##aalf
ti
prodi
##dubbel
##ona
brei
geheim
##stat
studeer
twaalf
urg
oprecht
moreel
journaal
##moei
##maa
noor
hongaars
zichtbaar
##pliceer
##genoemd
donder
##fun
fiscusa
miss
##rook
bericht
##50
percentage
logisch
heet
dom
##zal
##handicap
##politiek
##30
kenn
ppe-de
jegens
##oepel
potentieel
##eiste
##201
##onde
##mot
maritiem
##berg
presteer
##ouden
energieefficieentie
marok
##aliseer
##ioneel
##/0
bse
##za
##orea
versie
##lect
simpel
meld
##oth
elders
pe
tegenwoordig
trans-
exploiteer
coherent
##afrika
melk
gehandicap
dur
overtuigen
##ijnen
##discrimineer
opgericht
test
fron
reserve
telk
mont
vrijwel
1995
buig
##ontbeer
donderdag
mc
ent
sm
##staand
proef
bb
alv
##spoor
privaat
##gestie
voorzichtig
tsjechisch
##iver
lam
##stoot
##inger
##duizend
publiceer
collectie
##zwak
balans
##ational
ac-land
##vredig
japan
##strijk
radicaal
racisme
##code
schat
intellect
##raken
hu
##nu
factor
kyoto
##heids-
dollar
##ichaam
##fin
mkb
##ao
honger
draai
voornemen
fabriek
doorslag
##voed
schot
pan
slag
lan
):
##effect
gal
##alniet
oost-europa
##besteed
finland
zaken
nice
behal
diplomatiek
behalve
biologisch
middellandse
##lijst
##noot
universiteit
##ieuz
participeer
radio
gedachten
exper
##harmon
##verantwoord
ecb
##ill
desalniet
campagne
desalniettemin
kat
type
a4
##acc
pools
telkens
chemisch
##zer
##vlak
##som
hom
##smet
missie
##alie
##waarts
##communiceer
##middag
rub
hongarije
indiceer
##cohol
##stad
##reem
invoer
31
voorbereid
pakistan
zuiden
29
##sen
28
democ
##munt
apart
##ductie
nabij
diversiteit
behulp
##celona
##ontreinig
##stleden
##monst
waard
extreem
pse
scheid
##schaal
26
##stabiel
##helder
##olog
##ert
verw
urgent
##comite
##weldig
##investeer
##egeer
bosnie
##anceer
##criterium
implement
titel
##monstreer
bbp
##ada
##unie
ven
egyp
schrap
##anks
##clausule
belgisch
##ry
##iere
alban
belgie
##ugen
##vlees
concentreer
##ondanks
##hart
##schaps
vlees
niettemin
desondanks
##itisch
apparaat
80
ara
schandaal
bra
log
bru
60
##ochtend
dramaa
alcohol
##middelde
fat
##heen
##omb
##accept
ppe-de-fractie
fol
amerika
##morgen
onderlinge
suggestie
dist
##ziek
sterf
klem
##raks
jongstleden
religieuz
##ijns-
plek
12.00
oostenrijks
##wakije
lot
##latie
##divers
##tekst
##direct
##opolie
cir
verstand
##vlucht
getu
##uun
cuba
scherp
gekwalificeer
##iers
2020-
##gisch
hinder
##ara
klop
##staande
##ja
##cons
kortom
##denkte
hor
baat
efficieentie
##die
##,5
##gezind
automaat
sv
##gl
##erveer
##omer
##document
bijlage
strek
##kwaliteit
##lees
##kant
vaardig
vaker
voorlop
citeer
##cijfer
voorlopig
##5-0
ba
and
##regio
##rechten
##gevolg
decen
##slacht
##handels
##model
##slechter
##schakel
##rep
##ced
arab
aud
opge
##publiceer
rug
ontslag
handicap
maced
zomer
##resolveer
##ratificeer
donor
##ift
verplichte
zim
optre
stratege
aid
toestaan
gene
plaatsen
##che
##schaaf
##ala
schaduwrapporteer
dig
##arbeid
syn
reizen
2011
stimul
##mpel
##subsid
barcelona
refereer
##ash
uitbuit
vervang
slowakije
##orde
##doen
rou
##dragen
herhaald
conserv
totstandkom
gering
##trent
latijns-
millen
##az
demonstreer
groe
import
totstandkoming
gemiddelde
##wijg
##stakel
vloot
tsjets
maast
##ino
##ijs
##ath
berg
##oten
reik
##toereikend
tragisch
amerikanen
gerust
besef
verzoen
millennium
obstakel
##iker
##groei
##ronde
##ipl
##formeel
oce
birma
omgeef
quotum
##capaciteit
digitaal
maastricht
standaard
beperk
koe
speculeer
tibet
co2-
##sgez
##schuw
wereldhandels
krachtens
gra
##stap
##quis
lit
koers
##bab
profess
##ys
lichaam
bewezen
forum
bewijzen
beperkte
##treff
eerd
##dist
##rempel
##pers
##emarken
##anker
pact
##fase
denemarken
##diversiteit
##nog
verscheidenheid
durf
wereldhandelsorganisatie
teken
oceaan
drijf
teek
##ction
zimbab
optreden
##scherp
palestijnen
00
##kn
verenigd
bil
##les
overdracht
stimulans
geschil
multin
pa
##wagen
##enen
##vecht
gevangenen
verval
verblijf
onderdaan
##up
transactie
##99
##inf
verlangen
hoed
inflatie
beurt
bijgevolg
kloof
suiker
##hoop
doeleinde
qua
bodem
konink
##ace
cy
berlijn
consumptie
koninkrijk
blijkbaar
lou
##band
##atlantisch
prioritair
01
banaan
##oslavie
wek
##ulair
##men
hoof
##ribun
demog
aanbod
genie
fac
##foon
##atie-
welnu
##mann
##eikas
broeikas
voortaan
opzet
##anda
macedonie
##wit
geme
##proef
soci
##ipline
500
gewicht
engels
ideologisch
##diep
eensgez
demograaf
oe
marokko
##oegoslavie
communist
##heidsraad
rijd
biodiversiteit
##iciet
##vatt
eensgezind
mold
troep
datgene
hyp
##-201
##geh
decennium
##mel
registreer
##houding
##realiseer
##doende
##actor
totstandbreng
##iser
buitens
##word
b4
mic
##tracht
genieet
albanie
terreur
##elijke
##spir
##eep
zwits
bevredig
##steek
##riere
zaal
waak
islamitisch
opereerioo
##usi
##iets
##modificeer
pse-fractie
macro
##schikte
totstandbrenging
##cultuur
rente
##mant
##bour
betrekken
##nodigde
aanval
bed
staats
subst
##alistisch
##rict
##debat
##ogen
prov
vi
prog
rechts
dusver
##ouwen
teleurstel
kanker
##schep
straks
koppel
##ologie
kwalitatief
misdrijf
##/98
canada
vennoot
gest
##accin
azie
##juich
zuiver
##verl
schande
kennelijk
comment
rubriek
##ijand
##bouwd
rome
krant
kil
##thans
hoofde
demograafisch
eeg
##wijzigde
althans
##teel
milie
##start
alger
##schot
##aaper
##sfeer
vanochtend
##enden
getuige
##hard
##stek
fi
intro
vereiste
##stisch
##rategie
mak
wijd
administreer
##ouder
belangheb
route
##ovjet
vanmorgen
##urd
schaar
pijn
geneve
##tegenwoordig
ouderen
luk
medi
##raktijk
##traaper
##oudende
vinger
##percentage
zimbabwe
grijp
90
##schref
##mens
litouwen
##stop
##schiet
##schort
##traaperifeer
joegoslavie
##democraat
sk
geop
##roepen
##omen
olaf
fisch
##porig
gemeente
##test
##woorden
officie
bestand
##ump
70
##kenmerk
buitensporig
vanmiddag
trage
var
gehandicapten
deugd
##kas
##volutie
##vb
##atell
aanstaande
adres
groeip
consolideer
gren
langs
sovjet
##natie
##ub
commentaar
##school
##housi
tragedie
soepel
zelfstandig
plant
monopolie
oproepen
##isteer
super
##instantie
35
hout
##uter
emu
##obby
##vens
discussieer
alde
overzicht
uniek
kol
##eerd
##blok
##uitgave
enthousi
##teconomisch
##ira
so
aangaand
substantie
egypte
##gram
##tarief
##gageer
conservatief
tsjetsj
tr
kad
lof
##-programma
von
motief
##bevoegd
vlag
##geheten
dro
sant
##ley
acc
geschonden
##/97
2013
kal
rand
##uus
bod
centraal
##tooi
##stim
letter
##soort
##ox
ig
##uim
##vertegenwoordig
toets
##klaag
##oleer
actor
honderden
bestuur
est
directeur
##zalig
ale
werklo
immuun
cs
temp
##wereld
##schre
eu-land
zetel
braz
voortreff
ef
##tak
dek
voortreffelijk
zon
##ann
wo
##rigeer
##orens
uitstel
ham
transatlantisch
steen
##rink
##atorium
minstens
louter
##lekeur
##draai
verschillen
golf
1994
kwart
##zieig
##endeel
uitvoerig
##essie
##twee
dienen
sele
##ise
##wind
incident
moldavie
##spireer
pop
financi
##snijd
poet
horiz
kn
##okkel
trans-europees
bedraag
vitaal
##utisch
clausule
bot
##-economisch
straat
geweldig
noordelijk
gue
02
##yn
latijns-amerika
ke
willekeur
londen
installeer
gerichte
micro
lobby
##korea
##ieft
##onderzoek
excuus
afwezig
arabisch
kilo
##ka
afgevaardigden
medic
mits
##-c
new
intellig
##district
tsjetsjenie
vul
telefoon
##reageer
farm
seder
##strom
sedert
##onderneem
mu
##orp
erbij
alde-fractie
baar
##ski
alvorens
drempel
##gan
##afond
optim
##stort
raam
##trem
##ori
beslag
##utraal
##onderd
197
##ca
##ote
westen
##verbod
##aale
##verenig
's
alst
paap
##mil
omtrent
primair
##endergelijk
expliciet
gar
ingrijpend
##defin
plur
prive
ash
homo
##lie
##endens
##rag
stabiliteits-
##regeer
##ummer
priv
diepgaand
##usie
vader
##honderd
verhaal
##stimuleer
internet
##houdend
ikzelf
veiligheids-
da
##keten
##eet
##meens
eu-niveau
oostzee
salaris
geopend
noorden
ngl
##geheel
wijt
malta
av
##klem
sar
doha
muur
##azie
##resulteer
drastisch
vuur
##wan
##pri
##meer
absurd
##spil
##bil
flink
instellen
beraad
##leet
##abiliteit
integer
##aspect
fer
inspectie
##presideer
repressie
##eigen
##jar
##misch
dubl
pest
##iens
##ons
##idem
warm
geleerd
aug
pap
##gerecht
##ere
##ublieft
##line
alstublieft
wreed
##ortel
vijand
##slim
schiet
tunesie
overbo
overbodig
##hoef
bescheid
##subsidie
pet
zone
##ruit
schul
vrijdag
##banon
verontrust
##ieel
plaatse
2012
tempo
tendens
##o-
##avisch
elf
##voeder
vandaan
sociaale
hol
wees
ale-fractie
ergens
##soen
cong
niger
team
revolutie
westelijke
hoek
##strategie
##definieer
volwassen
##voorraad
august
##warm
landbouw
rampzalig
dublin
biobrand
##scheppen
##eneg
##heem
##hne
bedragen
##ensdag
##daal
##touw
##aaa
woensdag
wend
medicijn
1,
eib
##ini
ech
levens
##/2001
##woest
##beweeg
verts
##hn
##ano
massaaa
ngl-fractie
commissievoor
strook
geschikte
##overn
##schrap
libie
maandag
ov
##anger
##ocaat
##zekerd
dezen
indon
totdat
##plooi
relatief
distrib
##ertificeer
##-200
pleeg
sn
verontreinig
groeipact
tribun
##ziger
##schrev
wind
eu-be
##spoed
teweeg
##oorl
gezag
libanon
dump
stock
palestina
##.30
##vormd
##amendeer
##fect
identificeer
tolereer
lissabon-
media
##steen
promot
toeval
ira
extrem
##buit
langzaam
intentie
arts
syrie
ronde
vaccin
##sm
impact
zuid-afrika
zeef
##infrastructuur
bol
##baat
alom
acquis
##bargo
##analyse
##bevel
##standaard
igc
##itter
##geloof
augustus
jaag
roe
##ierland
##tran
##ork
droom
##eerbiedig
sticht
moslim
macro-economisch
opper
kaak
##teelt
##sh
verra
##ogel
##-2013
##overnance
cam
##var
advocaat
##nood
##put
##ack
##asse
belanghebb
horizont
haast
##hoe
zwanger
wederom
##half
##tol
atlant
engageer
overgaan
definieer
##atelliet
03
inspan
werp
compleet
##ioneer
pref
hetzij
##raten
nacht
vergis
##erwijs
merendeel
trein
##dege
##sych
300
mediterraan
christen-democraat
##oul
sloven
geeerbiedig
jullie
##discuss
##/1
terdege
brazilie
c4
gecom
##-up
##for
##stein
kwant
lt
##top
##kap
##besloten
geldig
##arrest
2020-strategie
ei
kerk
##opdracht
galile
comit
intelligent
kwalificeer
staal
bor
##hanteer
##ritiseer
##nadeel
nerg
zoiets
nergens
##ck
##schip
##slaaf
orden
compet
schenken
fatsoen
##const
##behoud
##ipuleer
noord-ierland
ashton
stevig
governance
sad
##schend
afschuw
##hecht
eu-burger
psych
##gerust
consist
fischler
zwijg
##holm
antwoorden
selectie
##ortus
slovenie
eet
bon
kau
samenhang
veertig
computer
theorie
##enk
##verstand
1992
zieke
vel
organ
##reis
##-00
##ific
gast
##mediterraan
##rechtvaardig
rati
blauw
deels
zwitserland
ovse
##vals
who
##mijnen
sfeer
##wo
gemeenschap
##artij
75
misverstand
westers
96
klant
##jan
gek
##week
##que
##ask
gewap
##lasting
prag
##ensioneer
##constateer
colomb
opname
film
vat
##kritiseer
opslag
audio
pragmat
alarm
verheugen
##post
##wonder
##arch
37
##oost
##banees
abortus
patten
satelliet
inform
spaar
perfect
0,
##velijk
##gedrag
##uitstoot
juris
##low
wal
##risico
##visueel
##nose
##kent
vooraf
terzake
##materie
##oper
billijk
##verbruik
blik
ker
##ionaal
teel
##uiteit
halt
##functie
vergelijk
sup
ko
ondermijnen
vaart
expert
vermoed
mich
voorbij
##amb
##ille
##imor
##weiger
baltisch
##sis
##haat
##fractie
eco
ras
##ato
##lust
onrecht
prop
##ymp
##urs
##kleed
##dusa
##erecht
##igd
##voelen
##registreer
gevormd
##clus
program
ambass
director
neutraal
ontslagen
schulz
##ren
##arier
##spoort
##delegeer
##wille
##tex
olymp
contra
##ionisme
##-m
##oedan
##spartij
farmace
drink
puur
gaza
##pere
##kwaam
bruto
##xico
symp
sah
##ancier
solide
conform
middels
##omp
galileo
##achter
getuig
##relateer
sof
plafond
##orn
##uteer
rood
sh
##bev
tampere
gb
register
##comp
frontex
concessie
bush
respectie
##erijovereen
respectievelijk
##anie
federaal
commissievoorstel
##vergader
letland
samenhangende
farmaceutisch
riv
verbruik
fys
##onderwijs
noords
tast
##obiel
##oorte
##opereer
harmoniser
##arisch
omwille
##kamp
automobiel
hy
wier
voorkom
schok
##hul
centraal-
roemeens
##discussieer
##klein
##halte
po
##zier
stort
boete
2007-2013
vaag
##principe
##koer
congres
##vent
##ffeer
multinational
##ti
mexico
95
##erger
##t-
plot
baron
##icide
##interesseer
algerije
##ario
##mark
##gooi
##isje
##rijden
bewijst
front
verant
sa
##beef
besch
imper
##bon
45
##istiek
tai
##vrie
##cont
##conc
solana
schotland
gecompliceer
verder
congo
##seks
##stitueer
nat
##uber
##astro
intensiefe
schaf
att
##oli
uiterlijk
moeizaam
##cal
agressie
geboorte
nale
##grijs
hels
tri
1993
##reen
##undel
follow
estland
##oceer
##ovina
##ivel
bevredigend
hamas
##bry
##delen
##vrijd
strijden
##installeer
##preventie
iraans
##concent
pracht
##spl
##quot
christene
c5-0
tenzij
prima
##twist
##geschik
parall
##bedrag
financien
sindsdien
plezier
##ziatisch
pir
internation
##ingscomite
##concentreer
energisch
iraak
uitleg
##/2
geinteresseer
erkent
wild
fruit
##jes
hiv
##bsite
##tini
geringe
santer
volkspartij
##discipline
logica
staak
##quete
continuiteit
wall
democratisch
##auffeer
veiligheidsraad
productief
klink
verlop
code
exclusie
##voren
diezelfde
follow-up
graan
meisje
kenbaar
arme
parallel
##ue
97
brok
##bus
##alist
continu
reiziger
terughoudend
hypoc
erkentelijk
vecht
##inki
36
##a-
aarzel
pr
##roei
traceer
total
##komst
filos
##praktijk
##bestaan
werklozen
helsinki
leeg
##rov
##lementeer
saddam
belanghebbenden
dem
eu-wet
##rey
schro
##ontwerp
##aang
##disch
98
protectie
koester
##chine
##persoon
fant
##sc
##lam
brug
wenen
gevoelen
1990
romp
##cessie
sold
##rictie
ontwerpen
pragmatisch
soldaat
##stan
##vr
##oefte
premie
##republiek
naleven
##behoefte
kabel
##waai
##ors
eenpar
##resp
eenparig
##innock
eerst
bezit
##gereer
cha
##otheek
vervallen
##sport
marge
##ifer
32
cos
traag
##imideer
##zegovina
##fac
fail
##schenk
recy
##/96
kamer
beraadslaag
##dt
##enario
##zeil
medel
hoezeer
##enegro
kinnock
professioneel
az
behel
verdwijnen
##aren
##asj
##bijeen
witboek
##e-
droog
##baan
website
##zitter
##iox
enquete
ware
##enom
soedan
viet
milieucon
arch
##tocht
##hangend
##hoewel
sis
##sson
##duik
##gegaan
kwalijk
stabiliteitspact
embry
breek
alhoewel
##technisch
opgebouwd
taiwan
evenredig
exact
minderjar
marien
##dood
meda
organisme
voorop
nummer
bemiddel
##rapport
stockholm
rendeer
##etrisch
verk
national
##edeer
##hr
college
eu-beleid
passeer
##uze
##ibi
ben.
distribueer
##vee
##het
overname
impliceer
madr
##ivist
fysiek
##toom
madrid
tac
proport
##staf
experiment
faill
04
riek
##imiet
##rient
dar
haiti
##onen
##rad
versterkte
montenegro
pesticide
##brok
##weegen
bemiddelingscomite
##orven
veroorl
##gew
##weet
winkel
##houdende
##hau
##roost
##roon
##gem
levend
gbvb
##mond
stam
##agenda
plus
##ratis
neger
33
vals
zend
aandachtig
trend
##braak
geens
##parlement
geenszins
##cor
mosk
mcc
##nes
blind
mededelen
##ijl
rijs
loc
orient
uber
##binnen
##ocide
servisch
##iden
teveel
sahara
##zamen
##stemmen
kleed
verplichten
gender
dieren
##ctionaris
nigeria
voortbestaan
precedeer
ra
veld
##optie
imf
levenslang
meng
##vic
wortel
unil
##midd
noord-korea
nocht
##vattend
##gewens
concl
geschillen
##middeld
##amo
restrictie
nochtans
wis
##acy
progressie
##-1
moge
##kasus
##wen
paspoort
##-v
##rog
aangrijpen
##verband
##asc
cod
ppe-fractie
##haupt
uberhaupt
##ago
##ofisch
certificeer
link
martin
moratorium
monti
##ola
##achelijk
##mit
belast
martel
wantrouw
wed
##eso
drama
dik
##waardig
corrigeer
##zy
gemiddeld
##verlof
enthousias
rig
##uc
##bekend
verbaasd
##technologe
recessie
##apparaat
##ugel
geaccept
##epsis
radioactief
34
##rud
48
tsjechie
haag
ellende
##ns
##lucht
haak
kruis
##osevic
##wat
##bert
frans
##-p
##wski
privacy
labour
##kra
aanleg
geweten
varieer
oost-t
##doelen
veroorlov
##twijfel
verslagen
##seling
toereikend
##consolideer
jac
zel
##vast
milosevic
vit
##alitie
oost-
integraal
##negeer
alsnog
##bewust
oost-europees
enthousiasme
lo
bele
blair
vloei
##graaf
##25
##gezet
##ura
##tering
##ed
milieu-
ein
hoedanig
geinteresseerd
concludeer
##ili
beledig
##breed
schuif
medeleven
##meel
ingang
plotseling
overb
fusie
schuil
##conflict
##ela
verheugd
supra
minimumnorm
##hoek
neig
optimist
##inair
##otie
##ifieer
##stabiliteit
colombia
(9
##streden
gearrest
beneden
##faciliteit
##enomeen
##a.
tamelijk
co2-uitstoot
dav
##agement
bn
roth
degene
afdoend
##volgend
##ijzel
##roer
b5-0
gehoor
stuit
##pensioneer
##schijnlijk
##ester
indonesie
##15
monit
emotie
cot
parad
para
##toestand
dwang
mun
princip
vogel
##ifte
namaak
prestige
gratis
##entieer
##zoekt
slaaf
##too
##kool
##intensief
kolonie
##wegen
gebouw
##akis
york
vermoe
##fferentieer
glas
##va
##-her
##ars
##rustreer
##financi
fenomeen
g20
##torden
synergie
400
lief
klass
38
intimideer
##sterf
150
##fl
##roof
##iteits
##passe
kaukasus
eigenaar
impasse
tonijn
haat
lood
##incie
bewoord
##liberaal
##ington
##antan
##schuldige
bewoording
gift
spect
slim
geduld
barriere
verworven
##dier
veto
##uin
##ika
##istische
buurt
federeer
epidem
parijs
embargo
##lifer
schakel
filosofisch
gewoonlijk
olijf
slowaak
consistent
kanaal
verschuldig
ijver
jaagosl
##lits
rondom
##rudentie
oost-timor
cns
pret
##ing-
prefereer
frat
raat
eenie
vern
##ama
illusie
##liferatie
##spits
ontvoer
religie
aangewend
##koers
eindig
kor
##staa
##.a.
##handen
nal
pad
wash
##coni
##10
##zaal
##volueer
kring
varken
klaag
washington
##kong
formule
##spro
##jauw
raads
##waarloos
mijl
planeet
beveel
##quota
kabeljauw
darf
frattini
##cia
verleid
uitkeer
##atiefiteit
prive-
echo
inval
##chtig
floren
veter
provincie
##gemene
reductie
2015
zelden
gede
##verwijl
##ypri
circa
jaagoslavisch
armoedebe
kwantitatief
ret
toneel
##ush
##ifest
guantan
ratioo
vervaardig
vernietig
eurostat
##ecuteer
##dachte
johan
gewapende
aqu
##eest
data
##aret
ann
##tooid
minderjarigen
algem
##eserveer
##selier
##diger
##icaat
herzien
gereserveer
hongkong
algemene
##ity
heilig
bundel
kab
cirkel
gebouwd
##vi
ofte
##mantel
##enko
instabiliteit
overschot
##ragen
dusdanig
ijs
michel
##kommer
geestelijk
##import
42
boord
gooi
oeso
slechter
bse-
schaam
interoper
##z.
##schets
dorp
##wal
##uwelijk
air
weeg
##spraken
platform
##astisch
directoraat
guantanamo
##bord
agr
##ademisch
korea
##praat
accent
vietnam
##inee
unilateraal
##lijden
##atig
kwik
confronteer
passief
##manteling
belachelijk
oftewel
parlementarier
##ronisch
##specteer
illust
scenario
##ingsronde
recycl
ic
##uy
##afval
introduceer
introductie
##sleep
##afrikaans
bur
##pat
bestel
spring
##orteer
mijzelf
##export
faal
sen
##smissie
##vestigde
cub
rivier
bas
##i-
ontmanteling
##boda
##troep
veertien
dg
enzovoorts
folter
my
zacht
##ix
##ondig
##/99
##buiten
herziene
ta
##haans
##alsnog
kantoor
zuivel
sovjet-
c4-0
##fe
verantwoordelijk
##vattende
veterinair
##mus
##spec
55
nul
aanhoudende
##asie
##esse
##acha
gedachte
ing
149
quota
moskou
principi
43
##meend
fors
delicaat
interoperabiliteit
cubaans
##lok
##ureer
chaos
dins
hab
jord
##dadiger
accijns
klonen
dinsdag
65
fre
##druis
##bei
##arte
tak
wor
##vier
wein
onderneemer
##snatie
##led
##kestein
alomvattende
johannes
##verontreinig
coalitie
##emissie
##eind
##kust
##uta
##seker
##perspectief
dis
ir
weerstand
laken
brood
##ombard
faciliteit
##verhoud
##vertrouw
bekwaam
eurat
zeegebied
evolueer
fraudebe
##-top
teelt
wantrouwen
##tra
##erap
gener
leverancier
##ctor
##selseker
marg
##baken
##dor
##prest
uitvoerige
vre
##orend
##ome
isoleer
fiscaal
ideaal
##ben
scheng
##/01
##kans
##ish
omstreden
cap
fig
sem
##nier
voltooid
euratom
grof
spelen
plechtig
loep
inspireer
maur
##vaardigd
jean
avond
kerst
azer
##mal
temeer
##voorzitter
##stempel
##presteer
##lander
##jun
##imp
tweede
##vloot
##woboda
wonder
prostitueer
##denkt
##sein
rekenschap
dal
dader
uen
##bek
##vragen
##richtlijn
##skader
##genoeg
##bewijs
getroost
bag
zeld
##catie
##schaps-
##krachtig
democraten
gans
haaf
##din
##haast
##gabe
vermoeden
zeldzaam
swoboda
toestaa
##veens
propag
##gend
##voet
ijsland
competeer
imperialist
paradox
##-s
##acio
gruw
##brief
illustreer
voorhanden
##rem
##erno
totalitair
fa
nobel
perifeer
1991
lissa
sovjet-unie
##our
##cat
##bi
);
##ick
straal
sloveens
##oliberaal
ineen
buitenlandse
bolkestein
jar
##garant
##ipper
piraat
sap
##plant
leon
##woorde
scepsis
##bonstrategisch
koud
##wogen
solidar
drank
##moeid
geav
euromed
##datum
##inea
##)0
##gehalte
##iene
nl
comitologie
c6
##yaal
##geet
uitstek
zwarte
##byl
##behorend
##ernobyl
mul
##fabriek
hect
blad
popul
verkondig
tachtig
vaat
##rid
##wa
chauffeer
##controleerde
lissabon-strategisch
##ombardeer
energie-
verras
##oreer
socie
mart
adoptie
coton
##eren
##gezel
frustreer
mem
genocide
ho
##ialiseer
##regime
borst
verantwoorde
sacha
kostbaar
##contract
##ynn
bat
roer
##partijdig
cotonou
huwelijk
##hy
ment
##rot
collectief
##blad
resoluut
pond
##zucht
opvang
##aaldemocraat
##ranche
gescheid
promotie
manifest
##versie
##tware
efg
agrarisch
##45
##wandel
netto
poettering
bots
rook
##isoleer
##aria
##uren
##aanslag
geg
##riest
diag
196
risic
zak
gebaar
tsjernobyl
##pa
##jaag
##zjan
machine
gespec
##ssisch
##/2002
klassiek
##ena
raadsvoorzitter
##cul
verkracht
##osie
protection
embryo
bom
##rant
##prof
binnenlandse
milieueffect
##rimp
142
gespecialiseer
lap
##bos
aanbev
##adee
bosnie-her
##vries
##just
##eeuw
verstaan
toespraken
subsidieer
geevalueer
jood
##intro
opport
resp
##beterde
##refereer
##interpreteer
wiens
##-g
bez
##raude
geboren
ronduit
##40
inbreng
assisteer
obs
##illa
schoen
generaal
douaan
sacharov
##igant
##reia
eras
##groet
##wijls
noorwegen
dikwijls
geevalueerd
zaai
##entiek
##ques
1989
##athisch
fantastisch
dun
##prudentie
##icum
##entieel
ferrer
sorteer
##ci
##opoul
geschieed
chemic
##prem
cambod
##jer
##assa
diplomatisch
##areer
##ugde
palacio
##buig
gaz
peil
prikkel
##fst
##elde
##dient
aust
##hoed
##anco
##ossiel
jurisprudentie
##lijd
discipline
mugabe
geavance
mentaal
loos
##otentieel
schr
##uster
offer
ethi
gote
##stoord
klasse
gewag
##verschillig
rot
onverschillig
##rectie
verontwaardig
##/02
tacis
dop
fossiel
##aine
aanvragen
multinatie
##fa
dele
milieugebied
international
behelst
goteborg
nep
##lap
##utatie
schouder
evp
sign
##/2003
##kozy
##seconomisch
domineer
pluralisme
##west
##ormoon
boot
##veiligheidsraad
sigaret
vn-veiligheidsraad
cambodja
austr
optisch
reach
##acultuur
##mate
engeland
hul
lanceer
##lan
##icipeer
##bligeer
##selt
##ialisme
informatie-
eenieder
naarmate
manipuleer
reputatie
verdeeld
belemmeren
##reyer
dam
##cos
##ye
liber
propaganda
2,
vene
verdeeldheid
##alte
hevig
stoel
##blaas
streek
##bestuur
##caleer
cab
##reus
##opper
##stippel
g8
lijf
mol
interim
unitair
iii
btw-
teleurstellend
sarkozy
interesse
##boom
diploma
aanbevelen
trip
##itect
##redient
poetin
bulgaars
tolk
##ibiot
vreugde
46
##zwijg
uitgevaardigd
scala
##aanse
##sean
diam
antibiot
##auto
club
triest
##giene
vooraan
##ikel
##leidooi
##/2000
##astrofe
gedegen
profijt
racist
atlantische
chemicalie
asean
##quid
vers
posselt
kenmerk
barnier
software
burg
##relatie
ambassadee
44
bis
##rig
##verse
##russisch
ontheem
##artel
gereed
pleidooi
voorraad
beklem
##under
reactor
39
gigant
geconcentreer
195
compromisamendeer
vooraanstaand
canc
hamer
respectief
##landen
##activist
##atlantische
geruststel
sep
##ham
vermeend
volwassenen
##kapitaal
##ante
anderhalf
plaat
confeder
##militair
ivoor
bewind
executeer
ruil
vakantie
tribune
##gaar
blaas
geding
imago
##introduceer
houdende
##dan
beiden
##des
schort
guinee
99
rio
##feu
ah
##lanceer
been
##team
tribunaal
##gekend
##schuldigen
loof
uitmunt
##slomp
locatie
cel
nap
opeen
controverse
##zon
##cyclus
bnp
##koe
catastrofe
johannesburg
##kanker
##anka
duizenden
olympische
hectare
##cosur
##greep
##proliferatie
##pass
##snipper
pn
##onalisme
##ubercul
nation
tubercul
opstand
schets
volgend
octroo
trans-atlantische
##vies
##-verdrag
ins
vergeet
por
##element
##auer
therap
sil
kleur
audit
gestalte
##vreemd
cosmet
edu
reed
##poog
##zembo
somalie
azerbeid
zond
##aim
##/00
hoes
liquid
onrechte
produkt
##klimaat
luxemburgse
cas
goud
##ratie
wereldoorlog
enthousiast
kijf
barbaar
opt-
made
vlot
hormoon
mus
##iki
##plek
gevangene
mercosur
trialoog
##uele
kritiek
stok
##mobiel
diversificeer
sev
pnr
hoessein
afwacht
handels
deskundige
pek
##ui
##meester
##schriften
##iteitsfonds
protectionist
85
##ami
##behalve
exp
witwassen
architect
geo
reduceer
##agina
functionaris
schaap
##assificeer
azerbeidzjan
lif
##uz
rem
##boven
europeaan
##etje
##ung
##ume
kapit
proportie
##iness
sier
tim
klap
bruut
bevredigende
mandel
overstaan
49
##ez
##ary
bosnie-herzegovina
fasc
mig
perk
sri
##stooren
##implementeer
voeder
pluim
##concur
dog
##uel
werf
evenement
##tafel
##lins
aanvang
reus
market
dwars
volks
11.00
cancun
##gaans
##ting
##arab
##tefeu
recycling
##titel
##itaire
eenzelfde
berok
##minent
them
zuidoost
250
solidariteitsfonds
ogen
##ijver
marin
##bett
##riet
##-ronde
##verstrek
nou
##48
##jka
##lah
schots
600
sing
##the
##pool
##alon
erika
doorgaans
##aks
##waarschijnlijk
geruim
darfur
diagnose
overweldig
nader
samenge
##tonen
koerden
afwachten
##uzal
##12
toegegeven
stabil
##gezondheids
##industreia
##schok
2020-strategisch
##orient
##uzalem
##hil
##amerikaans
motiefe
vac
##vroeg
##belemmer
ort
ingredient
##gesp
eurojust
terzijde
##tolereer
gon
nic
rijst
sha
##39
##une
snijd
camp
valuta
donau
##balans
logistiek
retorisch
tuberculose
aansp
##ieren
welvar
##rates
##zuim
braak
hon
beurs
wereldgezondheids
akte
gedrang
##snap
paal
##stevig
120
dak
##ijp
stal
##splits
frequent
nationale
wh
war
##stigd
monitoor
kir
##-systeem
##factor
##erie
##onair
vrouwen
academisch
##wald
vir
##wn
autoritair
kenni
##kraiens
themaa
atoom
datzelfde
stag
vonnis
##concurreer
belasting
peking
liter
##35
materiea
pan-europees
##slagen
domein
41
bitter
fair
lanka
tom
##kind
##/7
schaars
##dictie
##gunstigd
##ska
rijp
##consum
professor
sow
wallstrom
beklemtonen
aansporen
laad
##derij
chili
##vlieg
thess
escaleer
##status
verwoest
##verlies
welvarend
##-ver
##eterm
storm
##opgel
liik
lawaai
banaanen
##transport
##mandaat
jarzembo
educatie
##aloniki
iao
oomen
##ieso
biom
ijzer
sowieso
repres
transit
##streaam
##-tarief
entiteit
pil
watson
klauw
armenie
vervoers
##ificant
##ua
##49
##60
##fil
rec
##abor
erasmus
significant
thessaloniki
##/2006
47
graad
toege
verzoekschriften
complement
##isatie-
milieun
overbrug
##tefeuille
jarzembowski
dap
##38
##inatie
almaar
management
##eira
gisteravond
nalatig
koel
loek
##rich
schrik
##opvang
ecos
secon
##endit
asielaan
##prioriteit
memor
lome
##jo
##z-
##lek
socrates
ambacht
##inton
vitor
##waldner
leem
uran
##ian
##roem
##register
milieunorm
uranium
##hl
##massa
##route
opgave
##open
##waarneem
##reserve
bange
btw-tarief
knoop
pen
##nest
##gevolge
##uwd
verliest
australie
zondag
bangemann
##mokkel
recept
##boot
communisme
traject
suggereer
bombardeer
enz.
reding
cohn
##atoriaal
explosie
business
natura
neen
allang
alweer
##zwakt
psychologisch
wereldgezondheidsorganisatie
##ain
##ijten
elite
roma-
liikanen
boos
##off
all
##undi
ingegeven
smokkel
maurit
ferrero-
antibioticum
font
winter
##-bendit
gvb
##cot
diens
ferrero-waldner
fab
iv
##ingent
##ommel
##count
cohn-bendit
##schaad
provoceer
ethiop
lac
##gifte
##toneel
##ki
##vrede
onenig
aangericht
##appel
##ocraat
heleb
train
##dorf
heleboel
but
kinder
pack
##how
catal
stabilisatie-
##att
belov
verslag-f
mond-
vitorino
leemte
che
fan
onvermogen
eur
##ooch
##etermijn
##27
##klacht
##these
##peil
hulde
wagen
##dwing
##-ruijten
kwartet
bse-crisis
e.a.
viss
vermin
##misbruik
##elingen
adem
ere
wak
##ager
equ
kou
##spraktijk
oez
ecosysteem
hoge
oord
##17
conjun
directie
profiel
##ioxide
##malig
fijn
gmo
##buk
hoogst
chocol
staakt-
confederale
loekasj
##houden
##gestel
##genees
constant
##kanselier
noord-afrika
##heimer
virus
life
tact
##-pl
##subsidieer
##-vuren
##mitteer
staakt-het
by
alpen
##schijn
misdadiger
verbaz
vermink
52
far
##raam
##ftig
talib
##parad
##14
##reb
doorbraak
gerak
optimisme
seconde
lacune
loekasjenko
ict
##graad
##bol
uitvaardig
##issen
europa's
mann
toenmalig
populair
##milieu
oomen-ruijten
borg
gematig
tem
##verwacht
##waarschuw
##struct
140
lamy
expertise
jer
rak
##zheimer
##wis
##astrook
##afi
##sec
##neig
gazastrook
##zale
verandeer
##overwogen
##differentieer
intens
corbett
##expl
euromediterraan
staakt-het-vuren
##fundeer
marokk
##999
sociaaleconomisch
##citeit
##etie
##stratege
paritaire
##lusconi
##det
##vie
##-qu
componeer
##-2006
##zalez
##uv
##bes
alzheimer
orig
oogst
ministerie
##zuela
mit
herfst
venezuela
opt-out
##alen
##andum
touw
berlusconi
##hardt
weinige
doneer
##vy
zwem
japans
put
inspecteer
rehn
burgerinitiatief
carriere
hypocriet
spectrum
ethiopie
d-fractie
##dicht
begro
miljoenen
##personeel
ontheemden
evident
galicie
##lade
##issement
partnerschaps-
ideea
emigreer
andre
ivoorkust
jose
##oniem
##beperkt
motto
##dr-fractie
han
##adig
omgang
angel
##aud
##risie
eu-strategisch
harbour
##rogant
overweldigende
e-m
feest
hond
riskeer
##paradijs
aanvullend
atlantisch
verneder
bg
limiet
##alt
##ega
onderwij
##arisme
indertijd
hypocrisie
tank
##80
arrogant
noot
broek
dem-fractie
##37
opval
char
getal
tunnel
##noodzaak
gonzalez
e-mail
gord
lul
##wand
regen
consument
buitenaf
controversie
geaard
##doeleinde
ecr
##hare
e-
eof
tand
##46
##eter
mogend
stapel
ngo's
synthese
mogendheid
ca
##bli
concern
antis
memorandum
bu
##soep
##ly
humaan
knel
##gevallen
zuinig
taliban
temper
##krimp
verdacht
onbe
##enten
boom
benaam
hygiene
beschaam
##inisch
account
respons
dermate
druis
c5
##fraude
zeggen
##gevende
##yprus
##ladesh
kaz
##kaan
##hor
dateer
##ott
##terij
barrot
facto
detentie
katoen
##tolk
##rage
##ney
bangladesh
##toerisme
portefeuille
russen
##ford
##zio
##ardo
fundamentalisme
##winen
##barst
51
##ats
##ges
##schade
##reevy
mais
vredes
solv
##ografie
##realistisch
##bouwuitgave
##klasse
##zorgd
##ibisch
zuid-korea
##octro
##willig
##holiek
##knoop
centraal-azie
##patroon
700
smaak
##minister
john
zulk
faillissement
liquide
jemen
##11
##faal
omroep
leugen
##wed
##productief
##regioo
##compenseer
ath
woest
##deur
##gedaan
omlaag
voedsel
trojka
tsjaad
uitmuntend
##rend
##vreden
##heden
##zelfder
##wichtig
bibli
bench
florence
omhoog
##beloof
chanteer
douanerecht
aids
##aten
##volkt
kaderovereen
21e
balkanlanden
ingewikkeld
landbouw-
biometrisch
gijzel
sei
##lin
schmid
##opol
lehne
argent
pijp
##gevaar
##entel
schitter
##doem
##ernij
##archisch
nationalistisch
task
##car
##lands
jurist
neus
##motiv
bonino
sur
##etjes
overeind
hemel
##jaarden
oordelen
##pi
##c-
##endig
eerbied
##acheer
mccreevy
benie
wog
##sig
invent
onderhandel
bloei
sudan
zulks
benieuwd
##-ge
##tevreden
jacques
ecr-fractie
b5
##iro
beken
aanklacht
hed
##avel
activ
luc
##breid
##oeuv
strak
uitm
doortast
plaag
codificeer
##manipuleer
##lopen
57
treur
##dro
costa
##europa
alvast
loyaal
fy
##fer
ingel
##neeme
##mocraten
fontaine
##eiland
##inkomen
##staak
##isie
##vereiste
specialist
##duidend
zwitsers
##privaat
comitologisch
coord
nit
##po
deeltijd
##/2004
##respo
stagneer
crespo
male
##vervang
##protocol
##ontmoet
werkloze
madeira
hoc
##imensie
##advies
frag
##slecht
sevilla
ziel
##diti
##bodem
keus
eb
goeds
ambassade
wogau
gok
delict
gemotiv
##lecht
2014
##sleden
##anca
##acquis
failliet
seg
##nem
##-raad
##icket
##ima
cyclus
marokkaans
green
star
rebel
allebei
herman
##stadt
##associeer
##nek
tunes
david
bibliotheek
##hop
afstemmen
glb
flag
##gevens
sharon
bedacht
##ateralisme
15.00
lui
pin
tit
##type
##inaal
meesten
verzacht
au
niel
ucl
##inspan
##arische
liga
##modusa
fransen
extremisme
azoren
uitmonden
800
iet
ler
va
vuil
zijner
gevorder
verh
stres
##ctisch
leuk
maff
intra
elkaars
130
score
malaria
algerijns
belastinggeld
##view
uclaf
kweek
##bom
##engel
ini
##omtrent
##iket
##conventie
##forum
##ycot
stoor
handels-
indiaas
angola
flagrant
cal
nik
##unnel
gepast
doping
ce
doek
was
##ii
pluk
##inezen
##krachtigen
##straal
vk
verbij
##gewijzigd
ontb
##bed
##zeggen
##dialoog
fundamentalist
canarische
##octrooi
bekenn
verbijster
05
twin
##standigen
##grado
chinezen
##evenredig
douaane
araf
alex
exporteer
##toets
betrokkenen
diamant
kapitalisme
raket
woestijn
##zelfdertijd
56
meed
##studie
verf
ingespan
saneer
verslag-m
cardi
gestaag
ietwat
54
cia
##sj
##sug
##-j
##-overeen
european
lama
chocolade
ozon
belgrado
##biljet
##aboratorium
gedifferentieer
beschaaf
##rup
vs.
represent
92
b6
##laad
meneer
##communautair
keulen
democratische
benchmark
arafat
tar
##dioxide
bevel
##oloog
##ogan
##mmetrisch
veil
leidd
topontmoet
serie
co2-emissie
attent
stalin
##roemd
##suggereer
53
a6
dijk
ironisch
##pop
metaal
addeer
west-europa
leraar
cardiff
##zine
pakist
medina
kyi
panisch
muziek
mccart
##ridor
mandelson
krap
##ania
##elegen
bekrachtigen
##bekistan
meedogen
greep
##geplaats
afgelegen
##hod
kapot
katholiek
maas
tent
##von
slaap
christende
##amerikaanse
opportuun
ego
kei
weef
##lu
##18
##station
verover
schil
schuldig
##overdracht
meedogenloos
foc
##giet
##omvattend
##teister
suu
obama
eilanden
christendemocraten
rang
xen
zaad
##ero
eenent
##ensmokkel
##agoog
ontbeer
press
overheids
industrieel
taalkunde
##eikende
fora
##opoulos
##mstrom
verre
##auze
boge
##marg
schorten
oezbekistan
kazach
eenentwee
58
diox
ram
##90
##ora
overk
benzine
hot
##26
##36
parlementsleden
##osis
mauritanie
##signaal
ari
doceer
##ae
specificeer
eu-verdrag
risicobe
toereikende
garcia
##secretaris
sir
inv
##slo
enkelen
identiek
noordzee
prognose
indones
kond
##zweer
alinea
##hevig
##ova
harmonisch
classificeer
##en-generaal
velzen
wales
z'n
volop
stempel
deelneem
cox
merkel
##aangelegen
duister
##hevel
##ava
##lichten
21ste
textiel-
cynisch
##nik
heftig
##bevolkt
##blij
##opt
##commer
verslag-k
opgewassen
c6-0
mulder
##pensioen
##drie
##gevend
##ssen
##knot
bab
##16
##bad
##inen
gedelegeer
gemoeid
spl
schema
##waaring
derden
cluster
##ni
##cker
##stijl
spir
reserveer
##weten
##wakker
dell
cro
##aff
##-proces
##fr
##verwege
bour
helm
appel
demagoog
athene
branche
phare
##pad
##cr
##zoen
trade
asbest
##atorisch
halverwege
dochter
habit
nepal
aung
gil
jacht
kno
##atieven
gezondheids-
dupe
egks
volksrepubliek
##nummer
##dimensie
##ali
##verde
diesel
serviers
malmstrom
cit
##bijd
##wift
##bericht
constante
materieel
##categorie
berokken
byr
##soepel
##bul
##spoel
##ontvang
dioxine
duld
ot
pie
sek
##kara
##want
##onisch
##reduceer
##embargo
##essim
11.30
ped
##ificatie
lulling
byrne
gi
ruw
##scheld
robert
##corrigeer
bak
##doof
deal
##lemma
##voorzien
##pijp
importeer
##kanaal
##stapel
treurig
foto
##limiet
##zamer
##stedt
##plat
##/2005
droef
extremist
epidemisch
pakistaans
paard
##05
##34
##rea
##ieerarchisch
##herent
jurisdictie
sympathisch
dalai
til
##duld
##stil
dilemma
gedraag
##commissaris
voorziene
overtuieg
cre
##dac
vrijge
##kleur
temperatuur
pressie
tij
##inet
omzet
tweeder
troop
begrot
cens
zand
##i's
tezelfdertijd
art
##selectie
zelfstandigen
##eminar
nielson
kazachstan
doof
##-led
##har
##hond
##32
##unami
##icien
mensen
##artikel
repareer
negeer
bene
egyptisch
roth-
sierra
pedof
##sa
##kand
##eez
##isatorisch
prominent
teweegbreng
##adel
##-20
##19
##haar
modu
menig
gewond
##iabel
##adz
##fin-raad
verzoenen
burundi
ri
tv
up
##igo
schier
orgaanisatorisch
lib
110
sam
##kor
##duit
eurodac
werkgelegen
scherm
veelvuldig
##adline
tweem
diss
##uip
##d-fractie
diplomaat
koloniea
heilige
##opgelost
##blijven
tweemaal
ieren
pagina
##imineer
##arts
spreekster
##efficieent
attendeer
##bijdrage
gul
##nav
##atrie
schreyer
midden-europa
##ontrein
delors
invasie
##concept
acs-
juncker
##behrend
tor
gefundeer
##gewicht
##onderhoud
nab
asiel-
##sprogramma
coordinatie
tir
waan
##srecht
##ateur
##reductie
mijne
caribisch
##premie
##behrendt
boed
roc
##bak
##mos
heil
##icentie
##ifor
kosten
##ribunaal
record
castro
fort
km
##47
##ht
##leger
heus
arctisch
chira
gerucht
isol
leonardo
##-plath
##zio-plath
indonesische
kh
##obligeer
##cer
##verminder
##bestek
arb
##kwart
filip
bazel
##ucco
##ontreinieg
geassocieer
##scheep
ankara
##gelden
klinisch
ieders
##modern
thail
##arabie
know
##atrieer
thailand
lamp
pessim
##atel
geslacht
stip
gezel
impl
##ional
##iciency
nabucco
chirac
aspireer
lip
nomen
pv
##elig
##ilistan
langzamer
junilistan
poot
rect
##oelho
huishouden
verheven
opvallend
draad
##urop
##card
##enberg
##gecontroleer
##speur
senaat
semester
lach
rail
wiel
##ire
onterecht
amnest
bereken
bereik
bali
##kantoor
annan
langzamerhand
boeg
##schoot
zoon
##erijactief
##gebreidelde
##participeer
dimas
gehandicapte
randzio-plath
amnesty
br
kip
##nar
##lijf
##otti
##use
##icier
##adelijk
##cludeer
rubig
##orps
verrast
##kandideer
hug
laboratorium
##roef
gelang
bovenaan
screen
overschotten
coelho
ford
##golf
##uer
##db
##aleer
wetgevende
guat
verontschuld
beschadig
ortega
cash
ochtend
seminar
##tank
##pal
##lach
##mir
hervestig
exces
transformeer
stille
katalyse
olympisch
##koeien
visserij
accountant
argentinie
##55
##gewijs
erit
duitsers
##existeer
##kol
herzegovina
##middelen
troef
epo
latijns-amerikaanse
##afge
rob
##ky
##33
##ieur
uitga
anal
afzet
wetgev
2050
actu
##ilege
59
62
overhand
##ctr
##centraal
##asemissie
dictatuur
geglobaal
67
bay
##geldig
##overweeg
adam
preferent
psychisch
overhandig
tril
##andin
##vans
##abil
##ionair
contraproductief
antisem
inventaris
roth-behrendt
06
66
rw
wolf
##fal
deadline
##itz
uitbraak
valen
##burgh
##trans
huur
##ense
##apore
naz
##riep
panel
##vastig
jordanie
sac
##uum
spits
##platform
standvastig
universitair
##yprioten
##ezen
##-project
##bro
vooruit
##olees
resta
##commissie
geschool
abch
1,5
86
vo
##abet
##24
##wonden
##ider
naief
manoeuv
##gebrek
immig
armoe
##-cyprioten
batterij
3,
##ij-
##verhaal
onderhevig
##aanval
groenland
##vriesen
##bollah
evans
kof
##zbollah
alsmaar
beres
##endebat
eu-regel
midden-amerika
anti-
hieerarchisch
##/20
##wentel
##omwonden
rek
##geefs
permitteer
langen
kroatisch
latijns
##symmetrisch
verantwoorden
##attle
baby
kam
keten
##ival
##29
##certificeer
##mes
zalm
##issing
onderwijs-
seattle
dadelijk
gor
mat
##ng
gehe
verhof
##gepas
oostlander
doden
figuur
guatem
##dun
##yle
inkom
hezbollah
ditmaal
geniet
##atibel
communistische
bovenop
offensief
pluralistisch
extremistisch
##gesprek
rwanda
ore
##kaar
##-k
##cu
verleden
##oteer
##eefd
##aanpak
##dump
##bepaald
boycot
rationaal
onderhandelingsronde
##afgevaardig
guatemala
63
##ining
##verwant
##geest
federalistisch
jeruzalem
verhofstadt
lie
nano
##ratie-
##don
##crimineel
modusa
method
eurogebied
##ras
voldoende
##airo
tunesisch
bourlan
opzij
##bekwaam
tox
dienten
berd
multil
bedrie
napol
overbruggen
dientengevolge
78
##-be
##uner
geneez
middag
talent
aardig
scandin
white
mitch
##king
##hm
##eth
##itut
##rechts
##adees
schenk
##ckx
seizoen
cairo
vigo
##gasemissie
##star
##bevredig
milieuaspect
##aterdag
##marge
zwavel
137
verwant
boe
laf
zaterdag
##tree
##col
##hon
gehalte
##illeer
netelig
technologie
contingent
internationale
generiek
activum
wynn
##mans
##ya
park
aff
termin
karas
zwakken
21.00
##porn
##identificeer
##illon
rompuy
88
fern
woed
##hus
bej
zelfde
itali
gewapend
symptoom
baas
cop
doch
ka
##oeld
verrich
##uring
##ierre
speer
##imat
plunder
##leverancier
eta
gestoeld
geheugen
##treeden
esta
hit
kru
zonde
##schaar
##kennis
social
##zegd
antip
##effici
kolon
soja
consistentie
conjunctuur
moduul
68
inzonder
doorgang
lek
gemeenschaps
##park
claim
##traagd
##effectief
patri
melkquota
privilege
kabinet
origineel
c5-00
##bevredigend
inzonderheid
ed
omme
##tement
spreid
##esco
klok
##partement
taboe
##undair
##uizen
bourlanges
aver
bord
roei
##cc
bek
almun
##verzoek
##verkoop
erger
##autala
secundair
canadees
wallis
sacharovprijs
almunia
hig
streep
spid
leone
therape
goeder
jongen
linie
##vrucht
##heilig
kenia
acuut
cypri
esf
baskenland
consumenten
day
##stati
##gewijze
##slachtig
laatst
eu-middel
maffia
time
##boer
##atz
vermogen
verouder
stre
tegengestel
##rorisme
##tegenzeg
homogeen
proportionaal
rigou
93
##lichaam
##olied
##ograaf
dergelijks
##ineeliseer
##machtig
kel
zap
gespan
verontreinieg
##verbreid
##degrens
repatrieer
fao
praag
deens
##oldig
may
##adem
arabische
daul
singapore
isoloe
glob
tas
##rank
##uay
##-azie
voorbar
##gegrond
bijlagen
##gerechtigd
ingelicht
splijt
kofi
voorbarig
nord
pel
##89
##zog
##itas
voor-
aangenaam
##gesch
##ries
##unta
##ofabriek
noemer
brittan
##kundige
verstrekkend
kalining
voedsel-
77
##mees
##ila
erachter
mineraal
##keuze
##aca
achterwege
architectuur
dogma
dissident
##aliter
##gezegd
##ensatie
##vallen
##cepticus
paul
inkomens
bask
goe
roo
##cypri
##ijing
##ieie
rev
gross
autofabriek
fischer
##ditionaal
agro
kmo
##straks
zege
##handvest
103
afvalver
onderzoeks-
broei
getuigen
gradin
kalm
##touws
loods
schreef
rigoureus
duis
##lanteer
##atisme
##entertijd
toentertijd
##kloof
transplanteer
##thema
elector
##interventie
##vrees
florenz
marginaal
##cyprioot
eq
gouverneer
junta
##elon
bestaand
##aculair
##ontwikkel
defens
beroepen
aznar
vaandel
tentoon
therapeutisch
64
fal
grijs
laars
##ws
inde
vertrek
##urk
##venieer
blokland
tiend
##smokkel
kirg
titley
cast
##eot
##bur
##migreer
bekn
##uitkeer
##orgisch
hersen
bosch
consolied
concurr
asem
baring
17.30
spectaculair
times
##haare
##navigeer
gib
##-richtlijn
##w.
instructie
##ids
bestek
beijing
##dez
elan
differentieer
actualiteit
duisenberg
##reactor
ontw
##zetenen
elimineer
socialisten
tsjetsje
antipers
baringdorf
bont
##ih
##21
##emend
##ondeer
chronisch
##noye
moraal
##westen
abchazie
multilateralisme
##pan
euros
##usp
##teugel
##vez
toenemend
##otechn
martine
##passagier
octrooieer
honing
cashman
wap
##ique
##uizend
##41
##jag
bowis
consult
primeer
facult
coordinatiemethode
cyprioot
zijd
##gaard
##28
##/6
##spri
mest
reglementeer
sanche
bonn
tienduizend
tienduizenden
noop
##ble
##stee
##okap
flynn
doyle
doha-ronde
##oorloofd
cosmetisch
94
##gle
##wley
##chi
verpleeg
gauw
mager
wankel
##bieus
##financiee
kooldioxide
jordaan
schrijn
lud
##kast
##fout
##stik
##reclame
##gestraf
##oordacht
desast
dubieus
verslag-g
##budget
conservatieven
##paste
##san
##una
##bestaand
##umuleer
bert
gram
saoed
meda-programma
desastreus
76
91
pit
##urele
mars
maria
monopol
hypotheek
##vertrouwen
focus
rocard
dosis
##/201
##enboven
milit
##boet
##vlee
zuid-europa
##ceptie
hongaren
quaest
kalf
##oxide
beknopt
ausp
feira
##edusa
gein
##zem
##schuil
daarenboven
##kenna
collins
presid
kroon
echelon
##uzzo
verhuizen
baskisch
tsjetsjeense
auspicie
89
mik
seneg
uzelf
##l-
gebhardt
##ociaal
schik
##bejag
corridor
achtste
potent
##andemisch
vervalste
milieur
kaliningrad
actualiteitendebat
350
nich
nass
##ps
##fort
##chauffeer
eentje
##ivaat
biotechn
luxe
##functionaris
##ambt
##profiteer
bezoldig
##altar
cites
tiran
lampedusa
##gecontroleerde
##patient
##dy
##fijn
##erlei
##stoel
eender
##oure
ontsl
##bereik
##kson
##melk
kwartaal
soft
rothley
populist
marketing
maleisie
overkoep
##pornografie
bende
##atica
euro-
rechtstaat
effen
##laatst
2000-2006
ogenschouw
gibr
vide
zaire
al-
##antieer
##head
bestendig
west-
##monopolie
schengen-
sociale
fyrom
kmo's
##torn
##hoc
##stig
mensensmokkel
##afr
##dactie
##oochel
schuldigen
61
out
tuin
##hen
##ym
##stal
##rijven
schommel
illeg
israeli's
verkeers
annuleer
gegijzel
spidla
iz
##44
dep
##gedacht
##ffie
excel
efficiency
unesco
##maatregelen
realisme
##witt
jackson
hotel
##afranca
kas
##vak
##vaccin
gedenk
##aga
onthef
##wez
##strekte
service
circ
efd-fractie
liefde
niks
jordaanoever
overkoepeel
09
breuk
coc
g7
kiem
##zaai
##elli
##appe
##lijnen
activist
detacheer
contrast
gordijn
alexander
##ign
##icaans
##beweg
##ondo
gatt
##statuut
##mosfeer
uitgaven
##ctrine
##sprioriteit
senegal
gibraltar
fir
ros
##griep
zoet
##dule
zeil
stelling
mendez
##noveer
monster
##ereus
velerlei
virt
##vonnis
global
quaestor
econ
hiel
laks
mier
princ
torn
##chen
##ram
doordring
magh
##ado
##quier
compatibel
mckenna
##/1999
fragment
impliciet
biotechnologisch
boel
oslo
phil
##roerend
##igend
##sper
##gereg
genereus
turkmen
##efe
russische
atmosfeer
virtueel
hautala
woede
##,6
##ane
verdachte
beding
overbev
beleefd
##eeft
achtereen
##snoei
##atoir
schroder
observeer
ay
##drempel
##eland
vooraleer
##repen
redactie
intervenieer
amper
diversifieer
syrisch
##machine
gangbaar
force
trich
jean-
risicokap
valencia
##haak
##etter
##asa
##nectie
##ionale
aarhus
lamfal
##gerechtvaardig
##aangen
are
kre
rena
sav
##anmar
##eereer
##derf
ingeval
salafranca
small
graefe
mensenrechten
87
kartel
licentie
##evalueer
##tijden
##enclausule
##etnisch
##ita
volume
antid
aangepaste
trap
laos
religieus
daphne
##structureer
eritrea
07
ast
d.
ede
sint
vin
##habil
##martel
##enaam
##plafond
expor
berucht
##wetend
kwaliteits
##begrepen
onderhavig
zuid-amerika
uitdrukkelijke
##zadel
homof
gruwel
tijger
restaureer
ludford
nassauer
illegalen
ingen
overdragen
pro-europees
peru
##aangenaam
mitchell
ontwricht
##quierdo
overbevissing
risicokapitaal
lanc
##-mat
##maan
##erig
##omgeef
toezicht
##bijstand
strand
gepensioneer
##denkten
solvit
analfa
##steeok
geinspireer
##wezigen
turkmenistan
edeo
leeuw
paus
roos
##schandaal
werken
##maakt
##feliciteer
ecof
##herstel
##andest
##operatief
myanmar
##consumptie
antisemiet
2,5
crit
este
fiets
##riceer
##vid
##bese
onderhoud
nazi
##euro
system
schijnbaar
verniel
schetsen
uitvaardigen
##besef
82
utop
##fo
verdur
##itieer
##trede
schapen
tweeen
wet-
klaus
##stofarm
etappe
complementair
hugh
trichet
##hi
inherent
##isl
stik
##oob
##gelang
leinen
##overschot
gezant
fraai
transparantie
##redit
infect
##domineer
##ossetie
zuid-s
theato
donker
ecofin
gaar
##avan
##ede
##udule
##-prijs
##zuid
##inspectie
##steel
alt
belar
##ador
##assoure
evdb
clandest
seculier
fatuzzo
##stromen
crowley
##uduleus
b7
good
nag
##ning
##eteer
alba
niet-europees
anoniem
scheer
naargelang
##eper
party
verontschuldigen
albanezen
milieum
schroef
overboord
genieten
##taak
##dad
departement
gevraag
##iete
##spring
mezelf
##aster
##aude
elles
immens
federatie
##kampioen
stellingname
wol
##-even
##huber
##wortel
##erwijze
eniger
##ruptie
##spot
ingezetenen
frauduleus
##drang
twist
peter
##margineeliseer
##verdedig
past
##gaaf
##pv
##dis
##wijn
struik
##reeuw
##immer
anton
##minst
grenswaarde
absor
##midde
misbruiken
sterckx
##andez
howitt
dok
graaf
##ld
##bby
##eech
##omaat
##lijnd
##doezel
thom
duhr
##tinent
1988
zonne
##-cyprus
##jani
enigerlei
cult
##ith
mod
##overleg
##dox
akker
dup
##club
niet-discrimineer
(97
airbus
zuidoost-europa
imo
rent
##en-b
##aten-generaal
##sticht
gegrond
aanwezigen
station
volslagen
onth
andermaal
sleep
communautairiseer
waai
innov
vluchten
##maken
abst
vangst
cyber
evp-fractie
representatief
spiraal
acs-eu
##habiliteer
gaarne
79
veeg
##aand
##zw
##gehoor
kanselier
geengageer
minsk
kleef
##quin
monde
nederlaag
tax
therapie
video
cer
typ
zo-even
##engte
turken
officier
lannoye
dayton
econoom
69
kasj
##fusie
##indiceer
unh
sanitair
ep-led
##prec
tibetanen
soedanees
tajani
##detineer
edin
lente
py
##si
##13
##/4
##itano
##gekwalificeer
##spotentieel
doelgericht
antiter
thy
##hodox
##adeau
nederlander
##driet
ogenschijnlijk
cur
kall
uk
##branche
stro
##schoen
overlaat
weu
wijzelf
slijp
##adm
formeer
clinton
ferber
sympath
##linson
##burton
unhcr
450
##fk
##anou
##ett
##inspecteer
##arium
##bestem
transn
0,7
koffie
rigide
cosmetica
high
facultatief
duhrkop
credit
held
jens
tover
vicie
##doordacht
##ito
##inge
invest
verdriet
##unha
##ocatie
##bedoeld
kwestie-cyprus
##rongen
verslag-p
law
zuid-ossetie
munitie
worstel
##-gu
censuur
##admium
vicieus
-be
##biet
##,8
##schop
condo
##genereer
sloop
haarder
##automaat
##weegend
monnet
##lobby
##pareer
##consumeer
cou
##vijand
##bonds
##els
gemoed
##aring
##komstandig
mes
regulier
decreet
afgifte
170
##atellis
##varieer
exportre
72
doos
##wi
##geheim
##iese
marco
milieudoel
normaliter
##control
harmonieus
##lingen
##beurs
##motor
selectief
bagdad
tripart
pvc
socialistische
nichol
izquierdo
gepensioneerden
kallas
cc
##ijker
alert
willig
##trein
##aust
mindere
##rimin
colombiaans
pirker
##ssoni
expans
egoisme
kasjmir
edinburgh
1.
hals
ip
toren
ticket
##iologisch
##sburg
##oit
##leed
##hak
##etete
omarm
overeenstemmen
##seiz
##geboren
roy
##eigenaar
martens
clandestien
lengte
obligeer
smet
##seer
##kist
##vuur
##wets
bev
##scheur
residu
present
##claim
visumbeleid
directoraten-generaal
criticus
ross
##22
##etiket
##embl
##aander
auth
franc
108
bureaucraat
linker
bah
duw
line
##bin
opschort
stuw
mop
noordpool
##dwingen
abb
peters
dapper
##seizoen
1-
oeg
##56
militie
##gron
##ifaire
##gramm
##s-burton
precair
distantieer
whitehead
##geschied
lancker
fles
##goochel
##,7
##lectie
##arag
weber
##volume
somber
vogelgriep
bril
lets
##pauze
##itarisme
##igheid
##leugel
##ienorm
grote
##legieer
milieuageer
topprioriteit
zeep
##gezant
kopie
frassoni
##balanceer
##oldaat
ultr
bedrog
##onsor
doortastend
saoedi-
struikel
cress
##gift
##/8
geschik
eurocontrol
preval
##ecom
contain
etc
facet
##respondeer
sacharov-prijs
##intonijn
##kaarten
methodologie
hughes
##en-baat
opschorten
geschikt
jon
waag
##obie
##kweek
##chtoon
strategie
prooi
tussenbeid
concurrer
indic
guer
##exicaans
##obisch
1986
euratom-verdrag
habitat
grossetete
cresson
tussenbeide
piet
##not
##idakis
splits
spijker
##klink
##nauw
habsburg
saoedi-arabie
08
bre
tog
##70
##orge
##deeld
scheef
##uman
##pleer
conserveer
arbeids-
discrep
##minderde
129
tegemoetkom
tony
##reiziger
1985
biljet
petitie
##vilegieer
##jostedt
martinez
##gedachtenis
discrepantie
bjer
fok
liese
verwijt
##egelde
interview
collega-
verticaal
##iscard
##overeenkomst
balling
acta
dupuis
oeganda
concurrerender
ket
sell
##gs
##pato
tewerkstel
aanvaar
##schaduw
conditie
sprong
##ieeal
##yster
openstaat
##dict
commit
##regaard
berlijns
##askar
##uzek
##specifiek
##afield
laatstgenoemd
##atzidakis
indicatief
giscard
kie
##guy
##vogel
##jik
##verstandig
##verschijn
tegenhang
##gebonden
groei-
##neutraal
flexise
monopolist
ultrali
bjerregaard
flexiseker
grap
lar
tann
##vintonijn
dement
beduidend
stoot
##iliaans
interne
geringer
##actueel
publiek-
haug
##evenement
##politie
stroomlijnen
kwantiteit
opportun
nicarag
piloot
arbit
authentiek
tannock
bad
fo
knie
porn
tap
##kk
geost
verken
aankaarten
##venant
##proport
least
buitenweg
antidem
##avier
##echts
stereot
bertens
biotechnologische
istan
jou
si
zuur
zegen
##gis
##owski
##lat
##dossier
madag
teruggave
quo
embryoo
##ificaties
abstract
sellafield
##jaans
##stam
eng
gezeg
voordracht
ongen
##geschil
euf
##aphne
##asco
regelrecht
klus
oogmerk
agent
hoorn
reflectie
abu
##/03
##othese
oever
##hoeveel
weinigen
container
toed
tadz
alibi
omver
##diensten
##rins
##hoogst
british
##eins
rouleer
##inson
begrotings
libisch
affaire
averechts
stream
pac
##uanceer
##kring
##fobisch
##gedachte
stenig
programm
##aanbod
##oci
slogan
manuel
derivaat
meester
monter
##to-
elektro
##middeel
birm
##privilegieer
savary
antidump
exportrestitueer
boei
buzek
cli
gall
swift
##57
##66
##enstein
##aagenda
beris
oordeel
legisl
grieken
ingevolge
##/2008
urgentie
vervalst
vulkaan
nigeriaans
(96
zuidoost-azie
lag
##-jaar
##wond
voorlicht
##schau
##empl
##aki
##steurop
veranderde
##bare
##opoulou
ontslaan
71
jos
sjostedt
wen
##soldaat
##gord
##tunnel
##vin
##wap
geit
economische
trak
klimaat-
##reglementeer
##wateren
behulpzaam
mundus
rectificaties
antidemocraat
gezegde
ongenoegen
##hoeveelheid
heek
olig
##tele
##mix
##verteer
##epidem
technocraat
##vocht
boter
tomlinson
##audron
xeno
##ethisch
renault
81
##58
##aristisch
nietig
zov
interruptie
##gebond
##outh
fraga
schengenacquis
save
sacconi
##-guinea
publiek-privaat
bin
hou
sab
##ves
##rijzen
##ocaust
anticipeer
controle-
west-europees
compliceer
rivaal
munchen
##specificeer
piebal
hi
lind
label
prer
##gens
##panen
##,3
bejaarden
##reven
euroland
##amine
anna
##ichester
orkaan
verbreid
eu-steun
lucht-
telecom
##itsj
medaille
icao
bagatel
vacuum
prevaleer
aanvaarde
lans
o.a.
##-delegeer
##hamer
mozam
##isten
geweer
##aya
koolstof
##senaal
holocaust
warschau
immigratie-
scandinavisch
piebalgs
bier
obe
timor
##korps
##vlecht
##-procedure
##barm
##yla
##,4
##oriseer
##chet
##zeeland
speech
##hande
##ursus
benchmarking
##ivalent
hop
lv
wonde
##dak
##zlo
##eeratie
##istrie
##geleden
procede
genade
consulair
vlug
correspondeer
cohes
##/2009
pole
gom
lyn
rit
##ser
##sitas
##eum
##-akkoord
##orum
##ogatief
##deli
##rans
##ontuur
allerhande
machtig
koper
assembl
##barriere
cheque
diamantopoulou
##affaire
toxisch
estaing
princi
agentschap
bren
cadmium
hans
ocal
wurt
##zage
teher
opel
##schommel
##tregel
##connectie
sluip
morillon
ingekomen
royaal
dwaas
##ribueer
doctrine
1980
vierk
##exploiteer
d.w.
principaal
ocalan
..
urug
vil
zana
##peer
##.05
gestand
aanname
##gezin
moi
##aub
eersten
achterblijven
##modus
compensatie
verslag-b
lucas
leeuwendeel
trakatellis
wurtz
teheran
vierkant
d.w.z.
uruguay
73
pion
##inos
onkost
stook
hoede
touring
genua
##diplom
eu-markt
griep
180
niet-inge
corruptie
efro
competitief
##geweld
##flu
mythe
factuur
##premier
silguy
##afgevaardigden
prerogatief
900
lord
long
puin
vigeer
wod
##veeg
depos
##iner
inzage
enb
stig
##opslag
##acterie
##management
olie-
simpl
1987
nature
##parlementarier
ontbrak
-regel
biz
breyer
fris
hap
os
pomp
site
##hut
##beek
##mas
hero
##spectrum
terugget
rijm
##tegenstaande
##moreel
hypothese
b4-0
geschoolde
belarus
rossa
abbas
##jikistan
monterrey
teruggetrok
74
graf
goll
##gon
##bende
hevel
steel
erbarm
niettegenstaande
anne
blanco
exempl
onderzoeks
secret
fatum
avontuur
##-199
madagaskar
tadzjikistan
morgan
publ
zadel
##kar
opium
mini
diabet
geregelde
##neeuw
acs
##commercie
associ
cappato
equatoriaal
##subsidieerde
cle
huldig
sj
##gaat
##tijg
##tribunaal
##gehinder
string
rechter
land-
##iche
plut
bloem
##atiel
klimat
vlee
turks-cyprioten
commercieieeal
lamassoure
##jeruzalem
liberalisme
ramos
javier
##ael
##nend
##nial
##-net
##buis
##feld
##ieven
aanschaf
##utt
##concludeer
genitaal
##schikking
turmes
##matiseer
geeigend
brussels
##sup
sekse
geostrategisch
stringent
drup
hatzidakis
len
##ppi
deg
ali
afvaardig
essen
spanjaarden
kroes
utopisch
nicholson
##aanderen
gollnisch
tach
##gument
##ric
##pson
##haan
##ms
##vergeefs
##agher
##bezoek
mild
staes
##wei
preamb
eu-voor
##elings
catch
dr.
simpson
schroed
epideme
nitraat
maghreb
##nialang
preambule
tred
destructie
voorzo
representeer
schmit
slap
kortgeleden
##hooren
solbes
decennialang
cyan
belanghebbende
world
excelleer
tripartiete
brenner
maan
##vaag
##59
##bra
##encer
gevarieer
##raket
##protest
staf
beleids
chichester
defensief
dwaal
braziliaans
seppanen
fascisme
expansie
touringcar
schroedter
9.00
vent
##l.
##muur
##stra
##sprefereer
##ulf
commiss
##rian
##rater
##adim
duff
andal
muller
##beweging
miert
cunha
dage
fins
##dit
##stuit
verifieer
##ledo
ondervertegenwoordig
spin
andersson
nieuw-
##ifant
gezind
##winkel
##durf
archief
1408
kruid
euroscepticus
##epidemisch
bun
ferm
pandemisch
sara
##rell
##moeder
##enbeek
dezer
hetero
##isi
verkw
stijl
schor
##osc
##medium
##ankeer
##zichtbaar
montre
##ruimte
##heidsrecht
##prez
pluriform
##gewis
kleeding
insulair
##oochen
ebwo
segment
philip
dokter
fle
roof
set
##las
##hts
##way
##ani
belder
##zonderd
vlaanderen
##academisch
wijsenbeek
##weggen
olifant
non-
peace
oreja
bizar
huss
lun
pens
sou
##nk
##kwijt
##mest
gemachtig
george
##re-
##illet
##uraat
##issau
doordachte
##beduidend
##beschikking
play
eu-richt
##misdadiger
formulier
##lings
irakese
zuid-afrikaans
luxemburgs
gedetailleer
mkb-
##slaafden
oost-jeruzalem
napels
(97)0
thyssen
polemisch
cyanide
##pot
##23
##zwen
##erijd
bekom
stress
##ardi
niet-t
##apest
##overtuig
order
##gemeenschap
ingebouwd
ontwikkeling
ouderwets
busquin
##iabele
##transactie
##statistisch
transnistrie
tachograaf
##zwengel
baken
cac
##iol
##oir
##wol
##ella
gestroom
##schud
##afspraak
middelbaar
resisteer
115
160
opgerichte
fiasco
fantasie
hansch
nederlanders
nicaragua
##oond
##-groep
##stok
##onnee
##onium
##alisch
##chtenstein
ditzelfde
terbeschikking
##riveer
##bok
result
##klank
prioriteiten
constitut
karl
##infect
##melde
intelligentie
1979
kohl
##-gegevens
filipp
liechtenstein
ommekeer
rentabiliteit
gent
##smijn
##kruis
##cyprus
##mill
##erijf
voordien
##argument
##uras
spont
schud
colom
maij-
vlam
teruggooi
##isteren
eu-geld
##lione
##strengel
##velop
cyn
btw-stel
museum
helms-burton
goebbel
client
terbeschikkingstel
maij-weggen
rab
##ohr
##69
##mussen
##78
eendracht
alavan
##geschikte
##illi
##program
herorient
##betisme
##merrie
109
israeliers
medio
accuraat
rights
ahern
hervestiging
etc.
alavanos
0,5
gale
ly
rooi
sand
vroom
##aaien
web
##uitstre
interreg
werelds
eu-fonds
corpor
verslag-c
urban
roure
moldavisch
kauppi
catalaans
hoogstens
mccarthy
##iforis
italianen
octrooieerbaar
mozambi
spontaan
##uitstrevend
cadeau
dol
fava
##trap
##elle
schuman
meervoud
##beantwoord
afrikanen
125
irakees
boliv
nachtmerrie
rasmussen
##beslecht
artistiek
pedofilie
homofobie
montreal
goebbels
pkk
##eil
##stoff
onmacht
##olen
leader
##bouwher
monument
overtuigd
100.000
home
lissabon-agenda
bonus
linkohr
##riga
napolitano
absorptie
##erijfonds
eendrachtig
bolog
fav
##ow
##vijf
##cas
##woud
beugel
sponsor
welnemen
##inna
maj
uitgebreider
##zuiver
##tawa
1000
synoniem
##virus
honduras
schmidt
boedapest
bejegen
areaal
##proportie
klimatologisch
cacao
mozambique
mant
mir
mix
truc
##gisteren
##past
##68
##hanen
##jacht
devalueer
omzichtig
##atiesysteem
##agn
##agon
##ogeer
spot
##zetting
france
terechtstel
neven
malte
andor
horizon
##gani
##benam
single
togo
saraje
83
fij
fuk
riem
##potentieel
##kritisch
##vist
##br
##ych
##weef
##,2
##levend
##ulatie
bovenaf
landbouwsteun
propageer
birmaans
druppel
lop
##tor
##pagina
##67
##zol
##strik
omheen
##endel
zode
##ruut
proliferatie
vormgegeven
eu-programma
vluchtelingen
porto
financieel
brown
honderdduizend
borrell
##competeer
davies
##ushima
stereotype
filippijnen
sarajevo
honderdduizenden
##tis
##zand
##zwaai
##yer
inslag
uitgaaf
pronk
groten
##uma
perry
intact
achterop
##iefonds
extrater
uiteenvallen
##-bissau
rijken
##-2010
stichten
1967
voj
wring
##doek
##bundel
bedrage
##oter
ontstel
perez
verlof
alleszins
actiefe
quorum
##ristina
##kopen
tamil
##respy
##mondiaal
##-1999
tacisprogramma
guinee-bissau
##/71
##aubrespy
3,5
card
tan
zige
##vod
verhuis
aanvoer
verschiet
union
##/2007
job
##arez
lange
##glom
gras
naleeft
##beiro
lucratief
ottawa
manoeuvreer
kiev
constitutioneel
kok
rout
teer
##31
##98
verraad
tweedel
ruzie
partijdig
positiefs
biocide
uitgebreidere
spannend
transfer
##ayann
1975
ribeiro
werkgelegenheid
stippel
equit
nieuw-zeeland
##ayannakis
gd
gy
ling
##-pro
vervel
##redo
##rac
toekomst
spencer
raadgevend
##plof
maes
##jectie
slachten
##-europe
frase
transmissie
markov
peijs
##schreven
1976
##deskundige
analfabetisme
lynne
assemblee
##glomereer
##ners
##loor
##65
##magne
overgaat
##ussy
##rif
oran
##eck
loket
##munitie
district
papieren
bescheiden
##quotum
liberia
firma
gallagher
hiaat
zigeuner
nef
##rm
##citeer
##hist
##itis
##ald
##aatregel
afscheid
##tech
nuchter
navig
##legitiem
gelief
klas
##aasil
franco
12.
##ally
##noemd
##yser
keyser
##ragment
beraadslagen
totalitarisme
vitamine
noordpoolgebied
##re-aubrespy
galeote
fukushima
ferv
kast
las
ren
rich
##gonderneem
voorzitter
##vergiet
##dev
##gevangen
ancon
##utu
##icher
##besp
hervorm
samenwerk
doema
##rekken
weergave
##ansk
duik
##gesprongen
fabre-aubrespy
check
gil-
cohesiefonds
vojvod
fervent
ancona
ai
c7
eog
nikkel
##ius
##sim
##sbenam
##rier
##fragment
##76
##arifaire
##ouros
##duct
tengevolge
slop
opener
##nell
vall
##tener
plots
##rooster
(98
zijdee
voorlichtings-
wodka
hog
nimmer
rijn
tou
##gren
##nal
##laai
##inform
gevrees
##well
manager
##produkt
##beurt
autochtoon
##vrije
noord-cyprus
federalisme
##waiger
solvabiliteit
sympathiek
extraterritorium
caudron
mur
##time
##uei
##dal
##75
##inz
##iler
toestel
##ussel
stevens
##ibureau
10.000
flu
gas-
##effen
##-pal
monitoren
##profiel
obsessie
octrooibureau
dogmaa
pessimistisch
verkwist
lopez
##aasilinna
aal
cass
emp
##so
##gu
##kau
##yl
##ijm
onschuld
##recy
##ark
vold
leyla
internaliseer
##overgang
financial
##ifa
prevent
weerga
##activ
unic
##liggend
machte
##iba
112
116
verslag-h
kampioen
##borduur
interimovereen
consumentenvertrouwen
simplistisch
##magneet
bonde
##nom
##loof
##andouros
omgesprongen
onderhand
##ruil
##opter
##ofoob
examen
additionaal
instrumentarium
oorsprongsbenam
13.
##instituutionaal
variabele
garriga
congolees
competitie
dunk
diamandouros
orthodox
(96)0
't
cd
camer
ku
krimp
nijp
rum
sin
uck
##aise
##fab
##staal
oosteurop
spion
##bow
blak
##stadium
vlaam
troost
##ochet
soder
commissievoorstellen
pedofiel
tv-
bedrieg
diabetes
hussein
voldongen
eminent
pur
##ør
##ellen
verificeer
##schoei
uitgave
bijbel
betoond
ex-
138
##polit
##reira
smeer
gargani
maltese
vojvodina
##ueiredo
unicef
-ver
file
twees
##irak
##solveer
##tom
##dee
##zover
##enuitvoer
stra
##illo
##steken
kwestie-
##betoon
derogeer
fried
productie-
james
ii-
meren
1984
radiospectrum
michael
nobelprijs
beschadigd
concurrent
ingenieur
resultaat
ier
iae
##kal
##stond
##cher
##alth
consort
bern
structuur-
##tigste
##will
##ayot
lambert
faci
distributeur
imperialisme
darfoer
harm
kong
sau
zen
##izie
##sal
##-wet
##haard
##base
##encrisis
voorzover
sten
##estijns
128
kopieer
romano
getale
lah
broos
federalist
##contingent
energie-effici
fanatisme
##scheeps
##suppleer
richard
bill
gran
##evervoer
##paagenda
##92
deprez
inn
##ileer
##stellingen
##asysteem
##uttel
##volkomen
##acs
##tiem
##nede
105
roemenen
status-qu
##tuin
papayannakis
##splanteer
pinochet
##/2010
zovele
fiji
##tiel
##liteer
##kroon
##43
##cb
##hun
euroc
paraat
##ierig
##utz
interconnectie
bloc
mario
milieuvoor
vlas
frankf
guy
flexibil
500.000
progress
general
conjunct
##cardini
rooster
ontheemd
bahrein
##nellhardt
arom
cao
iter
krem
ni
sus
wandel
wraak
##sociaal
##gar
##-sc
enigen
##roe
overstap
overlap
groner
daniel
schreeuw
##bloem
##onderstellen
grootscheeps
##riteer
##getrouw
therm
##itein
##leverantie
zwaai
banksector
##codificeer
uitgezonderd
salmon
ultiem
pseud
bedrijven
##uelez
campos
##droog
xenofoob
lunch
cynisme
vlaams
big
bres
bacterie
cart
poort
sinn
##aj
##kin
##wie
mode
dans
coll
##ergisch
##udan
##hangelijk
thors
coreper
seych
offsh
verontschuldig
##baren
patent
groeipotentieel
##transplanteer
recyc
prive-leven
thomas
zenuw
pi
algemeen
prospect
##escu
##staken
tobin
##able
##eiro
adverteer
##reffend
uitstrekken
kosov
##tuigen
carlos
##waakt
razend
miguelez
hitler
stigmatiseer
##gevangene
status-quo
bret
kra
pristina
treffend
##nacht
##loochen
##87
##hler
##fol
##rul
doorheen
spook
schril
##opteer
##oods
##beralisme
zaak-
court
152
patroon
##eetiket
brun
seychellen
ce-
kaap
v-fractie
##dogan
##cir
##hit
gezet
veronderstellen
alber
##slap
schussel
vasthoudend
tocht
genuanceer
##nedeer
##renica
kameroen
populisme
arias
schrijnend
toedoen
deposito
kremlin
84
ael
bart
cr
zuig
##77
##ature
gege
vernedeer
##lega
omge
##rusland
##ancipeer
dienst
##edersch
##vloer
republ
##classificeer
dimit
salv
alvarez
kerstmis
berokkend
lamfalussy
niet-ingeschreven
homeop
aelvoet
faire
mas
od
vro
##ovaar
##pact
##logisch
##kov
##kauw
##vet
##bid
##jenko
##,9
##aari
##emonie
##bloed
politieke
##igende
##lijnde
##formule
##chner
##tiglione
subject
filter
kozlo
caboteer
farage
heilzaam
epo's
patriarch
ultraliberaal
soderman
tong
##gin
##ux
##jon
##stook
gewijzigde
verm
moura
##ily
eurosc
##uri
##endijk
congestie
##ikopter
mijnen
##bezig
samenstel
monnik
##redie
joint
secur
##witz
informatica
figueiredo
catastrofea
tentoonstel
##riminatoir
andalusie
bologna
bou
lak
##seg
##snede
##drink
##boor
##bomen
##erf
##any
##ata
##schroef
parish
group
volstrekte
##asi
schw
##bouwraad
risicoanalyse
##claude
passie
noord-zuid
gehandicapt
huiver
varela
c6-00
muscardini
dwarsbomen
##rebrenica
##populatie
triloog
boezem
exemplaar
##stoffen
iaea
twe
##500
##71
geel
gesel
##geoorloofd
comfort
##akte
ploeg
##waard
##acueer
turijn
oekrain
175
banken
smeed
fictie
beschor
epidemiologisch
nicol
tomaat
##exploit
##bulent
##duitsland
terminologisch
electoraal
kirgizie
jean-claude
public
prospectus
kosovaren
dj
kaas
kredie
lad
rod
vuist
##prefereer
##jant
##weid
deug
##eerlei
heim
omslachtig
##empo
##bler
##afstand
##klop
2030
##ampton
beroeps-
11.
broer
subtiel
louis
roerend
naderhand
vacature
garcia-
briljant
##ysterisch
##delict
nefast
tweeerlei
cumuleer
gill
hav
kooi
till
xx
##hle
##zaad
beur
##eele
read
##keloos
schnellhardt
hern
orgaand
##europe
verslag-brok
karwei
50.000
rij-
superieur
fauna
obsc
fanatiek
bekrom
##panel
##-palestijns
dor
paasilinna
srebrenica
##povereen
##-protocol
##era
##ieden
stee
euromunt
##rub
##useer
##antini
spil
##consequent
pervers
maaten
190
scan
ett
carl
23.
##annuleer
##exploitus
kov
##eus
##tovereen
##81
##64
##ering
##aarde
gedu
##ison
verveel
bezorgd
##egio
weiler
uitgifte
intervent
##ffen
##ratioo
visa
mach
laster
keuken
pottering
gaande
rack
##aangaand
1956
fascistisch
##gronde
1408/71
heterogeen
toekomstgericht
-procedure
guid
haai
juk
mut
zoe
##kingen
##-verslag
##fok
beam
##allo
##reel
##schro
afkeer
##prop
##dia
vork
turbulent
subsidiabel
humanistisch
telef
##areaal
keurs
##meerder
pnr-gegevens
literatuur
##dorfler
##horst
wetgevings-
salvador
##ovaars
eten
gut
matig
vill
vries
##ave
##-ur
##him
##bombardeer
##yb
erdogan
afstaan
goeddun
##anta
ploo
marques
##kshop
zink
kwaliteits-
nuts
kapitein
neo
vergiss
##bureauc
berichten
280
papoe
##concern
bni
senator
##speculeer
casaca
fabriceer
buttiglione
catalonie
boedd
vinci
condole
lagendijk
stevenson
lahti
goeddunken
-uit
##/3
##mad
##97
bezwaar
##reces
aandrang
##issl-
remed
##oggen
##sprok
schroom
scheep
schors
##bezit
##conomie
ress
##hev
##indemans
##erijakkoord
##riteria
restitueer
##wekkend
##samenhangend
kunde
##moes
venetie
##consist
eenieders
equivalent
##detacheer
arbitra
spinelli
offshore
dru
dut
hann
jons
luis
nek
sine
tabel
##ubel
##v.
bewaar
##entum
mensen-
polledo
concret
##gradeer
chile
##mars
##outsis
evrm
ontwikkelings-
##-bar
scoor
##schilder
noors
groeic
papoutsis
separeer
manoeuvre
##ierrez
conjuncturele
##issl-dorfler
gn
jim
ses
##nally
##wor
##isa
##rege
aangifte
##ormick
##heiro
##ovic
##ariaat
##namees
##glijd
##urdy
knap
koste
bagage
##horig
##luik
pasty
##precies
guerril
schmitt
kleedingindustrie
geliefd
city
jal
kg
neuro
ring
tindemans
##ios
##label
##liter
##kay
##54
##-initiatief
##on-
##inness
##bouwactief
buitenland
##leiding
##centr
##atero
hart-
duivel
neves
pijl
race
katiforis
##splinter
molen
pinheiro
indep
antipersoneel
sanchez-
milieumaatregel
pornografie
uruguay-ronde
miranda
consortium
orgaandoneer
bewaarheid
chileens
das
pauze
##bag
##elt
initieer
##demonstreer
overga
##amt
##emonnee
watts
##icisme
nafo
amateur
orban
##nelly
vorst
##rediteer
geex
zwaksten
##ingsbeleid
halfslachtig
tsjechen
macao
bedroef
##ubb
c4-00
##force
milieueffectrapport
miguel
fragiel
schild
boeing
fernande
##gereglementeer
##millan
navigeer
euroscepsis
bonds
gaap
koor
oett
sneeuw
##ticket
##63
##boel
##bach
##erceer
gef
verniet
bewogen
sturdy
doorvaar
##umb
nadien
##ancair
pertinent
maatrege
##overheid
netwerk
##queer
##schouwen
morgenochtend
##/92
micro-
chavez
g20-top
silva
##hope
##duits
##kolon
presidium
oettinger
eit
krat
lieg
sober
##iold
##pil
##-voor
##can
##zuur
##verricht
revol
anderhalve
##opge
##oski
##oogst
polo
##ront
##artney
##addeer
state
henn
portemonnee
multime
zuid-oost
##sleutel
levens-
##opgelos
nitreer
habitats
pionier
##ederschiold
ml
maag
tucht
##iat
##relevant
##51
##fond
diefst
erik
##constructie
peres
socialisme
person
##beheerders
hub
##distribueer
bedreven
##gerechtig
##beni
campanie
##honoreer
(98)0
harms
condoleance
diefstal
lenig
zwicht
##sop
##dc
##cke
##bles
##zn
##,1
##anitair
aanschouwen
##vermeld
##oliba
moham
overblijven
##amanou
schwaiger
plank
consul
19.
afgedaan
##s-overeen
##ansily
elektr
gezins
emancipeer
histor
##barom
saldo
##ingenomen
##rinkhorst
ferreira
kabila
keizer
zapatero
##rankoski
sanchez
west-afrika
josep
vervelend
vrolijk
schwab
us
##aro
##arest
##nereer
##eding
##feder
##menig
##waans
##etano
##ing-b
in-
eurobarom
##isse
##orth
##opname
level
rese
genot
vezel
helikopter
##ersoneel
##iao
ongemak
emas
lijnrecht
abnorm
##-col
##brokkel
workshop
##traditie
angelilli
fyt
ontbreken
lineair
##nauwkeurig
secretariaat
plutonium
maatregeel
call
hult
lager
prie
##nost
##nitz
bedel
##omroep
##reventie
health
##olereer
ondervangen
ondernem
toezw
##ocrat
##dras
niebler
lewand
marie
box
armsten
gedij
balk
kredietraat
ideologe
mcnally
##ill-mat
aanvallen
minderjarige
rots
pessimisme
electoraat
heroine
pension
oekrainers
remedie
vernietigende
abnormaal
fifa
ida
kord
morg
poos
##dik
##yan
##74
##73
teister
aaneen
altern
ert
##emie
##bestel
nuance
dankzeggen
openstaande
anderszins
##zink
imbeni
122
boekarest
##imenta
banotti
theater
##porter
##raelisch-palestijns
##treffen
snoei
riool
werkgelegenheids-
zuid-sudan
##gordel
##ørgens
##-scott
hernandez
free
vleugel
verstek
beender
##urant
##endag
##date
##enguer
stage
poly
geleding
##uistisch
derde
##loops
discret
##mpt
cornel
teloor
categ
ijk
##porno
vn-confereer
macartney
mcmillan
distilleer
baro
##schotel
##hygiene
cabrol
##kolonie
goodwill
ukip
purvis
geexecuteer
toezwaaien
lewandowski
brian
fos
##back
devies
gegevens
##isqueer
##olitiek
##rain
rein
naval
blott
socrate
diaz
academ
##assi
ontvangen
iemands
lauw
broeder
169
posterij
##waterricht
donnelly
delf
koude
andreas
energie-efficiente
heimelijk
tillich
gril
jl.
voggen
##42
##joen
##stone
includeer
##idee
verdragen
beklaag
##gepast
review
##anten
regional
nadeer
##oogd
blue
begaan
vijftigste
##hall
##icieel
verslag-bo
##restitueer
subsidiair
##slede
sedertdien
nationalist
##krains
kreissl-dorfler
antonio
gdansk
hoger
kovacs
020
mollar
master
oer
south
##kru
##-ch
##fre
deporteer
ingericht
##idal
##alum
stom
stubb
metter
##ieteit
groet
##ula
##bey
1945
##maatschap
normatief
constitueer
catania
broed
##penstedt
macc
motors
1970
mandela
khad
coup
##informatiesysteem
gevreesd
gutierrez
##heveling
eurobarometer
blottnitz
brinkhorst
ew
goog
kim
##sol
##zacht
##work
gehecht
##def
##ando
##schaars
##amel
##spin
arena
##overzicht
exerceer
milieueis
kleinkind
eu-rusland
##pijler
##ibbel
multip
zwakker
potoc
flora
##naamd
steriel
smith
walvis
irriteer
rotter
index
estevez
typeer
salmonella
concreto
research
morgantini
mcmillan-scott
edel
hok
mt
pes
sorm
wulf
##aver
##rick
##uust
##hoede
##faam
##72
##olo
##icit
magister
klip
dierbaar
ongeduld
gerechtigd
cyprisch
uitvoeriger
##diversifieer
holistisch
bushill-mat
verderf
iccat
##thews
robuust
circuit
##dicteer
istanbul
##guinness
##menigvuldig
maccormick
hysterisch
laak
map
pract
sic
zuster
##kos
##vd
##ziel
##95
##wrik
input
beieren
zout
##ull
##rijks
##osanitair
##euren
navel
##prom
interpol
kwaal
politiesamen
noord-europa
zwaard
roman
##besliss
macau
smelt
accijn
##ambte
belasting-
##ourc
helmut
creutz
berisha
gomes
frankfurt
buitenlands-
priester
food
fule
gif
##nos
##fiets
##weit
##)mijn
##chure
geoorloofd
##ague
schel
##astic
##vedev
mari
##kev
gelag
manch
##heil
antim
##administ
##getogen
that
##assopoulos
wieg
verslag-w
garantie
radwan
afgrijzen
svens
1,0
allergisch
rekruut
napoletano
##vidend
eogfl
##segment
hubner
elektriciteit
potocnik
ege
emiss
kash
wiers
##-missie
##-toe
##83
##91
##denken
herleid
bloch
##beteken
milieuaan
##jaarig
##herine
kapitaalfer
getrouw
##melt
provoc
##archie
##koester
groeicijfer
guerrilla
##ing-bush
fytosanitair
lagerhuis
categorisch
google
rotterdam
wiersma
-201
rin
##lis
##vlek
##52
##62
##79
##erings-
##elers
gevlucht
##ida
##omot
##prov
marine
200.000
##plichtige
barbar
frans-
obstructie
##baek
##rosie
smart
rugova
gemeend
rothe
kirk
giansily
petersberg
##activiteit
socratesprogramma
baak
peer
prul
wim
##smelt
##pr
##88
##zania
overheveling
##ulo
##icy
plas
##oerisme
##oelage
zijzelf
milli
arriveer
veiligheids
milieuoog
ruhle
discreet
einddatum
notie
eg-
medvedev
rojo
down
cara
300.000
##uzes
##sanctie
al-q
arbitrair
kordaat
voggenhuber
##omotief
c.
kreet
lage
nult
pand
##dop
##82
##yet
##roth
opgel
heikel
bijval
##cong
##onderwerpen
##plaat
##epersoneel
##ioot
vaststaat
##wekt
##index
pers.
##ardotti
betrekkingen
ac-
##hebbende
taalen
jungle
catherine
30.000
235
kooldi
opgewekt
milieuk
selectiee
##conclusie
invalid
##hilardotti
e-commer
surve
schilder
##margallo
begrotings-
nazisme
presidentie
##wapend
c7-0
gedupeer
fernandes
bushill-matthews
##elersundi
cement
fou
rouw
sr
saam
##kon
##53
##angst
plastic
##voerrestitueer
societ
##bijt
##dienst
prepareer
mao
##rison
communic
chi
##laster
corn
water-
fraudeer
karakteristiek
douanewet
1973
1,8
venezol
##-qua
vernedering
omgevormd
kozlodu
##alumiere
boeken
cursus
gucht
ilo
ron
zing
##sap
##kie
##bk
##jak
##erings
##romm
##robles
##dec
##eide
doorzetting
##emer
ande
##indrain
##waarden
slik
bocht
##meek
eu-v
gedaan
##tenaren
beheers
##ther
##intimideer
tsats
133
redondo
melks
durban
mcguinness
braindrain
sky
basel
figel
risicom
charles
buen
samland
altaar
tapijt
bolivia
tanzania
vallelersundi
oorsprongsbenamingen
garcia-margallo
beendermeel
discretionair
svensson
tsatsos
ach
cra
jij
vidal
##smaak
##soeverein
##drug
##-n
##86
##cop
##hum
##96
##eras
##atis
injectie
##ides
vergeefs
##alis
onvol
##conform
##besprok
nairo
driemaal
##oft
hoopgevend
funest
vrouwendag
technicus
idioot
allerarm
113
131
##efficieentie
grieks-cyprioten
##cyk
##oldstone
jeggle
pedag
smoor
voorbereide
virrankoski
##neyra
gorsel
kirgiz
gefrustreer
alternatief
nultolereer
##-quadras
buenos
boo
breid
daag
lied
prudentie
sum
##odo
##paar
##cm
##hout
##fers
##stro
intrede
##te-
##istico
miller
wetlands
bowe
##gebieden
##jev
armen
henzelf
verzuim
##aille
hume
##hai
bosnisch
pragmatisme
##passeer
b5-00
gulden
jouyet
##telefoon
lyon
aires
oosteuropees
zoeven
historicus
##ørgensen
khadafi
nairobi
allerarmsten
cederschiold
ices
lalumiere
pater
pimenta
wrijf
##orno
geur
##isky
alb
altener
##gevorder
##entiment
sto
oversteken
grosch
##reeken
gauzes
##wijz
herzog
##oogmerk
toom
gewend
##autre
##pert
##euvel
##-fraude
1049
##mahon
karamanou
##dwongen
##baro
18.30
teleurstellen
sovjetunie
##billijk
ahtis
##ij-van
bejaard
stikstof
gestroomlijnd
gil-robles
sanchez-neyra
ertms
lim
ppv
und
##uik
##honger
##erentie
onbegrip
##verkort
##verhouding
spiegel
watch
##werkt
arsenaal
veelvoud
##medi
##dion
spreeker
##strijding
sectorieel
duim
taalfers
romeins
road
##schapsoctrooi
##infeld
behelzen
wakker
##urkije
antipersoon
##bondsrecht
eufem
##rinsiek
hoppenstedt
homeopathisch
pensioner
cornelissen
taalfersie
coop
gre
g-20
ghilardotti
ibra
lift
meg
vond
##tij
##ller
##lari
##anza
##steer
##ignet
##verslaafden
reinfeld
parket
##legre
stev
intrinsiek
coun
risicobeheer
wijkman
##-democ
##ratische
bull
gasoliba
bbc
macedonisch
bedroe
kwantificeer
filosoof
pretendeer
##waspraktijk
gazprom
asean-land
sepa
##-joegoslavie
torres
stipt
kasp
ondervertegenwoordigd
ce-mark
saamhorig
melksector
reinfeldt
bedroevend
750
a-
alegre
erosie
fein
hip
nistico
son
##hies
##fam
##94
##93
zijne
opgetogen
ondoel
##gedwongen
mos
conditionaal
##ogus
comoren
##icaan
##eso-
##imis
##immigreer
##onderbroken
nabuur
##oeker
leun
elmar
resol
##heet
arbeids
20.000
under
zee-
eva
benard
niet-militair
##ahu
##relig
kyoto-protocol
efsa
lissabon-doel
gekke
gereedschap
origine
segregeer
niet-tarifaire
favor
linguistisch
##-prodi
bekromp
druif
gids
kud
mg
shal
##pin
##huur
##mik
uitlichten
provan
amn
policy
##strueer
eu-ver
commissie-prodi
corp
##cepticisme
##therap
##maand
stilzwijg
##akellari
merite
santos
1,2
snap
gecompliceerd
ahmad
fascineer
onbevredig
mccartin
##palend
revue
falcon
militant
##nota
##ransactie
oranje
##rubriek
##betekenend
kirkhope
vidal-quadras
pedagogisch
armeniers
##akellariou
-op
fe
lgo
pogen
tao
##tp
##dens
##-le
##-com
##61
##breeken
##enaddeer
##ange
develop
vervals
bescherm
overdaad
overmaken
##sluip
doorn
##beslag
##welk
##bouwde
##rekend
##ationaal
menrad
##ieux
milieuoverweeg
##marck
##halen
##lozen
##visum
jazeker
##kundigen
niet-eu
abd
cars
##extrem
##fundament
mcmahon
##endence
geopolitiek
##iram
farce
ingeluid
souchet
overlappen
creutzfeld
e-commerce
ibrahim
steviger
vervalsen
a.
ias
math
ox
pp
##ev
##pest
##uge
##mern
##ital
stier
##olan
anast
##icro
##berisch
ex-joegoslavie
conser
eu-financier
valles
##adequaat
achten
winst
tali
##herzie
floreer
flautre
theor
##iferisch
moskee
locomotief
whisky
hans-
##-2020
##bride
##levenden
##folter
plooij-van
independence
invaliditeit
onbevredigende
##iramide
beest
go
hak
iris
smeek
tre
##irus
##ea
##ey
##eva
##-richt
##-en-
##yi
##qvist
##eta
##ello
##inquent
##othe
schoei
##stede
eerste
##schikten
ruine
weers
##ssamen
antwerpen
tranche
netany
##nero
eu-delegeer
priori
apotheek
verdiende
119
gezins-
uitgebouwd
uitgestrekte
noord-amerikaans
elektronica
##termijnstrategisch
##olfijn
##knoei
1974
##varen
3000
behelz
##correct
##sprocedure
ethioop
eurlings
##populair
##-karab
depressie
wulf-mat
##ulouse
onvoldoende
ondoeltreff
amnestie
netanyahu
ces
i.
joe
mong
show
vlek
wegen
##sa-
##hank
##wood
##christ
hetwelk
ineffici
onver
modificeer
metten
overlevenden
wei
paritair
##empi
scheil
blank
toulouse
regelmaat
exter
corbey
extensief
beheerde
centralistisch
308
forfa
##ingsmaatregelen
niet-bind
mkz
##discussie
raff
(95
##train
toegewijd
gordon
##ihler
ketting
##oscoop
routine
eurocraat
ressort
provocerend
##copunt
favoriet
aare
hampton
raar
tik
wort
##oven
##draaf
##inhoud
##stoerisme
##italie
##isin
##deugd
spaak
##beschouw
teneur
bohm
predik
handje
chloor
middern
incass
navo-
democratie
geinteresseerde
##hrton
haitiaans
stalinist
baker
rectificeer
italiaan
innovatie
##straject
joseph
academicus
society
##odoul
taoise
aare-fractie
middernacht
-programma
dolfijn
rus
sor
trust
wu
##iair
##vand
##vorde
##anisme
##strand
tevoor
ongereg
overtol
ontzi
terdood
lef
##ition
zeegrens
2000-200
10.00
##ressief
##sky
abru
##bestendig
tempus
##stane
verantwoordelijken
1957
egoistisch
schuldige
hitte
bontempi
culturele
innovatie-
bevoordelen
sandbaek
revolut
tevoorschijn
overtollig
-200
2-
2.
sakellariou
zoog
zucht
##brug
##feest
##ines
##initieer
verle
verstane
##aliser
##ctueer
onderste
##utsch
regionaal
##gad
gade
milaan
##vormen
vladim
agens
afgebouwd
plan-
##ropoul
12.30
karik
gloei
##barak
##ulsen
##kapt
##ubert
##benga
populatie
ausch
##stationeer
concurrentie
pyren
1049/2001
development
##odoulou
feed
kac
##ebel
##treer
##tong
##paard
##zant
##inepersoneel
##rouil
##eeen
vervol
hekel
##gewassen
##gemiddelde
##gemeend
##enter
mouw
##atieclausule
landen
##gerd
##groen
lei
##batterij
ortu
agree
##-fonds
serieux
##kwest
gisterenavond
bulk
controleerbare
politkov
schengeninformatiesysteem
koeweit
staats-
santini
lissabon-proces
hybride
cabinepersoneel
moluk
ontheemde
piecyk
geengageerde
bernard
wulf-mathies
externe
forfaitair
verlegen
karikatuur
auschwitz
ortuondo
030
4,5
cook
jas
khart
saf
##pik
##pomp
##delf
##-beleid
##02
##cil
##)00
##sto
methaan
##ctionaal
waarnem
##antisch
##beambte
gahrton
interceptie
intermedi
##lando
blijd
denen
##formulier
fund
##klap
##itius
gelijkge
voedings
ongegronde
104
##go-
123
##rakopoulos
instituutionaal
##technologie
krank
299
##jaer
grass
kalender
centraal-europa
golfoorlog
stockmann
##materieel
davos
##fluit
icbe
##traject
schorling
hennep
venezolaans
corpus
##therapie
irish
beer
cin
hachelijk
pm
prat
##site
##gierig
##rente
##-to-
##censeer
##jad
##quit
##eerde
##islam
##ido
verwelkom
##olair
moeras
##endheid
##uitbreid
regionale
##ffel
##di-
##misdrijf
allerge
121
##dington
hongaar
##schild
##vignet
....
a5-0
paulsen
sharia
##gewortel
myller
bisschop
honoreer
buffer
sudanees
hightech
##administreer
inefficientie
agreement
-vraag
kub
mush
##droom
##zijd
##derbij
##zeen
condit
prost
##spest
schal
##ope
tegenaan
##bode
##iov
marx
##arta
milieutechnisch
##kler
eu-leid
turf
ambig
dier-
plein
telem
##coherent
hardop
flank
##statelijk
1,7
sahra
podium
##corridor
mauritius
g8-top
##right
fabra
goederen-
##agaropoul
wolk
association
##recycl
##bowman
netwerk-
sormum
ahtisaari
##-karabach
taoiseach
vladimir
mushar
##agaropoulou
dover
huich
nom
ph
tse
##lied
##84
##had
demar
##ieve
##staaf
##rocht
##omf
##zegel
##oui
##ices
##mevrouw
##ustreer
milieube
berth
##diend
immer
deficit
centre
britten
midden-europees
egnos
junibeweging
##lett-
defensie-
opposeer
cubaan
pan-
##illustreer
viii
fiat
kness
1,3
##lastingplicht
paradijs
arbiter
annex
andorra
albertini
##sa-ts
blijdschap
conditio
epl
ets
fame
mater
npv
##kreet
##molen
##wl
deva
##oorden
bekl
##omstreden
##iliseer
analoog
##anter
onzes
hieron
interf
##ria
permissie
politie-
##ndroom
dial
rapkay
mahm
##educatie
schoolverl
145
benzeen
18.00
kroaten
welkomst
dybk
paro
varieteit
ests
vaticaan
walter
pretentie
exponeer
represaille
angela
overkoepel
up-to-
geschoold
nagorno
saboteer
equatoriaal-guinea
##gerechtigden
##-collega
milieukeuren
(95)0
intermediair
knesset
##sa-tsagaropoulou
up-to-date
650
??
uwe
##odig
##uan
##drift
##yss
##waan
##elateer
##stuif
inlichten
veron
beste
bevoor
##alisatie
##urch
uitdag
wijzen
##amper
alleanza
##vezel
genegen
ord
##klok
chris
vredesmissie
zwengel
##ivu
##coalitie
oostenrijkers
brochure
##voir
ijdel
##tegenover
##celona-proces
arabieren
##hoopt
##spiraal
bezwijk
charter
representatiefiteit
##ymi
gedetailleerder
tweesp
republik
niet-ingeschrevenen
papoea-
?-
caca
goepel
horen
isp
must
mfk
rite
tum
trom
##til
##peter
##lief
##hier
##ittel
stihler
euroof
reper
##terror
hergebruik
##gerelateer
##plaag
artie
miniem
##berger
##afhank
klamt
confisqueer
##vlag
##nez
##efa
laden
gratie
japanners
##illance
vlaggen
ltte
euro-mediterraan
opportunisme
boeddhist
##centrale
mettertijd
gedaante
kudde
shalit
huichel
euroofignet
bast
fut
raf
tier
##mu
##won
##isp
tewerk
diez
eurovignet
believen
##spreventie
ante
hernatie
blaam
periferisch
dia
manders
##ofreen
communique
##adic
##doden
gezondheids
eu-norm
##nieuw-guinea
##onthoud
##armoede
##kenden
eisma
##izofreen
karel
##scheiden
hall
carte
##klep
vn-raad
logo
##ashir
microfoon
##-criteria
sary
gecommitteer
supporter
hiv-
unilateralisme
haags
paradig
transito
##-quaak
nazionale
lamfalus
dimitrakopoulos
scheeps
##-barroso
##mernissen
##gerd-quaak
musharraf
fameus
hieronymi
mahmoud
artiest
eleg
loer
north
qa
upe
##vader
##-comite
##boodschap
##anze
##atar
##idel
##revolutie
aanhoudend
hek
##ariseer
##slok
schizofreen
rechten
amato
burgers
##ineerd
snelle
desama
##ovitsj
ecall
beheerste
imker
##clatuur
##monit
carnero
##distilleer
##-2009
370
saint
triomf
tac's
generlei
##-overeenkomst
terminal
kolonialisme
koolstofdioxide
bekommernissen
sesar
pandora
nabuurschaps-
uitdagend
papoea-nieuw-guinea
iberisch
oen
sentiment
uefa
##ebat
##lav
##cin
##bauer
##zwel
##wiel
##stransactie
##usz-
spendeer
##pletter
##stemen
tok
##ece
##klas
church
##addington
##pakt
discuteer
institueer
soll
monuc
2000/2
verslag-s
radic
drang
##medic
radio-
schroeven
400.000
##ushna
##lokaliseer
sapard
1951
spirit
-bestrijding
verkennen
begrotingscommissie
##wolski
##hunice
telefonisch
andreasen
cooper
elegant
##usz-wolski
boren
cushna
easa
got
gio
kook
mist
skop
voe
wurg
##ette
##aters
verstaat
bijv.
##voorde
stauner
##aux
elkander
kleuter
trauma
##loy
barst
111
ontwikkelingsronde
##producten
neoliberaal
147
glad
noord-amerika
btw-fraude
telkamper
lamb
galic
scheidsrecht
1968
versus
liquideer
iao-verdrag
kouchner
##links
marset
council
##-democratische
creutzfeldt-
revolutionair
pyreneeen
##lett-bowman
schoolverlaters
cushnahan
skopje
bid
bauer
kha
pover
sens
##gids
##ole
##vouw
##flex
##zai
##y-
##streng
##israel
besmet
##rec
alfa
##verg
##verdien
##arieer
omvormen
##schmid
convenant
##stelsel
schoot
ten's
herc
stadion
blus
##inancier
wereldbank
milieudimensie
##etsj
##ordening
basisa
prior
##tella
konrad
rampen
havan
##dwars
##-the
angolees
epa
civil
smal
optredens
dumping
shop
triv
##saneer
saudi-
pseudo
##iatrisch
kozloduy
kaspische
solliciteer
saudi-arabie
femin
meel
nel
nas
##iveer
##edel
##tempo
##p-
##bu
##mom
##ory
mob
reproductie
alledag
##utmann
##term
##continent
perceptie
burger-
vrije
##auro
dividend
geldend
##toestel
midlands
zweef
wiebenga
beheers-
##ibie
spoorweg
nederig
christodoulou
kwetsbaren
quotasysteem
octrooibe
professional
ignal
##forceer
sadc
##componeer
geringere
##karakter
equity
camera
friedrich
##bureaucratisch
kratsa-tsagaropoulou
##frequent
elektriciteits-
anastassopoulos
republikein
saryusz-wolski
esp
glen
kraan
kypri
pik
rose
sander
tru
yass
##iori
##sing
##tur
##peg
##dd
##85
##haag
##hong
##bine
##stoe
##eerden
geforceer
versta
bepalend
aangel
hecke
##verb
##andre
##ouf
##duister
ten-t
tegenstemmen
##promo
polair
##ermo
subs
##inejad
mora
evacueer
portuge
##domein
##pedeer
##ations
plenum
indische
forest
visumaan
##lengte
##taken
graca
pluraliteit
dalli
##lange
pilot
buik
schapen-
tweeeneen
##precieer
fluctueer
verveelend
jimene
##pilaar
manchester
emissienorm
falconer
dybkjaer
220
ado
dna
fiov
grip
hut
leed
##natuur
##tjes
##pelijk
##poort
##uier
##kip
##vili
##/46
##wraak
##oni
##deins
##arn
toevoer
spraak
##bezon
plak
##planteer
steven
leh
zelfvertrouwen
berger
henders
trautmann
##izel
tenuitvoerleg
harrison
verslag-n
sever
rode
mechanisch
2002/2
noord-afrikaans
esa
formeeliteit
canarisch
delhi
a4-0
horec
vii
##anni
##watt
kabul
trips-overeen
##etera
schierhuber
visserij-
fernandez
kellett-bowman
legislatuur
clearing
degressie
duty
antimicro
##congres
theorin
weerszijde
oenologisch
kyprianou
henderson
-diensten
finnen
kogel
mast
voogd
##gie
##lor
##/38
##cult
##fan
##zang
deutsch
encl
##roes
##iso
heat
eufor
mosc
##ilver
overhalen
##spor
##sparant
##ulant
danig
mess
##aka
##esa
andermans
##bescherm
##plunder
beguin
##erma
##keeten
orlando
##ronom
ruiz
commissie-barroso
##s-car
traan
##tox
ongemelde
102
afghanen
##ingsbevoegd
dwingend
isler
alvaro
290
field
bottom
sarnez
distributie
fax
zuid-soedan
##ways
surveillance
ahmadinejad
molukken
grassle
ignalina
moscov
-;
-systeem
bancair
e.
giet
saak
toelage
um
##iang
##tief
##pamendeer
##loods
##koel
##kuil
##bis
##been
online
##lea
allicht
##entiteit
##anden
euvel
ervaren
onthaal
scheld
##graf
suanze
bedrijfen
##onthef
##s-ten
cork
correctie
beroeps
verzuring
##than
##referendum
136
##hola
##bao
geestes
##urtou
mkz-
accu
petto
centraal-afrikaans
pozn
kaboel
seizo
##cryp
mensenrechtenverdedig
ipcc
collega-parlement
legislatief
vluchtelingenstromen
##on-har
##rothley
berthu
##pegna
portugezen
antimicrobi
##s-carpegna
moscovici
suanzes-carpegna
poznan
mensenrechtenverdedigers
east
geer
ifr
jel
mr
mira
saai
wir
##doneer
##vromm
##bit
##zag
##)mevrouw
##anu
##inks
##atine
##atinos
geologisch
voorlichten
bec
##alo
##leicher
dieet
modus
##otou
##ogh
##spit
##ulum
volatiel
##icau
##provid
sociaal-democratische
toet
chol
##ssmokkel
behoe
##spanne
neil
room
##helm
2001/2
scrup
##zoch
##kozen
##-tunnel
niet-be
busk
atleet
verkoopseizoen
##regio's
skinner
ashraf
sars
keros
##oliberalisme
prive-sector
margineel
kindermann
##nius
antiterrorisme
vilnius
##federeer
sicilie
kubiek
nagorno-karabach
paradigma
##thanasie
seizoens
##on-harris
##vrommatis
atje
jia
piek
##ior
##aw
##ours
##vleugel
##boon
##front
dete
##aaperiode
##inkev
oper
ophef
##deken
euthanasie
metro
##uraal
repl
report
bijster
##sprekend
##emd
sprook
gaul
##irurg
##gerijm
slinks
marfil
##erman
kwestie-t
eu-breed
vlakbij
vergetel
harkin
europeana
slow
jove
##rologisch
##directeur
010
knop
1977
roekeloos
loy
michelin
2,3
insect
##uzzel
virgin
begroting
onderwijz
e-handel
tarwe
focuss
##donor
fourtou
pacif
##uttil
##riculum
lakmoe
lauwer
-2013
beheerscomite
enclave
dir
gps
lloy
mam
sao
vik
##iak
##paap
##-l
##-norm
##q.
##chem
heug
##issie
schol
##imeer
gahler
##prog
##riatisch
minimis
wijsmaken
##manoeuv
moratinos
humor
114
novo
luik
flor
##allieer
tunis
1982
domino
bruin
kolos
holte
1,6
##lementeerde
2,4
chemicalieen
##adzic
##fk's
creditcard
huldigen
comfortabel
kapitaalfereiste
##othec
ongereglementeerde
giovan
khadra
heaton-harris
cafe
foet
gcc
prij
##odeer
##usta
##ueira
##-in
demon
##iez
##invoer
voorkomen
versn
teugel
opleid
##gestoord
##arij
eures
omliggend
##uralisme
##scheer
##akt
##osa
nuanceer
##deels
##berisp
##kers
##sey
achterlopen
contour
jury
notaris
rommel
action
##ristal
##helet
vervoers-
301
visuminformeer
wit-russen
230
vn-orgaan
##looning
##mann-
micros
##-2000
##materiea
hyper
prets
gendergerelateer
vaclav
##abeth
lieden
bedriegen
##colle
##ihad
condoom
vilvoorde
##masker
stenmarck
collado
##ourcans
##jakob
sahrawi
upe-fractie
##ecedo
moraes
jimenez
adoles
khadraoui
agen
cul
kaar
paya
sel
ticau
wi
wee
##pska
##ueg
##vac
##hasa
##fi
##fast
##zonde
##ence
##ervoir
##atiseer
bevolk
bemacht
oplet
##verifieer
##andees
strijk
##arsenaal
##sluis
daarachter
##imper
##opstand
##valu
drievoud
##heik
fundeer
visionair
19.00
achterdo
##leraar
##rint
overtuigend
##agena
##clam
126
##intens
##mogelijkheden
verslag-sch
##geeaf
##/93
object
kredietverstrek
cliche
ii-programma
vn-vrede
biljoen
garnaal
##jaren
jargon
seveso
##aksisch
literair
##skaja
life+
pittella
militaristisch
astma
ketel
opportunistisch
cartagena
c.q.
srpska
##humaan
kirgizstan
nelson
sanders-ten
atjeh
bemachtigen
achterdocht
'80
-en
cler
gos
jihad
sun
sard
##sorteer
##rice
##laten
initie
inner
inert
verslaaf
##rese
##verlet
##arning
##zege
##otto
##schach
##endum
##aties
alledrie
##aanzien
##anterie
##ities
##conisch
##bewijz
leus
##afgeb
##kern
wereldfonds
veiligheid
discriminatoir
##toevoer
uitbreidingsronde
valideer
##rimeer
liberaal-democraat
winkler
lichtvaardig
##gebreidel
101
portschach
quecedo
claude
assim
draconisch
17.00
kustwateren
kuneva
birdal
ruggen
1,4
walg
##-virus
##bekken
donaugebied
catalogus
gmo's
inventariseer
califor
##sjov
b6-0
##drievoud
royo
istanboel
##schroeven
mongolie
voedingswaarde
repliek
diner
estr
naad
pent
prins
pcb
ruraal
ty
##ias
##ny
##doc
##feit
##erro
##ingsp
##rof
geallieer
voorbeh
on-
##gemoeid
##elijker
##spar
##uts
##aky
nogueira
welig
welbeschouw
##boete
slink
##berie
bohunice
##oemel
antit
statisch
liu
morris
zwendel
##snet
##kunst
lastig
emi
zuid-azie
federal
##gevoed
1983
ultra
##alais
snoer
##/220
##scenario
gedeporteer
##affner
stationer
venture
toubon
villiers
##consistentie
mohammed
cholera
kerosine
innerlijk
##afgebrok
welbeschouwd
.3
850
boor
koek
rend
tus
wa
zag
##sens
##tee
##poeder
##kia
##fmann
decentrale
##ijzer
alan
##agel
spam
sprank
##veil
nox
denkt
##troebel
mavrommatis
klinz
eu-grond
unmik
##compl
##begun
forceer
doctor
busuttil
##oboter
gats
delinquent
doha-
##wanees
##holm-programma
verkiez
irrigeer
##-santer
standvastigheid
patriot
eriksson
cornillet
boogerd-quaak
patern
-opleiding
abdul
##christene
wortmann-
cacaoboter
versneld
wortmann-kool
bhut
jak
lik
laan
pod
pex
scepticus
##shof
##taf
##pala
##drin
##cef
##jaard
##faat
##enia
##aticus
##verdro
##degenereer
##ordig
mostar
overge
##union
##iri
##astam
##baars
milinkev
tweesta
slordig
##zetel
zaaken
board
vloer
geru
unita
##outi
verdedigde
118
##inderen
personeels
prematuur
glijd
bulgaren
energies
##plein
ecuador
##identiteit
patrouil
lesb
indiceerief
imperium
migratie
##film
##aeda
milieuris
sji
playing
##worstel
mladic
##proviseer
pan-afrikaans
##wonenden
scrupule
estrela
##verdroten
back
gh
khan
luttel
runder
ryan
tb
##tabel
##-plan
##-strategisch
##jam
##etica
##idou
verzeker
onrust
##enten-
stiek
##arkt
##ietz
niet-b
conglomereer
##komend
spaanse
schap
##oeren
##gelaten
##ussie
pols
doem
##beroep
vaststaan
misere
vloed
##ipe
bedrijfs
positie
##residu
##oorts
##mogendheid
##house
##ivir
balt
151
verslag-co
glim
prestatie
##exporteer
##schuldigde
##demisch
vlees-
5000
powell
##geschikt
##gemonie
##ascus
batt
##filtreer
##audit
stalinisme
nomenclatuur
91/4
pitts
circus
krehl
##diploma
kuhne
recyclen
politkovskaja
telematica
creutzfeldt-jakob
##othecair
giovanni
stiekem
aarts
paai
pierre
see
waddington
zus
##poneer
##uzel
##kat
##1-
##bac
##fra
##inc
##ituleer
gevestigde
onafhank
##vergeer
##desta
eulex
omissie
willi
##komsten
schamel
##beoor
leuze
gelatine
bow
1950
##isco
autoriseer
eu-missie
eu-minister
202
iso
106
franz
haring
karadzic
janoek
autobus
135
40.000
erfgoed
hypothecair
##oxenia
organisatie
kameraad
##dorff
##junct
laperro
##dition
hermange
ceremonie
strooi
siberie
nicolai
plasma
khartoem
prostitu
horeca
behoeftig
'90
-clausule
kittel
wand
##cursus
##enissen
##etair
##inueer
##storm
##ituur
##gevraag
uitlaten
anarchie
regulair
##beet
##volgen
##valideer
##meier
binnen-
krijgs
adriatisch
##aveld
##manifest
##halz
zwaveld
##stofemissie
balken
rober
niet-duur
filiaal
##elly
240
professionaal
demograafie
romeva
camison
psychiatrisch
vermoeid
airways
angels
druisen
mccartney
scandinavie
maystadt
89/
##etterd
cercas
antiterreur
##fluoreer
##huts
commission
corporate
##fabriceer
##circ
neurodegenereer
hokmark
egeische
beklag
havana
##college
pittsburgh
autobus-
cru
dini
g-
jub
md
manco
nico
oeso-
ries
woeker
##nap
##oveer
##lieg
##mijl
##westie
##ansel
##china
##is-j
voorgaand
##idis
ongerecht
##gespan
overvallen
##mentaal
##sloop
##slank
reunion
##aplu
prompt
aftrek
##isti
##imo
##ploeg
##mming
leve
kwel
marian
resist
##ative
rucht
##ers-
chirurg
##adisch
controler
aangemeld
##oolig
##kwant
##wild
107
syl
127
portaal
ontwikkelings
paraguay
##-landen
146
moedwil
laval
zuid-zuid
rapport-g
##nucleair
##effectrapport
radioactiviteit
fatah
reikhalz
mubarak
##lievend
##rido
trade-
##broeder
paulus
collega-afgevaardigden
flemming
##salaris
djib
##opgemerk
hulten
opgelucht
##isinau
lloyd
adolescent
##vacuum
milieurisico
janoekovitsj
erfgoedlabel
laperrouze
ongerechtvaardigd
-voor
fayot
fidel
lus
lund
muis
sef
veg
##eye
##rendeer
##-en
##-industrie
##-bijeen
##cisie
##huldig
##inader
##chal
endemisch
##oeff
heu
heks
##geme
##scha
totnog
doorwerken
##spuit
##terrorisme
##umaa
##umin
##boycot
##innoveer
polis
politiemens
standard
mare
chisinau
antif
network
adjunct
##kwansel
##tsin
humanisme
ney
duitser
noord-irak
banaal
bestemmen
erfgenaam
brad
audy
progres
rechtsvoor
zoniet
zonodig
papastam
sharm
##-pet
##garantie
damascus
ebner
ariane
lipietz
methodoloog
zijdelings
catch-the
gedetailleerd
##kruisen
teloorgang
fosfaat
mathieu
eplp
wibe
zagreb
denktash
##drinken
balkenende
angelsaksisch
ruchtbaar
djibouti
##inaderij
totnogtoe
papastamkos
eye
lmoe
lisi
mauro
oct
ral
ramb
vs-
##uj
##cussie
##hip
##boe
##bot
##aaal
##idy
##idair
verijd
beug
##alia
ongee
hegemonie
##geduld
stout
##olut
##ilia
##schet
##agbo
belfast
paras
##spe
spe
schreden
##behagen
##blind
amp
stav
##vallig
poll
blix
##van-
visueel
eu-project
##resideer
kosten-
armzalig
conto
corrig
fransman
verslag-le
reflex
##positie
karin
karim
queiro
hallam
protector
162
##monetair
voorkeuren
mission
hamvraag
galileo-
gbagbo
monitor
##lokaal
australisch
donauregio
mayer
##vakantie
nagel
lenz
mantel
gyori
doris
##propageer
frans-duits
vondra
##zijdank
repercussie
galicisch
jeltsin
toetred
kittelmann
rapport-goldstone
verijdel
kak
mbek
oec
pril
vwe
##kraan
##dol
##jud
##zuig
##zwicht
##zaken
##oro
vanhanen
beider
##arden
most
eurof
eurone
##endom
##ctb
beloop
parmal
groente
##anto
amuseer
##plank
twee-
tweevoud
haard
langenhagen
autocrat
20e
agglomereer
turco
blijkens
##ited
moreira
vieren
2018
2000-
teleg
##ionist
##twool
##stream
168
niet-toe
niet-lid
malaise
gryb
douane-
##bourn
kedo
garrido
##oulis
centraal-a
##ivelleer
##gewricht
korhola
interim-overeen
casa
stagiair
wetgevings
analfabeet
##gronden
ladder
##olanek
churchill
geruineerd
progressprogramma
mbeki
vweu
parmalat
jb
wrak
##nas
##duw
##-st
##beeks
##jell
##ward
##ław
##chef
##repareer
##ietta
##schors
reul
onderwezen
beleg
##komgeef
##emper
anach
spier
##ics
schaak
##imiteer
naiv
##volatiel
rechts-
partido
manschap
exec
##aciliteit
##endez
control
crisispreventie
203
20.
valle
thaise
gedoog
##auska
cohesie-
##hell
noord-atlantisch
##draal
malcol
vn-missie
integratie
aids-
##sgezond
##-2012
provid
##smeed
##uez
##zym
##ranten
casini
oezbeeks
##iii
alexand
cross
menigeen
##korf
khmer
##riesegio
verpleegkundigen
##stigste
verkeersdoden
##politicus
aroma
masker
micro-entiteit
verslag-bosch
thatcher
caraibisch
risicomaterie
demarche
mobutu
bradbourn
rambou
corrigendum
grybauska
malcolm
-het
c-
cdu
csu
korps
mug
mega
nier
pog
pande
sensatie
usu
waal
##nijd
##nab
##economie
##tend
##uro
##-partij
##moot
##zl
##anan
vannacht
encryp
##onard
##idnap
beu
dato
##geschool
mous
##ensio
paraplu
##tes
##utsel
wathelet
##akkel
schleicher
##concessie
##blish
##ople
##osh
##esta
amer
blan
sud
weg-
##jebl
chau
volksgezond
##gaande
achterover
eu-top
luchtvaart
##rakezen
topolanek
##fondsen
decl
olsson
frahm
haider
proteine
servier
fraudegevallen
##ische-
drc
canete
salam
##communist
##ileum
oeig
viola
directeuren-generaal
1978
mediadien
kerr
##concreet
c5-02
medelijden
popular
antisociaal
curriculum
timorese
philippe
non-prof
resultaatgericht
rodrig
##defop
gaulle
##prognose
jubileum
nicole
ongeeven
rambouillet
usual
hind
hoolig
irakezen
sz
sak
vass
##gandees
##raa
##pir
##lamp
##draad
##-del
##-regel
##04
##hire
##jana
##orbit
aliment
##verblijf
##degradeer
##endie
##amineer
provis
groenten-
##kende
##neemer
##escaleer
##uiden
herdefinieer
blanc
procureer
werel
ziehier
hijzelf
##rana
##roni
exorbit
milieuregel
posei
keniaans
##verson
1500
verslag-cor
144
143
roche
oostenrijker
flauw
simon
angstvallig
durao
##accijns
garage
##orkov
##shire
##-mijl
podesta
nepad
andrews
kelder
##gordijn
haper
##adimoulis
cassidy
##nostisch
resolutie
##bezonnen
severin
wirwar
gendergerelateerd
##jellner
anachron
##jeblieft
exorbitant
cav
piramide
rije
vie
##noop
##tt
##tact
##pijn
##licentie
##cq
##bor
##wrocht
debiet
bezet
beaz
##igs
opwind
##gefundeer
##gewild
eurocent
##apend
bijt
doorkruisen
doorwrocht
##gener
volhard
spor
schop
##imer
navenant
socio
mary
##div
rue
energieop
chip
eu-gemiddelde
##ontslag
oosters
deflatie
content
asensio
evf
148
transvers
##dwaal
laur
##midden
##allah
##streven
163
energy
koerd
loonkloof
schengenruimte
latijn
opbouwend
pestic
landbouwfonds
overnamebod
##gewapend
blindelings
house
##paspoort
bezuiden
schoenen
trips
##aborska
##offici
temperatuurstijg
zappala
milieuraad
schengen-acquis
lindqvist
ventileer
schorsen
kashmir
ifrs
pacifist
zwaveldioxide
non-profit
abe
cm
carm
dha
eeurope
kfor
qatar
vvd
##iance
##soctrooi
##gr
##oy
##prakt
##linie
##kase
##hu
##fruit
##zwij
##ijer
enisa
##onist
verwateren
teverson
##oes
oproer
##omlijnd
europes
##aakt
alsjeblieft
doorgronden
mekaar
##icz
##osief
##onderwerp
##vallei
genant
verbum
1948
##zorgvuldig
trawl
##aleis
##redder
##tsjenko
exploit
cannab
lambs
##verantwoordelijk
##hartig
tsjetsjenen
##oulas
##ucci
expon
architectonisch
verhit
creche
establish
marshall
commitment
foun
bundes
schelp
communicatie-
##religieuz
iasb
ondoeltreffend
gloeiend
##islamitisch
bevoorrecht
opleidings-
prostitue
##kwantificeer
chauvin
cannabis
-begin
5,5
clement
ion
puer
sich
xiao
zero
##latoir
##culeer
##covic
##hat
##fat
##mag
##moede
##enius
debet
##etreer
##orsie
##stroep
inconsequent
##aarzel
##igieus
ophanden
aankopen
street
##iller
##ooster
##rijvend
onderspit
##oedel
##iero
##spruit
##ouders
werk-
##reeel
##wijde
hoegenaamd
beters
betuttel
burgerslacht
march
##berecht
namibie
colaj
##hed
mengel
expe
milieuver
##klim
miljarden
antivir
eu-systeem
eu-afrika
##redeus
insteek
terroriseer
##-fabriek
machtigen
acteer
##peace
vriendje
##skis
##drank
##kouri
mera
nonchal
pech
##voedsel
egyptenaren
facil
mediap
hamburg
1994-1999
##topen
kaufmann
vatanen
haagse
380
hoff
opt-in
##lyter
maffi
##engeland
ceuta
riis-j
sacredeus
##/2011
##fortuin
##fijnd
deprimeer
ccctb
committeer
larrea
pornografisch
##ievende
##politik
innig
security
joesj
slowaken
sefcovic
##zwijgen
lambsdorff
exponentie
colajanni
nonchalant
3.
brie
bach
cv
gam
kins
puzzel
retail
##tb
##lietta
##kad
##koorden
##-vlucht
##ju
##etta
##atic
gekant
##leens
##olis
dies
overmacht
##slib
onthe
##ocal
schu
schie
schim
##onderhandel
##steven
##werking
##vrouwen
prejud
berenguer
verdrags
gewonden
gerenom
##down
addis
eu-maatregel
eu-subsidie
commissie-santer
valer
lire
struis
pakk
isaf
dupliceer
groene
##conferentie
##organisme
palestijn
##/91
##hanol
##baur
class
explosief
stilzwijgen
secchi
draal
gelovige
nonsens
##staten
##nuik
millenniumronde
body
bodys
papaver
informatie
##contact
codecisie
radi
icc
##loket
margin
capabel
2,7
equal
##bedrog
##fried
gilad
taxi
stroop
grotesk
jonge
houvast
equitable
recycleer
oddy
##isode
microsoft
antivirale
-mijn
5b
6,5
fot
fast
gret
guil
kelly
loot
oss
##gat
##raap
##ovan
##lia
##kruim
##dar
##vdb
##free
##yth
deter
##chinson
indring
encef
diegene
##endoe
##agusta
gebed
##conmissaris
##bewind
##orthodox
gabon
interopereer
##geefe
arist
slib
##afide
magisch
bode
premiss
##autoriseer
gelijkberecht
##rime
sommer
more
##begrens
machts
117
profeet
office
##ach-ver
bioveilig
its-
defensiematerieel
##ciech
niet-in
niet-uit
elektronische-
conceptueel
attwool
lukraak
##annan
woj
oost-duitsland
senior
##filos
roma-gemeenschap
farc
ayala
larive
kongo
kaapver
kgb
bedroefd
zuid-oost-europa
fouten
hutchinson
on-line
battisti
bowles
mdg
rijed
schuchter
gerenommeer
ever
hade
jum
lab
o-00
river
##iberaal
##sz
##set
##p7
##pijns
##peins
##-confereer
##3-
##waag
##wist
dess
##ie-
##inggelden
inkt
ingeb
inkoop
envi
vergrijpen
tec
allo
stoom
reduct
##spary
ana
##uth
comenius
schlyter
naf
interetnisch
##legg
betaam
diensten
##seurop
buitenen
##fta
handleid
chanterie
##vuld
unit
mono
##comment
verzadig
##roka
effectrapport
genoegendoe
##hael
verslag-oost
karzai
drugssmokkel
vervoersnet
2001/00
famagusta
iraniers
rapportage
horde
##melin
milieuw
kolen-
##oxiden
##ynes
0,9
verschuldigde
marinucci
gematigd
target
##slowakije
##itution
nordmann
##bewegingen
first
ingenomen
pompidou
##-europeaan
cdm
innover
gnss
practices
plan-annan
##tongue
californie
##volgende
##-peters
oecum
encryptie
oeigoeren
rodriguez
beazley
joesjtsjenko
clegg
fourcans
fjellner
hutu
mitter
nago
nivelleer
pam
push
rog
woud
zaborska
##tensmokkel
##ping
##uf
##dp
##ware
verslaafden
onzer
alain
algar
##deira
wijlen
##uwe
##slind
##sloten
lands
ontzag
spong
nucle
##delievende
step
marse
##afer
##maakte
milieutechnologisch
##vaardigde
ruik
##abad
##elekt
##itiatieven
##lerose
discours
eu-kader
2025
desir
industrie-
##modeer
trace
cors
waterdicht
ziekte
realpolitik
##intosh
##-dec
##banaan
##max
multim
uitgevaardigde
141
1325
clar
stuks
onderzoe
zuid-italie
prestigieus
episode
kraam
vn-handvest
1981
##systemen
panayot
graham
cycl
soulier
santa
1972
papandre
papadimoulis
holm
0,1
short
genderperspectief
rains
##iliou
koran
##sprotocol
jean-p
##icki
##hyl
sigarettensmokkel
hormoonen
##belemmerde
##structeur
zoonose
##rasanta
##heilige
##atzim
revitaal
##spercentage
thomsen
##latijns-
euforie
samenwerkings-
obscurant
##vandaan
innovatie-unie
##oefficieent
vassiliou
bodyscan
kaapverdie
nagoya
algarve
grand
king
kard
lj
moor
mank
mvo
myster
nar
quist
tay
yor
##gh
##gaam
##ts-
##ois
##pandemisch
##kinderen
##-d
##cap
##fig
##enc
inventie
##roet
aangaande
dief
omar
moh
##urie
##egel
##rute
##ienne
pareer
will
##ogelijk
ontredder
region
terstond
##ake
europa-
herin
##itude
##ransport
funk
milieupresteer
commando
##minimum
afgeslacht
armoed
voedings-
##rinidis
compact
##gezinde
##sterrorisme
midden-oost
bioscoop
witrussisch
124
verslag-wat
sekt
##/95
##lotti
hahn
##dwang
indisch
171
16.00
##zeli
.....
melilla
ult
##behoe
##functionaal
##zaiek
296
stimulus
##gehakt
fiori
##-programma's
barones
genderaspect
150.000
kanaaltunnel
vredelievende
bolkestein-richtlijn
dunn
##filter
andre-le
greenpeace
analogisch
antisemitisch
immigratie
committee
##wolk
foetus
paternalistisch
milinkevitsj
opwindend
transversaal
koerdistan
abeba
establishment
riis-jørgensen
valery
spongiform
papandreou
##atzimark
mysterieus
quisthoud
andre-leonard
(de
-d
cusi
drijvend
hend
ib
muteer
prum
soel
wk
wgo
##sier
##smodus
##locatie
##kok
##-werk
##2-
##/5
##/37
##cup
##iea
##stent
beul
opec
aanspoort
staaf
##schemer
europass
##aange
gebod
zestigste
tegenwerken
martini
##overname
helmer
milieufactor
bernd
klim
191
##ipel
chil
##ubljana
traumaa
leverantie
##commodeer
koptisch
junker
##snoeren
##iversiteit
189
gods
trotseer
##motief
60.000
##diesel
bilbao
accrediteer
avile
sarlis
b5-02
recyclage
insinueer
##uzzi
##officier
schmidbauer
woedend
pastrana
investituur
nihil
bondsrepubliek
hogerhuis
ewdd
al-qaeda
cinem
mouskouri
rueda
its-fractie
##-petersburg
oecumene
##ruteau
##atzimarkakis
ain
dron
ear
gym
kruit
wig
##iber
##n1
##pleg
##lif
##look
##01
##cenario
##huwelijk
##itteer
alg
##verhoopt
##andrak
##ota
uitspreek
belet
doorgehakt
gros
##genomen
interg
pery
##weil
genoom
genetica
##hedraal
milieudump
##abde
champagne
gewet
antar
eu-samen
vredes-
vijfen
##-free
gedet
symmetrisch
##dompel
##ressor
muntunie
loonverschil
##sleur
beeter
energieefficieent
##zajer
people
democrat
hory
paolo
newton
##smoor
##complex
vernietigend
volkswagen
carol
argentijns
tunesiers
libicki
##ceremonie
filipijnen
edd-fractie
##blemen
sint-petersburg
b7-
oswal
major
ondernemings
barbara
abrupt
tweesporen
herczog
yasser
controlerecht
##boezem
exploitatie
marginalisatie
wojciech
panayotopoulos
ljubljana
##andrakis
aber
cetera
dod
factie
fitz
full
i-
ioo
kruik
naakt
oda
pun
paleis
wrang
##sem
##nement
##ever
##dn
degradeer
enter
##entin
stief
mozaiek
overdag
##sliberaal
##amil
afstaa
terron
##ical
gay
##dation
##riem
##itute
##kert
boett
##heinz
##drukken
##oster
transeurop
eu-stand
afgewend
ordehandhaaf
unice
franca
##ureaus
##merek
##stereot
wetenschap
2000/01
karl-
it-
17.
186
166
##-tribunaal
##orezen
navo-top
carlotti
salom
vn-mandaat
koolen
##genoemden
mcintosh
##ysse
##schepen
##kentenis
provinciea
retour
capoulas
casino
overbrugd
agromonetair
##televisie
##fabrik
guyana
summ
bullmann
tokio
clercq
socio-economisch
soelaas
boetticher
karl-heinz
-beleid
gf
ki
kret
kivu
mats
pene
sw
sher
sender
trim
##tomstandig
##lava
##ville
##brit
desp
##inden
envelop
gec
temelin
onesta
##schol
##schreeuw
##erken
##emann
##teur
##aso
ontzet
##akas
scheele
##beperk
ammon
##belast
perea
meewegen
wereldvoedsel
menu
makel
open-
##osti
chic
kenmerek
agressor
institute
apprecieer
risicodraag
##tobijdrage
barack
noordelijke
china's
153
drugs-
jaroka
forens
##ilanden
theologisch
mali
cannes
dys
groeim
bedar
##-2007
##/199
##woond
0,6
fysisch
##/22
##ratislava
##-11
##troepen
1960
joods
daklozen
eurodac-systeem
tentoonspreid
senegalees
maghre
clean
ontsteld
##nomaterie
multipolair
stikstofoxiden
ppm
##zanti
##bisschop
heuvel
telegram
kinshasa
gretig
attwooll
innoverend
marseille
##figuur
oswaldo
gfcm
aden
ddr
dci
ea
gunt
gvdb
ji
jen
keel
kier
lond
lau
lello
o-0
prang
weide
you
##tover
##tingen
##dosis
##-ma
##-rapport
##hem
##yne
##enverhouding
##staar
##row
##roper
##onas
##onse
ongel
mouss
overzee
analist
volunt
##akkoorden
schoor
##onda
##procent
laats
bloom
black
league
sluis
elis
ory
bob
##troffen
##zegow
##udget
##aco
20ste
hoofdstad
united
biregioo
kennis-
toeris
##haug
verslag-mor
##odus
argwaan
##discriminatoir
rating
bananen
koopvaard
moedersterf
90/220
##gerechtshof
volwassenee
verrass
hyland
fantuzzi
jacob
##benaam
offerte
roteer
casu
mercosur-land
ijzer-
roma-minder
##iroet
eqf
homofoob
investerings
pietrasanta
##-netwerk
kwestie-irak
##hitte
patriarchaat
##koloniea
##fundamentalisme
bottom-up
##circuit
##-decreet
rainsy
spongiforme
##ysseus
gunther
##roperator
##zegowina
aspir
cip
dwer
ek
eba
gur
goede
hassi
list
myst
neu
##nib
##tint
##loo
##keel
##cp
##haf
##wicz
##cho
##roo
alp
##uweel
belgen
##ogn
##oulement
##iteits-
terti
hierachter
##prostitueer
herberg
##plak
bladel
interne-
##portaal
vastlegging
werelddag
##hekel
##heuer
langetermijn
##diven
sleut
commandeer
energiegewassen
terugschroeven
legio
behept
##venden
jezelf
##-frank
olli
ingebed
midden-amerikaans
155
15.000
verslag-lam
behoudens
getto
laschet
##bahn
geneeskundig
ratio
185
zuid-amerikaans
patrick
##loonen
##accrediteer
314
opgebouwde
kaliber
bestuurs
garde
##ambass
leegloop
c4-05
marty
2,6
cabot
##rigade
1958
europeaaniseer
erasmus-programma
allister
getalenteer
##wandees
consumenten-
verdachten
mensenrecht
cameron
nicolas
##kruid
stoa
##chemisch
onrustbar
resistent
prejudicieel
##maximum
matsakis
despoot
tertiair
b.
beng
buil
gm
hooi
mum
ps
pay
ure
viz
wik
##gart
##odom
##kerk
##-al
##bont
##zan
##zing
##roux
gepl
bespraken
oponthoud
##lec
##reiea
al-b
alyss
##zes
##slot
reh
doors
##oupe
spoel
##imon
##geremd
arche
##regels
mad
##gemeende
##nieuws
count
##onto
##qua
##quet
##hoff
##ypen
imiteer
1244
##holder
##baron
forces
naald
##en-k
georgiers
##annak
holodom
##-2008
kous
attractie
##-pat
geestelijken
quotaver
##ciano
silic
600.000
coordin
glb-
##palees
rosado
toezichthoudende
altiero
dayton-akkoord
##sius
sympathiseer
ccs
ipp
##uttgart
##kalf
bretton
odysseus
geelimineer
ettl
##bagatel
eufemistisch
aangeland
bhutto
seeber
krijgsgevangene
parasiet
pandeme
##juicht
hadep
martinique
cinemat
##haftig
alyssandrakis
holodomor
3.000
4.
bam
base
bratislava
ci
emma
ghan
soen
##smede
##vou
##-crisis
##ball
##jetsj
##stom
##stag
##char
##ingredient
##ism
verweer
bediend
beiroet
opzien
opspor
one
heath
pro-
toejuicht
##asing
regressie
sper
schouw
##irk
amina
laatstleden
vasthoud
klooster
persson
chatzimarkakis
##adres
aangeklaag
beslan
##quer
akin
money
##-fun
risicogebied
bankroet
10.
157
verslag-her
janeiro
biodiesel
##/94
have
jospin
visumfac
niet-her
##expert
##genoemde
bildt
gesticht
##stimplanteer
##-cassi
##definitie
##woestijn
c5-01
##-pact
aqueer
bezoedel
separ
silv
musotto
fascist
surf
absorbeer
jensen
gentle
nijpend
guido
##decideer
niet-eu-land
triviaal
lusaka
foundation
puerta
##ovani
taylor
wereldvoedselprogramma
groeimogelijk
atal
b-
cost
calais
fond
h1
huil
kiel
mi
pome
rid
run
rice
zor
##ione
##satelliet
##nissen
##-militair
##enberger
##ethanol
##chroon
indacht
enen
een-
##vertoon
##arriveer
##agisch
##aganda
waarachter
##ienemann
parlementarisme
regie
schaffner
welgemeende
zedee
naieve
##ktail
##usse
##pluk
##epter
##eppel
##ifel
org
##aba
pascal
##acteur
eu-grens
privat
valut
##marie
##lilea
unif
##sneuvel
##jaars
palermo
influ
##haene
bouwman
voortduren
transitie
hare
2001/02
guadel
noord-k
energied
##oreanen
wto-
##communistische
##olly
##demose
##/08
##zwakte
killilea
trant
1,1
sofia
c5-03
rabat
disp
semi
sap+
##erence
icty
rangoon
uitgav
adamou
lawine
touroperator
empir
hannan
understand
incasseer
kacz
lambrinidis
mrl
agency
jakarta
patrouille
onafhankelijke
##filosofisch
clarke
ainardi
wojciechowski
peneda
verrassend
indachtig
guadeloupe
cfk's
eh
goer
honden
ms
ny
pacht
qim
tft
vic
women
work
##grif
##tar
##tap
##obs
##dij
##-zaak
##06
##houder
##boren
##brov
deuk
##itor
gepar
bevrede
tempel
##algemeen
one-
##verzekerd
wem
reinig
##ruzie
##ieri
##spion
##ution
meijer
regul
schar
##bloei
##irt
##irma
##delg
##valst
minist
beticht
stemronde
##batenverhouding
wereldom
##ration
##oflook
##iele
enkell
vrouwen-
gerard
##vendi
groeibe
##quentie
defect
##hoden
##ernood
sereen
##actiek
lichtenberger
palm
spanjaard
verslag-haug
##mai
quasi
aardbei
laros
novel
guardi
##examen
venijn
knip
petro
elfder
verrad
natur
locale
raj
wiskunde
b5-04
baske
capituleer
##profess
roma-kinderen
caspary
##sjoemel
ramallah
##optimum
dochterricht
schermen
torpedeer
hugo
##geregeld
toezicht-
lindh
##diplomatisch
rabies
##kaukasus
##recyc
strauss
##kruip
multiple
eu-vs
##kwesties
##lastingplichtige
cooperatief
pollack
jbz
grybauskaite
##diviel
carmen
elektronische-communiceer
nuclear
kardinaal
##behoevenden
eaem
koopvaardij
dwerg
vastleggings-
rehder
##-cassiotou
influen
larosiere
-cons
asp
brouw
cogn
dtp
fit
havel
hague
ivan
lelijk
scepticisme
tbil
woel
##eor
##doop
##vracht
##300
##erts
deins
##atol
##rooi
##rowo
voorschijn
vergrijp
##lep
stan
##schraag
##uso
##genuanceer
##gelijks
##esamen
##besch
##plus
magne
boet
##betwist
milieudelict
##lence
19e
##doctrine
valverde
partnerschaps
groeianalyse
overheids-
##manager
##ureel
tractor
duits-
##raelier
158
##meter
newens
kosova
drugs
passer
13.00
2001/01
2001/20
scepter
##iterran
schijnzelf
latent
octrooistel
energieefficiency
huhne
pannel
##glas
victor
vivendi
keynes
raamovereen
1,9
##-2004
opperst
##t-rowo
sain
codex
schroot
eindigde
batzeli
bosnie-herzegowina
kapittel
lula
##bedrijven
robles
trilateraal
pelagisch
excellence
ontwrichten
taxfree
oligarchisch
sabena
degressief
gestroomlijnde
ontsteltenis
routin
straw
grech
##familie
veronique
ispa
kredietverstrekking
lesbienne
##bacle
adriatische
##raaden
laurent
##praktisch
gelijkberechtig
cycloon
quisthoudt-rowo
intergouver
doorsnee
cinematograaf
qimonda
wemheuer
magneet
quisthoudt-rowohl
320
7,5
boud
boog
eid
fay
fakkel
fruteau
gol
gus
kuc
lienemann
muss
mankeer
szajer
tip
wip
##gal
##tuit
##pau
##lachtig
##vai
##hyp
##haria
##broom
##bhai
##mineer
##zik
##yad
##ereiste
##initiatieven
##stak
##italisme
##ingniveau
inname
enpi
verbloem
beau
##regen
st.
stuttgart
##olet
##illen
##otisme
paramil
##inda
ontstent
ternauw
nare
##mea
##trojka
##betal
mail
author
##ssr
consumpt
##dova
adopteer
partnerschap
fret
kernon
##loaad
duale
monetaristisch
balz
bioter
vreem
##namisch
##reglement
1441
134
132
##vervoers
flat
identificatie
waarneemer
esc
escb
abon
budgeting
##syndroom
domin
##motie
testc
smaad
##consult
koeien
commenteer
milieug
knoflook
landbouwcommissie
##-2005
sneuvel
##splan
360
archa
genderstereot
##specialist
worst
signaleer
##westers
handelswijze
250.000
##gesteld
rake
seguro
tarifaire
harmonischie
fortuin
cocaine
moduleer
antiterror
##hakt
jonas
touringcarpassagier
##diteur
faveur
##-europeanen
fluor
multimedium
##prikkel
albino
undp
bescherming
##liefde
##hongaars
duty-free
abdullah
vieira
##ything
detergens
fitzsim
gurmai
##annakou
understanding
tftp
##divielso
ontstentenis
ternauwernood
(it
(pl
b50
ciol
ey
evalu
fest
hill
hacc
mif
nipper
sang
serg
smoes
##sneeuw
##giol
##phy
##lieer
##kens
##cen
##hre
##hals
##bureaus
##jur
##fen
##ferm
##mne
##zame
##zburg
##inas
inconsist
##idi
verzak
bekentenis
##ales
##gevoelen
stud
##elijkheid
##eger
overspel
belenguer
pardon
##emek
##akkeloos
##gado
plo
##osector
##iedrempel
##ransparant
milieuaangelegen
klakkeloos
mombaur
persisteer
intif
geremek
##kshire
transplant
vertrouwens
bank-
conflicteer
##iviliseer
##ibiliteit
ontwerp-
balanceer
sectie
fraisse
delegatie
laeken
lawal
2006/1
2005/2
sclerose
##-taken
##ruchtig
##exper
##en-akkoord
non-t
georgieva
##syrisch
##medisch
implementeer
power
##justitie
vissoort
cedefop
averroes
ontslaa
modder
##/85
boeiend
tweeslachtig
aromaa
nistel
thermisch
##wiebel
##cirkel
barbarij
##strooi
schaldemose
ambiguiteit
##terrorist
sensib
##toxisch
##gerijmd
loyola
##heikh
doha-ontwikkel
william
groente-
##piraat
corsica
kreta
cabotage
vizier
empirisch
pannella
testcase
fitzsimons
ciolos
##giolini
cord
io
juan
rov
roet
rica
xvi
##gins
##tog
##leeg
##kaap
##dru
##cadeau
##zk
##yr
##yar
##erance
##anol
##straat
gewezen
gehakt
##isation
voorstel
##oner
##verplicht
promoot
##ience
##usz
##ieraad
##asist
##ocratisch
##icent
##contin
##achtain
ten-project
##deelden
##ffect
##waare
tussenstap
magn
standaar
##vangira
##ecki
##jean
##amed
pasgeboren
##centra
206
##ovce
gedog
##sterckx
ecdc
leef-
duizel
##iben
2000-netwerk
biot
elect
hariri
##rakes
verslag-eur
verslag-ma
tsvangira
neachtain
25.000
2002/00
##baid
scot
##midis
179
post-
primitief
luidruchtig
idealiter
##symbool
##accumuleer
sterfte
borstimplanteer
hymne
poign
##radio
2,2
kinderarmoede
fanaticus
glb-her
ariel
robin
vocht
##dunk
goeden
##paneel
jean-marie
royal
berisp
mantovani
uitgaafen
murphy
bruno
antipersoneelsmijn
peseta
bejaardee
hipc-
oxfam
krankzin
trombine
##flexibel
bevolkte
volksgezondheid
##verantwoordelijken
gerenommeerde
##lifereer
panayotopoulos-cassiotou
geciviliseer
##nomateriea
##rooij
##-frankrijk
ghana
##voudig
visumfaci
tbilisi
##pauper
(pt
-initiatief
050
1.000
550
ginds
hush
kers
nationaal
sind
sfor
ussr
zilver
##iago
##serv
##tte
##uu
##-w
##-engeland
##cus
##bik
##mem
##orf
##cha
##oorsprong
beaam
aanst
hepat
alge
weifel
##slav
##eematig
##apas
anker
##ocus
##termin
schuw
schurk
##gelijkheid
##context
heropbouw
samenloop
steiger
##woordieg
##afoor
##key
middeleeuw
##veertig
prese
consid
bijzonders
chod
##aveid
eu-china
liv
##ansa
think
contant
ambulant
accommodeer
zweer
nuttig
portie
multid
##odusa
2001/1
christus
vanzelfsprekend
ethanol
##monoxide
della
peul
##knibbel
varkens
vonnissen
santiago
##kaje
##smix
information
ecowas
sahel
low
aircon
margaret
##ridge
2,8
cabine
tripoli
biskaje
marinescu
transitover
##offensief
verslag-fer
menigte
##ability
kruip
borduur
laatstgenoemden
streven
pels
antonione
##si-pat
ultraliberalisme
tappin
##agnini
aalmoes
##kaukase
bretagne
downlo
wuori
rendabiliteit
##begunstig
##fraudeer
marshallplan
encefalo
##fabrikaat
london
schoorvoet
geplaveid
opsporings-
atalanta
sainjon
archaisch
sergio
intifada
nistelrooij
##asistunnel
poignant
hepatitis
middeleeuwen
##si-pataky
-in
ader
cec
dich
erop
fnuik
iss
nor
nijver
ray
wye
##iff
##smeer
##tas
##uure
##dote
##vor
##-afgevaardigden
##boei
##zaag
##enitz
##anana
dehaene
##ety
##elles
##chert
##itin
enron
##onia
bes
##alcohol
##verslind
##gegevens
omstreeks
##ilt
##ilatie
eurogroep
convent
reil
##spendeer
anek
##bec
##bepal
gael
##oers
##organen
##baard
blog
blunder
nostal
marrakes
##ermann
##staff
##sedeer
diana
vertegen
chal
eu-partner
eu-regeer
hulpbehoevenden
##rompel
valdivielso
##riminatie
##lusief
gedicht
apathisch
tram
klimaattop
centralisme
##maki
talm
##veiligheid
with
##refoulement
verslag-bar
verslag-sterckx
##methoden
comiteprocedure
quas
dichtbij
jawel
ouatt
18.
zweed
16.
##politano
wto-ronde
simitis
226
##suiker
2020-doel
##athie
buitenspel
knik
##shar
##-10
##krabbel
burk
azerbaid
risicop
nepotisme
donaustrategisch
maleis
hotline
##iforum
##transfusie
goederen
zapata
euroscepticisme
##-1998
majest
al-qa
mosiek
##extremist
rooms
verslag-costa
vermoeidheid
poggiolini
mediapl
##darelli
yorkshire
archeologisch
h1n1
##eppelhoff
unifil
paramilitair
genderstereotypen
##zkurt
tsvangirai
ouattara
'70
bm
bst
braaf
duig
fine
frap
fall
fassa
gist
keppelhoff
need
poul
ria
wentel
##ax
##ares
##goer
##equ
##run
##puy
##600
##fos
##zus
##zav
debacle
initi
aanboren
##verdeel
##deal
##arme
##ilov
meteor
overhoop
connectie
##issa
reimer
onderget
mijner
daargelaten
##emis
##asik
ontferm
unie-
spuit
spek
##improviseer
##ortines
gab
##oph
##onderdaan
tenzin
nace
##volta
elz
elitair
##graven
orwell
divergeer
##heug
hooggerechtshof
##klinisch
vloek
energieon
intiem
medebesliss
chron
lega
technolog
covoor
##ideologisch
instigeer
mons
lissabonagenda
##langen
##ageen
documentaire
barsi-pataky
felipe
##tsj
verslag-ber
glans
iii-
niet-deel
##munic
multipliceer
tsjecho-
fiscalis
carc
cariforum
salzburg
krent
octrooiaan
radiofrequent
kathedraal
andrik
##knap
kadaster
schulden
elfpo
##-2002
onrechtstreeks
olympic
frontex-
weduwe
olijfen
opeenvolgende
life-
kapitaaal
##structuren
hedge
leukemie
schilderij
gezellig
wetgeving
higgins
castillo
gegijzelden
philoxenia
tijgers
telecommunic
verslag-bog
rabin
##historisch
radiospectrumbeleid
vermits
lady
mutageen
chiapas
eufemisme
conservat
hergebruikt
rafah
radicalisme
deutsche
##ingsbevoegdheden
voorbehouden
verkiezingsronde
cavada
##begrensde
ziektegevallen
sektarisch
caroline
interne-markt
sleutelf
al-bashir
geparaaf
##iterrane
routineematig
considereer
anekdote
vertegenwoordieg
majesteit
paramilitairen
cen
cut
fur
fabel
hass
kig
kron
kp7
lima
mh
prad
shell
tart
wagon
##s.
##teen
##kins
##kula
##-aan
##-arrest
##09
##fro
##map
##erosie
verve
beiers
staar
##zegen
##rui
belope
ansjov
werkzoek
##construeer
##bezwaar
zede
##drama
ama
milieus
##beleefd
##iekant
slak
slijt
##medien
##ankaans
marion
##afschuw
gebruiker
##volgens
##ifi
tour
drieen
driede
differ
marktmisbruik
enkelvoud
##vangel
##ecure
##ineerden
geraff
eu-hulp
eu-vertegenwoordig
eu-trojka
##roma
strubbel
instin
arms
##roreg
##pijl
##logica
ontvangst
##iciat
formid
##god
##thers
159
lokaliseer
verslag-na
proficiat
##financieer
##mao
255
geevolueer
naasten
vestigde
emitteer
139
brandstof
2002-2006
radar
scene
##vuiling
meeteen
ephre
schijnheilige
islamabad
civiel-militair
##obsedeer
georgios
finale
a5-00
##releer
zimm
##azir
##athon
##iplineer
##iseren
1971
##inique
##ificatie-
hydro
centraal-afrika
97/0
agrarier
##verontreiniging
semantisch
haafen
##-soc
hecto
memoreer
1963
insul
overweldigend
##explosie
vernederingen
giannakou
implanteer
bedrieeg
asem-top
schengen-gebied
schengen-ruimte
ayuso
##discon
petersen
arbitrage
mkb-bedrijf
colombo
sinecure
stenzel
jalta
hulthen
kimber
sorry
dialect
assimilatie
blanc-tunnel
everything
allochtoon
gedetineerden
##scholver
heathrow
private
passerelle
intergouvernement
azerbaidzjan
##voltaisch
ansjovis
ephremidis
.2
dick
emm
fdp
goten
krom
kenter
oae
pon
zwerf
zanu
##ient
##sor
##non
##tind
##korn
##-doel
##-out
##-partner
##cchi
##hmer
##jus
##)voor
##=s
##etast
##chard
##rous
gemelde
vermog
##lewood
##reied
aanstip
##ariss
omlijnde
moch
##raine
##slijt
onderricht
bijwerken
##ichtfried
##space
dankert
andes
ontspan
##icult
schuit
##conjun
##opro
grootouders
##rique
levi
##portabiliteit
##ifen
##bati
##tijds
##website
evenar
genen
parthen
klank
##dihr
##oename
special
kleding
##plichtigen
##day
libe
##mod
diervriend
corps
aanwezige
baldi
##makreel
##amera
154
##metisch
##parag
romantisch
251
2008-2009
brother
troje
181
215
##instrumenten
ii-richtlijn
##undt
carrier
vergift
briefing
engelsen
##syn
kato
##jahe
##inogeen
##inflatie
##gehuwd
##melli
accumuleer
teeler
##renzen
##computer
c5-06
##aangetast
archipel
bnfl
##uytte
##verhoudingen
propagand
interim-verslag
handelsgebonden
nicot
cia-vlucht
verslag-kar
eritrese
##broeck
gorosti
kolonel
falun
faliekant
##dynamisch
softwaare
mierlo
associatie-
ontwikkelingspotentieel
##nomineer
thermo
xxiii
##-urbahn
ewing
druifen
trupel
becsey
select
standards
ongeevenaarde
##fatsoen
##itutionele
moorhouse
separatisme
dispuut
##recycleer
beaupuy
##experiment
non-tarifaire
aircondition
frappeer
pradier
##disconteer
aanstippen
##conjunctuur
##uyttebroeck
1b
evangel
gru
hink
jaat
lg
tat
##soc
##eag
##oke
##linn
##-el
##cast
##wass
##eno
demissie
enzym
##eea
bewerkstel
bekommer
temidden
##derivaat
##omschrev
albert
##aric
##ot-
metafoor
##schim
##endorp
onderaf
paraf
antro
meubel
reguleer
##terug
liden
schemer
welslagen
##voor-
##delgado
interreligieuz
##gert
##belofte
eldr
parttime
##artin
##artori
verba
kaderstrategisch
susta
common
##iscrimineer
community
pasok
hoofdaan
##armeer
##quillo
ambieer
##tigd
mondjes
##wegnet
dierbaren
barzanti
info
156
verslag-e
karkas
televis
##ziend
westendorp
2004-2006
##holen
guard
guelle
glip
##-tur
dominique
260
graenitz
estheet
##militie
dublin-systeem
##compatibel
bushme
##bryo
wallonie
##rova
gehoorzaam
korakas
c4-02
takkula
mullah
liberaliser
celsius
castel
surjan
800.000
nikitin
tirana
khat
toxine
copy
modal
lenin
##zolini
ontstellend
rumoer
vermisten
bondsstaat
##kolonialisme
petersberg-taken
hans-gert
raffinaderij
tumult
euronews
provisoir
werelderf
##commentarieer
jean-pierre
##ts-uyttebroeck
mohamed
hendrick
summier
ministers
hushk
downloaden
schoorvoetend
nostalgisch
tsjecho-slowakije
werkzoekenden
formidabel
geevolueerd
mochovce
parthenon
mondjesmaat
-de
gong
jud
kaf
kart
oh
pant
w.
##aug
##pig
##prijzen
##ubsid
##kibbel
##vacueer
##-e
##-wie
##cyp
##heed
##hiel
##yen
##wana
##anne
##etisch
##elo
##ieken
##stin
inschik
gekozen
oploop
onpas
##gevangenis
##entelijk
molec
##ilet
##otisch
##otard
##isseer
##eelt
##asf
##iret
##voornemen
arl
leichtfried
##itueel
reservoir
ork
partners
bozkurt
milieurecht
berla
##diag
##tekenen
pasqua
##avi
eu-t
eu-orgaan
eu-taal
eu-15
eu-vloot
uiterste
uitbreied
##arantaine
##romide
deser
industreia
oostblok
##moslim
centi
gedrong
##logistiek
barent
griek
oorlogs
totaalaanpak
tallinn
1200
12-mijl
hardstaff
sea
geevacueer
##zienden
quarantaine
##sko
2003/20
assess
benazir
guinees
##rosci
182
##amerikanisme
subp
malone
gedachtee
patrie
##tinari
secretarisa
pais
louise
gestoord
aviv
gastoe
0,2
##-moon
shock
##compet
##scar
##e-dien
beledigend
4000
##-griep
migranten
##erieur
hanoi
surrealistisch
2014-2020
##franco
giorg
nabucco-
##koeiencrisis
##kyoto
wolfgang
valenciano
kamall
toxic
edit
hansen
gil-delgado
piquer
interface
alfabet
gleneag
khanbhai
chirurgisch
##gemeente
neyts-uyttebroeck
kosten-batenverhouding
hooligans
sporadisch
xiaobo
ossetie
rivera
environ
mitterrand
gewettigd
ki-moon
elisabeth
vanzelfsprekends
##teenmaki
nicotine
gorostiaga
berlaym
cz
fuj
h-0
hasj
kramp
lom
ok
odihr
peper
pflu
wreek
zamb
##ianen
##ais
##pand
##perg
##lr
##08
##hone
##bber
##jc
##focus
##yrac
##anagement
##chip
##ingrijp
bedwang
##omaki
alf
##gemerk
hebron
##ordend
euror
omlijnd
moder
##otor
##universiteit
reconstructie
##stellatie
##apagnini
belangstel
##india
##ican
scheur
##importeer
hunne
##ktakel
interinst
##entie-
##belt
##vement
burgervriend
##ermis
veyrac
##ieleden
consulteer
milieucommissie
mazen
suik
##indeperg
192
slechtzienden
gerhard
##iadeli
eu-27
##resolut
##getrokken
##versatie
prijs-
##actieprogramma
##kwijn
sym
##orgaaniseer
centrumlinks
obiol
oliewin
laiss
##kosten
joh
applause
176
165
270
loon-
##burgers
malversatie
automatisme
koolmonoxide
verwoed
bravo
makreel
farmac
pettinari
##schipinitiatief
96/01
nalezen
hiv-virus
eerstgenoemde
slowaaks
hous
marokkanen
andrew
##ottisme
verfoei
92/1
##htomaki
gemeenschapsoctrooi
milieuricht
fragmentarisch
stranden
nazi-
couto
##middeelen
geiten
osama
secretariss
sauquillo
securit
bologna-proces
beklaagden
##-china
rinkel
wuerm
geallieerden
declareer
bachel
dronken
##beperkend
verslag-lamassoure
gelijkberechtiging
sindal
chodorkov
gabri
sleutelfactor
marionet
zimmermann
bewerkstellingen
bushmeat
khatami
inschikkelijk
geevacueerd
gleneagles
berlaymont
##resoluties
secretarissen-generaal
-doel
-project
-opslag
boem
editie
fuster
kruim
kristal
lijden
nerve
sein
tang
tafer
vinnen
weid
##iaan
##gor
##pet
##-re
##-leid
##bicide
##jest
##zweden
##xe
##iege
##roest
vernu
bevolkt
##alarm
##dermeier
##lem
##leun
##omie
heg
heft
##verzuim
##gebouwd
stak
stijf
eutrof
##race
uitbesteed
ondersch
waarden
##uitval
##uitbraak
parlements
##asscha
##akket
schur
place
##oerd
nafta
interest
##ussisch
##ffici
lehtomaki
##rechtee
##ificieel
##stament
veh
vecchi
pre-toe
##hezio
##lossen
20.00
projectobligeer
##mpeer
unhr
hennis
##-financier
ruslands
correleer
##toir
verheueg
extract
verslag-z
##oire
##acher
eventjes
##vrijheid
##-burger
2008-2013
assist
benel
brothers
##normen
troj
##-rusland
consequenter
postcommunistische
##-turkije
schips
loondump
malth
##kaderprogramma
225
schotten
synerg
##-2014
buitenshuis
##-cortines
avc
##transmissie
96/00
attitude
366
azzolini
##asjvili
oost-azie
basescu
quotastel
##viervoud
##-verordening
##iane
##attendeer
intensifieer
ottom
artificieel
##bakir
lacher
##collega
patriottisme
consumentenacquis
taseer
agro-industrie
achtereenvolgens
astronom
petersburg
1-gebied
grappig
plutocrat
dagestan
francois
laszlo
friedmann
obscuur
ongemakken
beklaagdee
ronsel
gadesl
##go-vrij
pm2
pm10
ambigu
ordentelijk
besmettingen
saakasjvili
detectie
verslag-lehne
palestijnse
open-coordineer
one-stop
mifid
hipc-initiatief
carcinogeen
jaatteenmaki
guellec
pfluger
obiols
kruimel
nerveus
tafereel
vernuft
##asschaert
bog
boon
binn
cn
freed
gri
grein
huls
jouw
koorts
neur
oei
pom
pra
swiebel
sartori
vos
wai
woods
##scontrole
##grend
##d.
##199
##hf
##mont
##yei
##ylet
##wska
##xas
##elyne
##inister
vand
vande
enrique
##onnen
bey
##igel
##lev
##oly
##zeeer
##illes
euronest
euro-11
overreed
zalig
##eelis
##agr
##rijt
onderaan
##ierwerk
##ularisme
affin
##ducht
##imal
garosci
##blus
##opniveau
##ondiscrimineer
##proque
##prolifereer
komkommer
herfinancier
argo
slov
sluier
##auteur
wervel
toledo
##schermen
##rational
##atias
##oftware
consider
milieutechnologe
milieuaudit
berend
vertoon
vlast
1939
terugver
gewest
gerep
##libanon
##haalslag
allerijl
##-financ
gedisc
2017
bovenst
ball
vluchteling
##therm
##metrisch
westoever
bio-
preventie-
##-basistunnel
joan
scapagnini
politica
167
dode
godzijdank
economy
salman
##communique
##belangen
##urtone
constituutionaal
macroreg
baia
##ysz
##isering
##orensen
sarc
##/1/2001
contradict
shake
hyd
gendergelijkheid
icann
interimverslag
beklemtoon
marinho
##391
memorial
##-plasschaert
uitvaardigt
malediven
citrus
credo
wieland
asem-proces
circulair
coca
##igendom
ayatol
mop's
brempt
england
abuja
grafisch
brenner-basistunnel
##ajdi
kashgar
cramer
hans-peter
kacin
viktor
lloyd's
vegeteer
##van-oorsprong
jumel
##szzee
ingeburger
jenin
##sloteen
##brovskis
gusmao
different
guardans
copyright
##-wiechert
##cyprisch
gastoevoer
johnst
unhrc
hennis-plasschaert
freedom
affiniteit
crimin
foster
ist
jet
jørgensen
kus
lob
muil
oli
pc
pendel
szy
viv
vob
xin
##sat
##tit
##oste
##pend
##lut
##lund
##-h
##-ro
##-onderneem
##/89
##cs
##jong
##jour
##jubel
##jiang
##woed
##erba
##atier
verona
alumin
##gebeur
stipuleer
stomp
##aate
##isserij
##iks
##slink
##slinger
reci
promil
groeit
anno
afgetrokken
ontwijk
##utta
##gaven
##opzet
##wijzen
##voltooid
##deelname
##board
marino
concert
nama
milieuge
verbrei
##oemd
ruanda
##abak
autosector
##minster
##wetgevende
productaan
contribueer
##hogeen
kant-en-
##merstein
##compromis
serge
corap
2019
olle
taaldiversiteit
2000/02
##inka
verslag-me
##meta
seoul
gangster
medica
2009-2010
christian
joden
bureaucratie
indiers
##drenk
doubl
##reizen
##balan
redding
uitvoeringsmaatregelen
##succes
co2-reductie
ski
sarah
##jarigen
##calculeer
c5-04
margot
1962
expressie
##theorie
borghezio
opt-outs
arif
module
schermutsel
bekken
cocktail
prince
esteban
royalt
pietlut
zovelen
##virusa
##kaukas
##bagage
##konkel
incasso
##muziek
##medicijn
espoo
##manoeuvre
stephen
gymn
fulltime
wetenschappelijk
ammoniak
based
##professioneel
##bepalingen
mosiek-urbahn
keppelhoff-wiechert
meteorologisch
monsanto
amazone
##ifenylet
##wassene
wuermeling
eutrofieer
schurken
benelux
waiver
johnston
aluminium
##ifenylether
-emissie
8,5
akel
azo
hud
mort
nak
prijk
pont
prik
raap
tin
tome
vod
##takel
##pap
##ppel
##dollar
##dogen
##voe
##-vis
##-clausule
##cz
##cks
##camera
##foto
##falen
##zky
##3/2004
##yang
##ww.
##anis
##orakis
##chlep
inaug
gemonit
##vervalst
##dement
##scholen
##egrad
overschaduw
nietwaar
##unu
##radi
##issance
kank
##slabel
restem
##steld
##aagd
belli
##iena
##zitting
##spat
##spier
##sponsor
##istool
##imori
##besluiten
##blink
##osia
##voorstel
komma
europabreed
herald
##onaal-soc
lechner
minus
beton
##selen
wets
concord
##bouwricht
menendez
funds
visby
visegrad
milieuon
verbaal
maz
1949
mededing
mededogen
geraak
woords
arbeidspotentieel
additie
##ontaine
vallei
liban
contamineer
unf
##hoven
##mert
##comsector
##2020
2000/7
harare
plattelands-
hardware
karig
empl
westminster
##abele
##abella
##actiefe
jammu
guaate
tabajdi
##-tra
##zella
##celor
50ste
theocratisch
malerba
##hinderde
federale
##portefeuille
bangkok
epp
verbaasde
islamistisch
europol-
tralie
knoei
kestel
lobbygroep
oostzeestaat
snoep
sharing
##vergadering
##scrimineel
##screen
##lameer
oost-timorese
korte
inglewood
##ciar
vaceer
verslag-fiori
##altieri
surrog
onderhandelings
##eilanden
ebro
##nemend
c6-02
##haring
pvc-
##imatum
renaissance
belarussisch
pietro
siim
unionist
boumedien
ettelijk
fosfor
gedupeerden
chiquit
##kieos
winston
marxistisch
parodi
messina
sjiitisch
##incident
lundgren
##emperd
vicep
##oletto
needle
environment
##ingrijpen
onderschept
synergy
##grendel
reciproque
medicament
doublure
##chlepp
overschaduwen
restembryo
3g
5.000
7.
ees
fuseer
gp
gis
ifor
kaal
krok
kaars
rav
sorensen
zh
zeit
##graag
##novereen
##poch
##kola
##damp
##difenylether
##-begin
##hafi
##bt
##stenig
teen
##leum
##reaat
aankaart
##verkracht
##verontreinieg
##geslacht
##ieten
##stelling
parkeer
##digitaal
gaubert
welsh
grootbrit
##deloos
##voldaan
rechtskader
##baarder
##ife
colin
ordon
regelgev
##semissie
diff
marktgericht
visioen
##lenbach
##ipieer
##acee
autover
##endement
##vloe
persoonen
cohe
##ateriaal
groeibeleid
##ongyang
plann
uns
andersden
ac-groep
##overeenkomsten
##vaartageer
2000/0
midden-azie
talen
##rakakis
##methaan
##para
2500
##anigram
##wekkende
getemperd
item
##kopieer
koerdisch
abonnee
abyei
jeugd-
##bestanden
islamist
transporteer
macriesegio
##sy-procedure
panacee
verwonder
alcoholisme
distorsie
litouw
sociologisch
soares
trentin
kallenbach
wohl
poetter
newman
echec
##-2003
psycho
##ambitie
97/01
slim-initiatief
##sproject
dg's
##trauma
botswana
##introductie
respondeer
versa
confedereer
##cott
gordel
##lines
cey
beschadigde
pyongyang
francis
vulkaanas
happart
heroisch
bunker
jaloers
multimedia
gutierrez-cortines
achilles
expediteur
schiedermeier
indringende
nafo-
ultimatum
##dnjest
forensisch
mousseer
gentlemen
organigram
goerens
kuckel
haccp
doha-ontwikkelingsronde
cecilia
quasi-
burkina
maleisisch
elzas
verbazend
##francois
fujimori
house-
beysen
##agrarisch
vlasto
ayatollah
corapporteer
##kaukasie
libanezen
surrogaat
grootbrittannie
##dnjestrie
(en
.1
aubert
bp
brigade
chef
geem
grim
hobby
ioc
jack
kidnap
lis
lut
lust
nest
noest
oj
osman
pic
t-
tava
wenk
##sforum
##aid
##equit
##r-
##kook
##doceer
##vocaat
##-politiek
##-orthodox
##czak
##hib
##zaire
##wiek
##erer
##anctie
##chell
insp
inlossen
##roy
voorfinancier
aldo
##arde
##schl
constellatie
proe
##ogene
##tec
##istentie
##ocratie
##esisteer
##imaal
##geleid
##voorzichtig
rechtens
nokia
##beroerd
proclameer
tous
exotisch
bestaans
milieuop
klets
##klamp
suprem
vlijt
##ersmissie
##rise
gere
##ssanctie
##adopteer
##dok
groeiver
successie
kanton
##europese
vn-top
inferieur
##hazi
##doms
emsa
##odil
claus
assad
defensiege
drag
explodeer
glante
177
##pleet
theonas
##polis
##poreer
##porte
vn-systeem
dynamisme
uitvoeringsbevoegdheden
exclusief
##moraal
brain
##bourne
kankergevallen
algerijnen
##ambtenaren
c5-05
iraaks
##uew
##-pf
prive-sfeer
freitas
margineeliseer
caput
diagnostisch
antibiotic
ahmed
##39/2001
##-quint
accounting
hedk
92/
censuure
##afgevaardigde
kaste
94/
militarisme
mensenrechtenbeleid
zonne-
oorsprongsbenaming
guy-quint
danielsson
callanan
caraiben
##kwestreer
interfereer
bastos
##arnecki
##speare
spektakel
execut
pesticid
premisse
mysterie
energiedi
##terminal
dichloor
zanu-pf
partnership
interinstitutionele
chodorkovski
considerans
gerepatrieer
gedisciplineer
shakespeare
hydrologisch
xinjiang
kestelijn
chiquita
krokodil
ordonneer
andersdenkenden
tavares
suprematie
!?
astr
cruis
fred
fox
fpo
gg
kwij
lect
mijd
oie
ode
saar
##abe
##gv
##ginnen
##nosc
##kraam
##-how
##03
##crip
##food
##male
##zens
##wu
##enstraf
##instellingen
vanunu
##stuw
##itoor
inwerken
gemelli
##ischt
testament
opgevoed
oprui
aanhang
althe
moster
methyl
condol
uithouding
wijle
##sluier
##stelp
onderkomen
##ruiek
##zitt
afwerken
terni
##teren
##vaaren
##stex
##engrenzen
tweejaar
##box
slavisch
##ultz
eliz
##tromp
##ativ
##beidz
##okst
eu-waarneem
20-20
##resisteer
procedureel
center
moreno
##compliceer
##compleet
financiering
compost
technische
adviser
morgenmiddag
barros
olmert
##groepen
##oneal
nea
etf
##gerichte
gloor
174
besliste
subsidiar
161
stuurcomite
##mechanismen
kust-
converg
ulster
melkquotum
aragon
folder
holding
ovatie
samenhangend
keram
suppleer
##lamanis
plus-pact
genderspecifiek
##-19
paspoortunie
##-vaccin
airlines
burund
c4-04
campania
tomczak
fontelles
##opolist
titan
calam
##biljetten
tarabella
otto
know-how
robinson
3,3
##raseer
technologieinstituut
##manski
bekokst
verslag-gar
##stoelage
zairese
outs
systemisch
##ithova
toedracht
ritme
exemplarisch
helms-burton-wet
verslag-cunha
tamils
##racisme
samenwerkings
concurrentiena
dienstbaar
zuid-oost-azie
rinpoch
petersbergtaken
##extremisme
innovatievermogen
abruz
rosewijn
##oufleer
##helms-burton
##manoeuvreer
multimodusa
##ghton
adenauer
cognitie
multidimensie
h1n1-griep
chronologisch
airconditioning
evangelie
parafraseer
hegyi
ottomaans
macroregionale
szymanski
kant-en-klaar
gemonitord
kuckelkorn
astrid
##trompet
rinpoche
?!
aap
aga
baai
dvd
herk
its
j.
koch
lander
osl
ospar
ruit
siem
too
vies
weld
zied
zuil
zamel
##sou
##self
##ness
##tri
##toename
##poot
##lag
##lage
##luc
##uuitgave
##kali
##-methode
##07
##houw
##hormoon
##bridge
##m.
demp
deby
##injectie
##stant
##strook
inquis
indrukken
##rou
voorzetting
verbouw
##omo
##omlijnde
##verbond
##deen
##dekt
stoep
staart
##olini
##olasik
overleg
kannib
parel
toesta
##spelen
##tectie
##teconomie
volwassene
sproei
spui
##dateer
##oekraine
tweedracht
##valuta
##ancy
blasf
lebe
slor
node
##welke
elchlepp
grond-
markt-
##heus
sui
##absor
medeplichtigen
##ringen
technocratie
##avary
eu-water
##perfect
agn
valoriseer
##liori
track
##adec
##stofdi
##netje
itala
baldarelli
##change
syndroom
elearning
bosn
##iegas
moegabe
##regionaal
pensioenuitkeer
pensioengerechtigden
##loth
infrastructuurbeheerders
##haafen
2002/20
lax
novum
radw
christa
clark
scrap
##vochtig
275
subversie
subrubriek
atkins
carlo
simuleer
identiteits
228
trans-atlantisch
paneuropees
##zieke
##ashvili
millenniumver
millenniumdoelen
##knip
verblijfs-
substituut
kalk
verontrustend
1,27
echerer
media-programma
##orkest
##varenden
borloo
michail
voorbijgaand
##gewiss
##-1-
geavanceer
lapland
auditor
handelsronde
shah
penetreer
mitigeer
putten
e-justitie
##rupp
##atelli
goran
grosso
##ignon
##steelt
flesch
cardsprogramma
verhuisd
oosteuropa
tobin-t
practice
albright
schaliegas
phasing
##schmidt
saakashvili
culmineer
baltica
91/440
sylla
kaklamanis
##imiteerde
blanche
chauvinisme
##aangekond
ongelimiteerde
aspirant
onrustbarende
benghazi
speroni
mrl's
petroleum
eidhr
authority
balzani
abonneer
(pt)
kleding-
##aricio
czarnecki
zambia
citrusvrucht
##journaal
vicepresideer
kwijten
lectuur
althea
mosterd
siemens
bit
brein
beeg
cp
cem
cof
crist
fier
ftt
gco
hone
ju
jubel
kraak
mumb
raa
rip
rush
taai
wikkel
##ajev
##neder
##ezee
##ral
##preek
##kristal
##dief
##vre
##-op
##-eu
##-west
##fas
##fonie
##wrak
##er-
##atiforis
##ingstel
indo
enfin
voorspel
vera
verzaak
op-
aangrijp
alma
##verloop
##demp
eura
##otel
##otent
##otte
##schut
##ctica
weis
dito
##iken
reag
ondervragen
prot
belaag
parma
##oum
##genetisch
belangen
volt
volmaakte
##icek
schut
schultz
##sted
##amendement
navar
##promitteer
hermetisch
amput
##mmend
##vale
left
##eppe
minacht
vrijwillig
##aftrek
##ifun
vastomlijnde
diyar
manzella
grondrechten
ex-collega
klemmend
pasen
##okrat
eu-bijdrage
##getu
cultuur-
uni
##ypt
comput
corrie
barak
relations
waarschuew
paliadeli
##ekende
12.000
verslag-langen
gezinstaken
##hertog
roithova
##holland
glor
272
attest
##poleer
ep-lid
vn-conventie
urbaan
242
##ervatief
leening
##fungeer
dombrovskis
##adaver
synchroon
co2-be
litteken
##knecht
##knijp
facade
##ynski
snak
##kapitalisme
96/02
sympos
##ornosa
##ventaris
##lamfal
meda-ver
labourafgevaardigden
illuster
c4-01
##traceer
capita
solidarnosc
nld
damiao
interim-
##zembow
6000
vrouwenlobby
verslag-fava
7000
verslag-kok
##bull
##brooke
93/1
##/62
mikolasik
##gedachten
peterle
##/43
programme
goma
cards
vallve
ii-regio
tobin-be
krahmer
genuanceerd
##propaganda
##yball
##bureaucraat
hannes
personen-
maoistisch
##fundamentalist
##stoets
detect
mammog
##kiadis
tbc
stavrakakis
american
hindoe
anachronistisch
verslag-morillon
partnerschapsovereenkomst
bioterrorisme
##begunstigden
##voriaans
kigali
gotenburg
orkest
akelig
unscom
##equity
antibioticaar
cruise
calamiteit
bosniers
honeyball
mumbai
-transplanteer
2.000
aer
abat
bran
coen
case
emea
gend
gier
loef
lade
nato
oto
soph
sornosa
tuts
##ibet
##sverslag
##sneutraal
##grim
##tier
##traan
##lood
##loeder
##cur
##hesie
##firma
##merg
##zur
##anas
deer
##ieaan
##inventaris
##ataal
##chanteer
end
##rose
##onisme
verd
teweer
##oezie
stink
##aringen
omhel
modo
##ilo
##unes
##issector
onderop
ondermeer
willy
allegaar
afschermen
ontgin
##kenschets
##ocles
##rivier
ars
kwaden
##zoekend
##bergen
##portug
##weder
##weken
tob
geneef
vedova
consueg
milieuactieprogramma
voortgebouwd
##diat
autor
specerij
antagon
kenschets
adap
eu-b
eu-op
eu-verband
agressief
aglietta
##ueelity
libert
sommen
thee
##asseer
compens
##to-akkoord
##schafer
balfe
bekendstaat
talg
##thia
##americht
eg-verdrag
##-debat
verslag-gra
verslag-elle
verslag-bull
niemands
1400
2004/2
christop
benita
drain
ouzky
glorie
188
stabiliteits
zweep
gespreks
niet-ver
niet-besteed
##lawaai
##penning
complot
islamiet
mello
vn-rapporteer
vn-troepen
wisselval
finish
delta
anti-europees
mcdon
##munten
80.000
geringschat
grabow
##ley-proces
ign
##uimer
garen
ferr
ferri
langzaamaan
##smal
bonafide
##architect
0,3
saifi
trio
##het-ma
##patent
myth
semi-
sap-
batten
##ancourt
##lannoye
btw-ver
460
dogmat
nicosia
##structur
castex
##hopal
8000
splinter
phare-
##verdeeld
3,4
3,6
anti-amerikanisme
equeelity
76/7
deponeer
sint-j
wet-helms-burton
milieumis
##gehoorzaam
thyss
verslag-pirk
pensio
karlsson
##millage
corporation
##saldo
interconnecties
##europeaan
papoea
ac-eu
treuzel
2000-2004
nomade
hergebruiken
##katholiek
karimov
sudre
salamanca
mensenrechten-
building
ippc-
silvio
##jahedin
laissez
gadeslaan
vandalisme
##thermisch
promille
employ
wohlf
proeve
##beidzjaans
20-20-20
weldoordacht
agnoletto
coene
consuegra
grabowska
##het-mayer
fbi
faso
glos
kater
koffer
koren
kadaver
lav
roest
sme
sbar
sulf
trem
vvb
##iy
##ginds
##grep
##ricum
##prise
##uoli
##kwel
##-uit
##-model
##cic
##cash
##caudron
##criteria
##enoverleg
##atte
##ston
##stribunaal
##itisme
endoc
geh
gevol
georden
een-china
voorjaars
verhoor
##alaki
aantocht
##verdacht
##devalueer
##gewijzigde
##eidoscoop
##arup
eurostar
overlijden
europees-
parano
##useppe
##iery
doorlichten
ontegen
##ista
terry
##conn
##beste
##beker
welstand
##data
heront
##engroei
##entieus
##iseering
stein
##handeling
perform
steunstel
minib
sluimer
##ultin
magna
werner
partie
##ofaag
##zeggelijk
exchange
milieuvoorwaarde
##klik
19.30
##aboreer
##jeda
energiehandvest
##advocaat
conference
eu-octrooi
eu-israel
##reserveer
vale
##getimmer
##marker
gedreven
klimaatovereen
top-
componist
productiepotentieel
deci
##orenz
2000/00
afrikaan
evelyne
##thard
kopen
##-des
hardvochtig
konstant
verslag-mar
##ions
mediterrane
besluitvorm
acte
que
emir
##ules
##-budget
laot
2006-2010
2003/00
science
benes
gualtieri
identificatie-
secularisme
beeldend
niet-bestaand
abusie
donana
##monitoor
salarieer
transport-
##object
finuoli
journal
##bourlange
plantation
##bevoegdheden
hammerstein
microchip
alstom
##erevolutie
holbrooke
wind-
##shirt
zwangerschaps-
##askalaki
0,8
baltische
pour
behels
wiskundig
48-ur
gehoorzamen
gebouwde
c4-06
ingoes
generis
leonard
resp.
2,9
timmer
valutareserve
dakar
winterbourne
activity
ontbundel
giuseppe
kippen
voice
fernando
##imata
keltisch
pelgrim
faculteit
##stigmatiseer
milieuminister
barthet-mayer
-procedures
erika-
polygaam
##prent
eu-vs-
safety
lehman
mkz-crisis
insecticide
dirig
##imperialist
podimata
verzekerings-
antifraude
ontheffen
obscurantisme
chicago
kaczynski
##tarwe
biotransport
mediapluralisme
##monteer
jumelage
royalty
ceyhun
gentlemen's
draghi
elizabeth
oslo-
ziedaar
amputeer
diyarbakir
mammograf
abattoir
wohlfart
sbarbati
geordende
ontegenzeggelijk
abusievelijk
-beheer
btb
citi
germa
itre
jorg
krist
kjer
ric
ruk
rach
sø
situ
solveer
taan
use
xyn
xanana
zer
##sfeld
##awi
##avale
##gp
##ty
##rwa
##lijt
##kka
##krant
##vaal
##v's
##-verband
##-troep
##-ii
##400
##800
##//
##/48
##hin
##heeft
##bromide
##fys
##mopol
##zooi
##yros
##anaki
deken
##aaid
vanhe
##atus
##stoom
##check
##ingham
incl
##verpool
##araans
##ilovo
overn
overrompel
##slid
rekwestreer
##amal
##asuna
speur
##eski
##blanden
##opruim
##proce
herbert
##deeltjes
kwad
##epage
marc
marrake
politiek-
proce
colino
partijf
functionaal
milieubeheer
milieuduur
##ecologisch
##vormde
klucht
##abber
controlet
##lere
##reservoir
##rimonium
##march
productienorm
liverpool
akp
monfil
montes
##ten-
##stofefficieentie
ongedifferentieer
grieve
old
boekhoud
signeer
##ody
passend
##-bra
clan
gesplijt
173
letten
213
zuid-a
zuid-libanon
niet-ge
dozijn
tabaks
cue
##iciteits
krarup
##jetie
tamino
durum
durft
##nuppel
##accavale
venster
kadhafi
stichting
##ckheer
96-0
shift
brokkel
98/00
##edn
invallen
airport
##-serv
##-sheikh
roerig
bezweken
damocles
2,1
ahl
##arabisch
monitooring
ijzeren
##iani
penibel
roma-vrouwen
chocola
charme
jemenitisch
b5-
caldeira
##eezza
upr
werkgelegenheids
screening
restaurant
jonckheer
##inosa
mantra
vluchtelingenfonds
check-up
##opgehelder
##solidair
schelvis
##activiteiten
ronk
##beslagname
weiwei
dialog
gotthard
reportage
roberto
galileo-systeem
eurofiel
##nasar
szc
moreau
##latijns-amerikaanse
salomonse
trimble
enveloppe
maghreblanden
voluntaristisch
naturaliseer
influenza
sangatte
marrakesh
##sharry
##ubsidie
migrantenstromen
weiden
sarcofaag
concordeer
condoleezza
burundees
bekokstoof
scrapie
##lamfalus
antibioticaaresisteer
##architectuur
endocr
xynthia
vanhecke
marrakech
monfils
salomonseilanden
420
820
9.05
aas
adel
bale
cb
cris
ciller
dum
daskalaki
hort
jansa
kris
kritiseer
matias
ohr
ojeda
pso
pistool
ry
sat
taart
vote
wrok
xi
ye
##sv
##samendeer
##setiket
##savary
##grie
##teeks
##oba
##lou
##ukt
##dorp
##-bl
##-onderzoek
##cek
##brol
##jen
##jerevolutie
##fasc
##zilt
##enier
##enschl
de-fractie
dewelke
geste
eend
opponeer
opvarenden
##algemeend
ond
##legronde
##omst
##vermoeid
strop
##olidair
europee
niet-land
niet-democraat
##raff
##uwu
##uwen
kanon
##sler
##agi
##spek
afvang
ontbijt
##kenstein
werknem
gebukt
regist
##ocent
##venwicht
##bedeelden
##gelov
groote
tegenin
##mmel
##innend
lefrancois
politiemissie
betancourt
slank
marks
marathon
toilet
colum
##seign
hijs
precommercie
rapex
misn
exodus
existentie
visite
##ipolair
##ssysteem
discriminatie
##oka
eu-handel
eu-produceer
eu-richtlijn
value
kortetermijn
vijftien
solo
industrieie
monseign
aparicio
##assam
##logo
##loze
amerikaan
isaak
extensie
balie
ballast
##einden
##haron
verslag-ga
##positief
vakbonds
neona
kandidaat-
pensioen-
hazel
1999/0
##agnede
##kwalitatief
protein
##zoals
russischt
visumvrij
incor
##rero
energier
niet-economisch
##meeter
anglo
##kleurd
canade
reis-
vn-secretaris
tolerance
dominee
mcavan
##cheva
##distantieer
milieust
joegoslavie-tribunaal
##ship
contraceptie
##tius
##radicaal
##parlementaire
raul
riga
b5-01
b5-06
##fly
koraal
darfour
##malteeks
faer
1961
delek
damanaki
btw-vrij
nitrof
verslag-mc
verslag-mcc
roca
castricum
##/68
evdb-missie
1.500
bevissing
pacificeer
pioniers
brennerpas
##raketten
boliviaans
oranjerevolutie
rumsfeld
granaat
sinnott
krabbel
xxiv
maagd
maoist
democratieclausule
feministisch
##moment
mirakel
##clameer
ryanair
toetredings
early
algiers
stiefmoeder
ebadi
silicone
bmw
geraffineer
emmer
toxicolog
neurenberg
vluchtelingen-
hudghton
ravage
inspire
##porteurs
energiedialoog
##ativisme
##lothringen
##ifunakis
##okratia
ingoesjetie
kwadreer
##enschlager
monseigneur
cun
cock
caccavale
estem
feil
goul
gierig
has
haaien
live
laai
lindeperg
o.
oil
ril
sje
shan
sessie
sasi
sifunakis
vaal
##irova
##smatig
##governance
##nice
##tz
##twe
##tabak
##rijn
##ower
##offeer
##padvies
##list
##lers
##lov
##koek
##dijk
##dou
##-sector
##cf
##cw
##mail
##zia
##wra
##ertie
##roi
##oma
ala
##versch
##verzoen
##verdiend
##zeven
##ilieer
##urity
##schui
zaleski
##slaap
##slorp
##agraaf
##ierens
grotius
##schapovereen
##iteiten
gebaand
meciar
terzelfdertijd
##treuzel
##icker
plaus
zeur
##kton
herstructur
amendement
##inne
lech
##epartij
now
##afvang
haarzelf
denke
orlov
eerder
##heff
buitengrenzen
maroni
##klauw
staatkundig
1905
leiding
natuur-
##account
antic
##ads
transs
statement
eu-staat
eu-com
eu-oekraine
207
coat
##na-
##ontsteek
kindv
kostene
jezus
soltwe
frisch
monica
monaco
ideeel
##meren
serf
risico-
verzwaar
verzucht
dub
oorlogstribunaal
spoor-
reglementer
##thiery
inflatoir
##cours
11de
bossi
##paragraaf
##ionalisme
kosmopol
janusz
2004/38
eez
2003/2
guine
mandar
bindend
zuid-ti
niet-gebonden
automarkt
economic
##reiro
##ellini
##oslo
22.
schoonmaak
##sub
##ahn
##behoren
##rela
journaalistiek
##illip
katten-
##somvang
verward
##upereer
70.000
bott
muzie
##touwer
eib-
##transparant
ovse-
##-mont
shet
##vergaderingen
chastel
b5-03
prive-gebruik
wonderbaar
hobbel
migratie-
recid
verslag-fl
wagenwijd
hedh
verhuist
calab
b6-00
overheidsingrijpen
##adzki
actuaris
singapore-
rosati
solvit-
curieus
expansionist
##notuleer
commissieleden
kokkola
dutroux
##canada
polo-programma
##zny
vondst
a-30
eerste-
nominatie
##singel
##ageletterd
ghs
##residugehalte
##aticasysteem
milieuwet
neurologisch
mussolini
inconsistent
technology
instinct
gekozenen
securitisatie
zeitung
diffuus
herkomst
slorc
##absorbeer
##equityfonds
christopher
##gelovige
hazelnoot
faeroer
estemirova
plausibel
-handel
-hef
330
broom
b3-
bhopal
if
lent
lng
ll.
mm
own
rb
rvo
sach
satell
##aids
##eisten
##tendens
##rund
##owitz
##kou
##kraak
##das
##vooi
##-regio
##-rechts
##-schafer
##-lothringen
##1/2004
##jongen
##winn
##wuif
##.2
detro
##athan
inlicht
##rogramma
voortekenen
##aldi
onverminder
hede
stu
##arra
##otis
##otov
erm
eric
##endra
onderscheppen
proto
belo
##spresideer
parlementslid
##venche
sperma
##territorium
##icante
##bez
raadpleg
##bluf
##opel
##weed
##voorbereid
##deling
interb
interparlementaire
herbergen
##rix
##ances
##ffia
lex
##meisje
##selver
beginnend
maguwu
##bijslag
##atioo
##ritz
milieuovereen
verbitter
kliek
ruffer
1940
1947
zekerstellen
cham
##ssa
basis-
##acter
##vlies
eu-canada
dagmar
initiatiefverslag
##ontzien
##quote
structuurfonds
##ovs
monarchie
##comit
##adei
2016
##iviteit
noordwest
laagst
##gow
##atoreffect
losstaan
##-de-
verslag-kl
verslag-har
verslag-bourlange
minimumacc
minimumcriterium
neaf
halte
transkaukasie
##-bureau
rijke
2001/0
##monster
islamisme
##tinen
octrooiverdrag
reclameverbod
##lecteer
trans-dnjestrie
slager
litanie
zimbabw
##-2015
rechtsgrondslag
35.000
emu-
sour
estonia
dawit
inspectie-
1,24
cambo
veertigste
informatiesysteem
##ursor
rivellini
fysiologisch
natalia
##aangifte
##e-thiery
338
340
korrel
burke
##pathe
##dorst
##danoka
##/70
jerzy
getalm
johnson
bourge
sekte
##broek
3,7
castagnede
asturie
habsburg-lothringen
niet-ingezetenen
##-1996
##torpedeer
c7-00
##grenzen
murcia
granada
collaboreer
crs
helmuth
opgeloste
ondoeltreffende
##terroriseer
glenys
mastorakis
sjiiet
niet-burger
marianne
monitoring-
aids-epidemisch
##zlik
##-delor
##soctrooibe
foutenpercentage
rapportagever
transeuropese
soenniet
##betalingen
evaluatie-
##druip
##service
##zaville
conservatisme
barentszzee
ojala
genderspecifieke
titanic
concurrentienadelen
##selfaciliteit
lebedev
unilever
##ultinational
valean
overnamericht
ahlqvist
##accountant
soltwedel
detroit
hedegaard
-een
-top
.4
539/2001
acces
arus
brom
baden
bhat
burtone
cda
eif
from
fuel
fides
golan
hau
iasc
ipa
jir
mord
mdc
nt
og
obl
ping
pail
pfos
qassam
riet
raz
rhone
sit
sov
sgp
vijzel
zeel
##sar
##sessie
##gieraad
##toef
##poor
##poos
##ures
##dim
##-actie
##ceel
##hok
##jic
##fet
##maas
##maai
##wring
##woeker
##enloos
degenereer
##instructie
##atrice
##ingspro
inzie
##roc
gekun
gevormde
onno
onben
##ream
alicante
mou
##ietaken
connot
##heiden
##atieinstituut
provisie
toegang
doorzien
##speen
##spa-
##spora
##anticipeer
spd
scherts
##duction
plumb
amis
##entiepact
staden
##legt
blink
sluik
##vanie
middelen
##rekruut
regelgevende
##hein
besten
bertel
##etsjer
##diagn
##ersen
##richtsnoeren
antillen
##autaire
gezondheid
light
##slanden
vergadering
behendig
eu-lijst
eu-india
coulant
partijgrens
##aasd
cultuurstad
##stukken
unrwa
ambival
##assin
##ated
##vaarts
##gezag
productiewijze
##pelleer
adviescomite
ongecoordineer
##arius
taalminder
witte
flexic
ems
roze
getint
2001/
clin
assertie
bennasar
fluit
##dren
214
niet-moslim
carra
##communisme
grundt
##rampton
223
merc
kath
##vlakte
homepage
##ertific
venet
bruton
macedon
reizende
grabbel
routekaart
accra
knijp
doharonde
##jargon
##onso
gastronom
bliksem
helsing
98/02
zelaya
##roerd
glasgow
disfunctie
##-sierens
fajon
martti
evp-
antibiotica
seveso-
120.000
checks
koukiadis
veiling
artemis
pvv
wolfowitz
gorbat
parkinson
883/2004
cope
peruaans
toezichthoudend
altru
##ningham
##aandacht
transnationaal
francisco
antidumping
beleidsuit
##simpel
gevreesde
empower
##ylvanie
ierse
grandes
ettelijke
##ourcing
stikstofoxide
feio
##flexibiliteit
subsi
##/468
prijst
energiesolidair
anachronisme
makelij
##ambassadee
cordoba
##memoreer
##equivalent
giorgio
boumediene-thiery
##dokter
symposium
geneefs
gevolmachtig
top-down
controletaken
dialogue
szcze
balearen
ohrid
cunningham
shetland
wonderbaarlijk
zimbabwanen
bhatti
connotatie
':
-0
-campagne
-munten
.6
.9
ao
apert
bac
esten
ehler
ggo-
ht
hm
ie
igad
kiss
kib
kras
mp
manka
nis
piep
skies
sho
tu
trit
tactiek
ug
wang
zat
zweet
##iana
##ngo
##ningen
##tot
##tribun
##py
##pack
##kker
##kabel
##-i
##-onder
##-he
##-campagne
##hits
##hieerarchisch
##flet
##mur
##xy
##xeer
##ijde
##attest
##itutie
##ro-
##isip
texas
##omina
##verf
##verpakt
stcw
##oliet
ombud
mox
contre
##slik
reproductief
##apolis
##amlr
paria
grozny
##oute
##indo
spreuk
##akken
##beoord
##bla
##blet
welgevallen
##volmaakt
##gerber
##geefen
slang
marcel
stemver
stembus
geluk
elena
reserv
##sevenwicht
prefect
##punten
marktinterventie
visbestanden
kluwen
rule
1915
##acek
##acob
##acchi
##elex
##dankbaar
antig
bedrijfs-
pose
somal
arbeiders-
##nergeet
vergaderperiode
confectie
adag
##jecteer
eu-vlag
eu-onderdaan
20-
##getal
##s-groep
##liber
appro
##leefd
##dagingen
hemzelf
##steriel
##begrot
italia
##krachtigd
synd
synergeet
##veiligd
12,5
extra's
verslag-ch
seb
##lingham
##-europese
multicult
irak-crisis
argus
obiang
geteken
2002/02
1999/2
##enaaren
2005/20
betalings
##beslist
gletsjer
##slawaai
178
interventieonist
218
21.
##trend
##-time
abm
abacha
abomina
subjectief
goddank
athe
kopenhagen-criteria
ep-delegeer
##interview
servie-mont
monteer
rubber
##glip
andria
standaardprocedure
00.
billingham
##oxi
##takt
steenkool
camara
45.000
##splijt
##ueus
97/02
98/0
milieuconvenant
labour-afgevaardigden
##ing-s
annapolis
jordan
nl.
1965
liberadzki
pnr-systeem
timorezen
honor
andrej
angelika
e-gezond
##bedding
tweederde
pessimist
geslachts
3,2
nanodeeltjes
kelam
##geschonden
350.000
0963
fragmentatie
kwaliteitskeur
investment
investerings-
ccamlr
engineer
##ylaxe
stigma
##ricade
verslag-hautala
##bloemd
crypt
tongue
havik
machinee
mutagen
kratsa
##gerechtigde
##kiewicz
limburg
cesr
##vandalisme
diaspora
assimileer
antifasc
##-strook
mumia
een-loket
guardia
fayyad
electron
initiative
binnens
##zeeerepidemisch
##-financiee
##spiering
kestelijn-sierens
subsidiariteits-
blasfemie
##-westfalen
weisgerber
laotiaans
##inosaur
kosteneffici
frischenschlager
verslag-florenz
jirga
onnozel
flexicurity
gorbatsjov
empowerment
abominabel
servie-montenegro
-veiligheid
.5
4,8
aero
bga
borde
cil
cair
coefficieent
dc
doc
dcm
edw
grat
iia
joly
jutta
lact
loochen
maf
owen
pep
paz
rant
rauw
saad
sunt
wroc
yi
yan
zah
##iola
##gif
##pit
##ls
##lanc
##kregel
##koorts
##kidnap
##donder
##vondig
##-me
##-dien
##-kwestie
##huw
##mi
##700
##wals
##wart
deem
##ints
##intern
vandien
verkopen
beker
besm
beducht
##igh
opgaan
##verhuis
##verbloemd
##deh
##destoel
##undig
##rade
##raham
uitval
##atiemissie
belabber
toebehoren
##ulder
danjean
afwissel
##asy
terence
##akry
##icatie
schuim
##esfeer
anderen
##bede
gasper
##geluk
##iricht
##problemen
##usser
lep
percent
pervenche
##iod
##medaan
concilieer
gelaat
gelieve
manisco
##ofonie
##passie
##beelden
milieuveilig
berouw
##di-fractie
##diageletterd
194
chat
antiret
##mine
##tuigd
##dozer
##ijev
##centen
eu-toe
eu-ont
eu-commissaris
208
prion
dagvaard
cowen
aguil
##ontvoer
design
##moffel
thorn
president
henry
##erne
terroris
##assino
correia
##nedy
##logenstraf
##stofuitstoot
##to-ver
##hebben
##ivum
##bodan
produceertief
##gingen
pleister
evv
##rapporteurs
inflex
harnas
egal
verslag-buiten
verslag-cer
profylaxe
seal
##restrictie
dimokratia
neerbuig
eev
slobodan
luca
2005-2006
joa
maximaal
noord-zweden
210
216
seculair
waarneemersmissie
niet-formeel
banengroei
malliori
opposant
passagiers
vergat
vergiff
##ayry
epile
compliance
vn-resoluties
##geving
dury
##ziekte
opgeschroef
pacta
officieus
##bevoegdheid
drog
##-economische
lobbyactief
arabisch-
privesfeer
##shop
##/1/2000
organisation
informat
vergelijkbaars
hiv-be
##lambert
brugge
radeloos
##ing-out
##ing-schmidt
##sprobleem
invalide
bse-gevallen
frequentie
##-sociaal
1966
1959
timos
kirilov
allocatie
##gestelden
niels
caleidoscoop
toronto
spitsvondig
3,1
affiche
##pornografisch
edf
peltier
output
(97)00
tovere
##/83
togolees
birmingham
(96)00
maghreb-land
##yerere
transmissiesysteem
hervormings
billstrom
lamfalussy-procedure
##decimeer
feod
##italia
##aliseren
landenstrategie
waarnemingsp
materiaal
bastion
qaida
radicale
gotovina
trivino
##verbruiek
viking
florida
geallieerde
voorbehoed
##compliment
89/391
##uminose
sharm-el
ral's
europeser
gamma
genderaspecten
antarctisch
antarctica
sherry
##en-krupp
noord-koreanen
aanstalte
verslag-barnier
ondergetekende
fiscalisprogramma
desertec
farmacologisch
groeitempo
##kieosenen
keramisch
kannibalisme
##diefstal
dogmatisme
thyssen-krupp
voorjaarsraad
eu-vs-top
oslo-akkoord
montesqu
canadezen
sjeik
transsylvanie
zuid-tirol
ruffert
mordicus
pailler
##tribune
wrocław
vergiffenis
waarnemingspost
,5
-ik
3-
5,7
biet
dos
dinosaur
goldstone
hoon
jings
mend
mund
nyerere
oude
sve
soep
tari
vits
wada
xv
##iotti
##sneer
##aanger
##nit
##namen
##ekenden
##lacht
##laboratorium
##-oorlog
##/40
##/36
##camp
##cira
##hoest
##fris
##fles
##my
##milie
##wiss
##wisten
depl
##stri
inzitt
gesjoemel
gekleurd
verwees
verpest
dati
##aliment
aanpass
heinisch
##veri
##verraad
##desk
##gebouw
##gegev
strateg
strot
##ordiaal
##sche
##uni
##uniform
reyn
##agra
##steleg
afvaal
voltoo
ontvo
come
##kelder
scheel
schaaf
schragen
##essler
##voorwaarden
kompas
##wikkeling
arco
arcelor
##ffolo
kwijn
perzik
steun-
wettig
##berto
##ermid
beleids-
meegegeven
vastomlijnd
##bouwexport
wereldwijde
divisie
##ofobie
stand-b
exposeer
conscie
mage
##lene
1929
##iveaus
immun
chroom
change
weerbaar
##tuiglawaai
##pakkoord
204
209
coal
##iefe
##erijcapaciteit
liotard
struct
allergeen
this
##elings-
juridisch-
viermaal
##ypeer
##snood
eca
##pelen
machtsevenwicht
illus
precursor
##ivari
barricade
relaas
olisip
ingebouwde
kennisgenomen
1089
##havens
##dingen
##industreiea
verslag-col
##bananen
##makel
israels
kandidaat-led
kandidaat-voor
gisterenmiddag
##letter
habe
scott
servanda
visumvrije
russisch-
##zeeregio
##verkeerscontrole
halfleeg
esr
##ebook
##laume
1998-1999
premiere
roma-top
primordiaal
##balvandalisme
rijbevoegd
patrimonium
converteer
tirol
##zadig
pediat
montene
mkb's
horror
litvin
knok
garret
internetaan
##bilia
##overnment
camre
cambridge
gekwet
0,4
poets
95/46
said
trias
loondiscrimineer
##ed-fractie
davis
paddestoel
burton
##impact
##biologisch
##gaarde
##lekken
kinder-
hoge-
##geneeskundig
caveri
700.000
sirene
##harium
##ctrineer
matika
##schaarste
praags
mayor
pelinka
##/67
socialezeker
##found
tripartiet
guerreiro
nicaragu
lindholm
warschaupact
karls
vlamingen
##vijfde
bekrompen
carlgren
cyprische
navelstreng
##konijn
crash
waarnemend
##recycling
phillip
futiel
##ingsbevoegdheid
sardine
##emperatuur
integratievermogen
##grijns
chauvinist
##onderhandelingen
inventief
ioo-vis
##belasting
lauk
investeringsfonds
ciamp
##observeer
boudjen
verbloemen
sensibiliseer
algecira
vermogens
vehikel
terugverwezen
viviane
##gebeuren
2000/78
##wuste
abruzzen
almaden
ferrari
benes-decreet
erika-pakket
citizens
russischtaal
energierendeer
1905/2006
herkomst-
minimumaccijns
neafc
access
arusha
iascf
szczecin
edward
gasperi
epilep
timosjenko
montesquieu
mundiaal
##aangeroer
ontvoeer
conscieentieus
pediatrisch
navelstrengbloed
boudjenah
-stem
-biljetten
425
6-
626
beek
dail
kis
lee
lijm
mind
miro
nip
oz
occ
phn
sok
sfeu
sotou
trop
uwer
vijg
wre
zien
##gregeer
##nad
##nooi
##temperatuur
##ostel
##pathisch
##lina
##dini
##-mar
##-la
##-vergader
##/35
##zoog
##wall
##worth
##://
##en-land
vander
##atoren
##itta
gega
gesloten
voorstemmen
##learning
##remelk
##verzadig
##olin
##urp
##urter
overslag
##ctad
##rakel
##atieve
##atiesamen
##angel
##issner
kantel
prohib
##denkend
parcours
daarvoor
##ogram
danone
##schapen
##aanvoer
meyer
spag
plastisch
##irin
##steden
##oels
intergroep
interpelleer
herlanc
amr
amal
millan
stewart
##zoeker
slinger
##ankelijk
##overos
zaak-f
veu
##sex
##oegrisch
consens
buitenproport
langst
langue
##andersson
19de
energiepakket
##ordeningen
##veelvoud
champ
##oefende
##sscenario
antunes
volks-
##adress
##adura
achterom
pascu
eu-structuur
eu-bedrijf
eu-sanctie
##daq
commissie-
grenswaarden
##emberg
contanten
unctad
hengel
lissab
midd
middenen
topambt
hemd
eclat
verzo
morgenavond
ongefundeer
noordierland
noordoost
improviseer
##mando
1559
harmoniseer
romein
bouw-
##iegold
medicus
impel
##beheerder
auto-
##bay
guinea
fluweel
##ingsfonds
172
##drze
exportland
##plezier
niet-staat
niet-discriminatoir
subgroep
##meete
malafide
fiscus
schengenovereenkomst
##tain
##en-klauw
tolsysteem
autonomie
peuter
pedro
panama
getuieg
##consensus
professionalisme
pactio
macroeconomisch
geopende
70/1
discussieerden
explicieter
gary
avi
extremadura
psycholoog
gaza-strook
##concipieer
97/00
pride
##scan
orientatie-
oost-zaire
ingrid
taks
schengens
dalits
##yev
molotov
cancian
zondaar
aangerichte
voedselpakket
titford
auroi
##sjadisch
a6-0
c6-03
gilles
bene-decreet
seminarie
abchaz
verpleegkundige
niche
cocilovo
ayl
sinti
cyberspace
jonathan
##steuropees
associatie
nitraaten
andalus
player
kohlicek
lyrisch
jobbik
werkgelegenheidspotentieel
##racist
frankfurter
homeopathie
visabeleid
hannover
egeisch
bulldozer
hipc
waarnemings-
ordinair
##verbaasd
lehtinen
sunday
pentagon
polisario
saksen
alimentarius
ontheff
##ocalan
dienstenrichtlijn
pamflet
enterprise
aangeklaagden
##beschaam
antiterroristische
##continu
##radioactief
2001/18
gistermid
verslag-evan
pantser
arlacchi
nakend
saarc
outsourcing
geavanceerd
voltaire
##verdachten
##schuiol
verzuchtingen
singapore-onderwerpen
interbancair
soltwedel-schafer
onbenul
beleidsuitdagingen
http
adagium
aguilar
thorning-schmidt
verslag-cercas
svevo
verweesd
##stelegging
litvinenko
algeciras
sotoudeh
gegadig
herlancering
gistermiddag
720
950
9.30
aeea
bijk
berman
cadec
dda
drin
dink
eor
evolutie
gij
guter
goochel
had
ica
jad
jure
jess
kik
khod
nan
ober
oscar
rock
utri
voc
zdanoka
##iaat
##ioos
##sf
##scode
##gi
##nl
##eo
##tag
##rk
##oder
##ues
##vijzel
##-pas
##-affaire
##/60
##cadmium
##has
##heng
##human
##most
##zaar
##enne
##erang
##erick
##anjo
deau
dezelf
##etwisten
##orco
##orama
##in-
##inopel
##ategorie
##atienorm
##ingspercentage
endo
geordend
##onale
beijver
##iglione
##alterneer
ongeloof
##ombudsman
##deponeer
##gedeel
##arct
euska
moz
##otro
##aals
##endarisch
##raditie
##ango
##ensen
bij-
bijen
##ienet
##iende
##schappen
volvo
ontroerend
##anties
meissner
terzelfder
##veney
##icon
schem
##imorezen
garot
##estan
tenla
##delcheva
##gerept
##ffet
leder
leip
perceel
##iool
sloot
##anke
marmer
##keren
##standige
denom
genk
geniep
wereldcup
boks
bolea
preken
standbeeld
verbond
##gebakken
mah
##leneck
suez
##diment
##dividend
1946
##aboteer
handzlik
cho
chap
legendarisch
antiek
##ia-
##adam
##adverteer
##doctor
kleine-
##aves
eu-recht
eu-milieu
persoons
##perre
verlief
##nov
partijover
afgebeeld
##aasappel
valide
eindbegunstigden
##zekerheid
productiel
praktiseer
##ansen
industreiea
##moi
nauwste
ruimte
apocal
traff
##alezen
absolut
compromisamendement
coregel
groeps
##confisqueer
##duidende
bi-
zwaargew
##mandu
##rakatellis
minimum-
##maffia
nedelcheva
##reg-programma
259
kandidatuur
gunter
bioaccumuleer
passant
transatlant
neergaan
eed
2002/
1999/468
##rilankaans
christine
geestelijke
gesprongen
211
zuid-afrik
taba
markus
markant
##penetreer
economist
##oomen
1997-1998
redetwisten
klachten
##cycl
civiele
maca
##waren
##ervaren
##bergis
middellandse-
ecb-
implementation
andrei
##knop
##aced
facebook
fischbach
camoufleer
##fora
0,45
geboortestreek
oost-timorezen
loya
korte-
zachtjes
##ixeer
taelen
##feil
mauret
##ource
##catania
batasuna
diagnost
aanbeveling
timide
warning
##explodeer
e-learning
##poets
helms
bakoe
censenda
benedict
##duitser
##bakan
3,8
##cuul
lafontaine
##kasteel
##hocdelegeer
toezichts-
systems
cultiveer
stereotiep
##fluor
rechtervleugel
(98)00
sinister
republika
djind
usd
beklaagde
veiligheidscomite
risicomanagement
limerick
cesare
cinema
matera
##record
shopping
##cultiveer
kwestie-tibet
virginia
verslag-schwaiger
kakofonie
##oroz
guillaume
##liament
landsbergis
grandioos
aberratie
transeuropees
aangeklaagde
enenmale
risicopreventie
##rousel
nabucco-gas
boemerang
regelgevings-
inquisitie
rushdie
glorieus
sophia
tutsi's
mcdonald
gloser
mammografie
incluis
kissinger
engineering
mutagene
rantsoen
besmeur
sharm-el-sheikh
inzittenden
voltooide
epilepsie
consensueel
eclatant
ongefundeerd
http://
euskadi
tenlastelegging
leipzig
'60
5-
border
brep
bashir
cell
cizel
doop
doll
dweil
eab
foll
gan
gore
hc
iivari
krak
lug
lille
preek
piz
pique
raas
sina
tuig
ud
viool
yen
##gien
##nijver
##nagel
##eaan
##eigendom
##riss
##ralen
##publiek
##dans
##-bij
##-vraag
##-pakket
##-effect
##-raketten
##cum
##hj
##huid
##bre
##jab
##fus
##wier
##.200
##xon
##elite
##inski
##inen-k
##atum
gean
gewaar
##onica
##ongevallen
bevrijd
beduidende
tekeer
opgenoemd
##alabel
##reinig
##decl
##gedekt
##illig
##otum
##schaak
##schul
##eesd
zald
reform
recl
ondervraag
##ruhe
##ruts
##denis
##eefde
##uli
animo
afwijs
##utte
meh
##itieme
##ockton
spit
schau
##implanteer
##orteld
##osfeer
##irelig
##eurs
##riaz
nieuwjaar
bloos
leperre
perp
perse
nobilia
##wers
sociaalde
geletterd
magist
elastisch
toia
##sef
bov
prealabel
milieudoelen
milieuvereiste
##loss
openba
openbar
ruzien
1918
##abortus
energiegemeenschap
rekenplichtige
intuit
terugkeer
legal
##vatten
achterna
##leroi
eu-vis
##iefstuk
afgezonderd
##wettig
controlestel
##ideaal
industri
three
unep
kantine
trading
##adema
financierbaar
##tour
blijvend
verzoe
##kwik
indiaan
oud-
witgewassen
sanz
##alys
egf
##haev
##moedig
verslag-gro
##oiber
##durend
janssen
nederlandse
argyros
aardolie
##lettend
##-bal
it-systeem
joz
2003/0
assyr
jama
##ingsvermogen
incideer
incub
niet-handel
abid
tabaksteelt
sterling
##exueel
idem
redacteur
melo
meles
patijn
##oestisch
gatt-
##ahara
integr
extreemrechts
##-2011
b4-00
skie
##kasj
groeipotent
grenzen
##spartijenoverleg
point
##geschikten
##respons
325
cosac
veroorloof
locatelli
genderkwesties
wishf
##bertiere
burden
##planten
risicoc
respon
btw-hef
napole
##-verrier
kinderontvoer
##-plusser
jeremie
vazal
verfris
##sjacher
ramon
gillig
prominenten
upgra
##kolom
bayona
nazistisch
cultuu
cerdeira
##-1997
##straffen
##infecteer
##agnard
hennic
mancha
a.s.
oxford
future
ecall-systeem
nasrin
e.d.
oplettend
##ingspakket
89/48
##gemeine
stavros
2000-gebieden
##generatioo
##enciaans
children
dodee
nyrup
scharnier
schijnzelfstandig
wipo
milieugarant
fluoride
(pl)mijn
thinking
varkens-
milieusector
##-turks
castellina
hushkits
eu-turkije
##competitie
##radius
##onaal-socialisme
##criptie
extensieiefe
goulard
buitengrenzenfonds
mandarijn
sachs
source
bourgeois
fuels
##fetamine
macedoniers
prijstransparant
##-heiner
sebast
multiculturalisme
opgeschroefd
transmissiesysteembeheerders
##alimentair
ciampi
phnom
aylward
guterres
deauville
##orcoyen
transatlantic
##feilbaar
djindjic
brepoels
##inen-kall
ondervraagden
##riazis
leperre-verrier
assyriers
incubatie
4,6
732
aken
beef
darm
etal
gold
hil
ifi
jau
joost
jorge
kist
lra
mister
neef
oth
p.
prud
rar
rene
sale
tud
usa
wars
waves
xer
zar
zinn
##aul
##gn
##gricht
##gnostisch
##tila
##toelage
##oden
##uuit
##kiem
##kartel
##dav
##dieer
##-middel
##-generaal
##-opereer
##-register
##mut
##wrijf
##.eu
##.500
##enburg
##anent
deen
##ittig
##ingst
inigo
gesta
geco
verpleg
bezuinig
##igneer
only
##derogen
##lezen
##learn
##ommer
##reduct
aanmat
aanbelangen
strip
stup
##illusie
eurocrisis
##scher
erkel
ernest
##unset
weiss
##rao
##rax
uitver
revan
reces
reduction
##aman
onderschep
beleer
##spij
anarch
##aanwas
spul
##terreur
##icho
##convergeer
##beck
##ortiment
gareel
##blog
##bleek
##oso
##irriteer
##oelag
##produs
komisch
##reeks
arlene
doestel
slui
marta
##bouwafval
tool
##diende
main
19.05
##erson
inta
states
##vloek
eu-werk
eu-lucht
eu-led
eu-handvest
uitbundig
gelijkluid
turchi
##marchandeer
besloten
beslommer
akoestisch
industry
##doeleinden
##-frans
uitstralen
##asson
##assisteer
zwang
waterricht
ongehinderde
imag
image
imco
syd
realist
kopten
electr
##metaal
administration
uitgest
##reguleer
##itsis
13.30
round
##-bus
##ationale
##skaya
scar
gloed
fraudebestendig
##allon
16.30
##-timor
loonniveau
##law
stads-
##interesse
##en-samen
macsharry
merce
non-vaccin
##demir
rund-
anti-europeanen
##relatief
##2010
montagnard
lamber
extreem-rechts
verwittig
rugby
zimmer
##azoen
importhef
milieut
##stimul
##annitsis
medicatie
##smijt
slovenen
c40
bono
film-
shirin
##a-project
aziz
##geworteld
raison
##mitt
##mitchell
vitae
##ing-ber
##verwijlde
ijszee
euratomverdrag
cotonou-overeen
1964
btw-systeem
casus
allgemeine
verslag-ford
alpenovereenkomst
jericho
charlie
caes
##carrier
representatie
update
##koraal
geslachte
mather
kazak
echelon-systeem
sociale-
vincent
##maaning
estevan
klaus-heiner
pyro
etcetera
verslag-breyer
##commercieiee
bunde
##potent
truck
kuhn
sinaasappel
ex-presideer
ii-pakket
thermie
cartoon
patriarchaal
obsceen
mohammedaan
metterdaad
cornwall
mathem
##evit
-programma's
2000-2001
bernard-
##recorder
collega-parlementarier
eures-net
##field
##compliance
neyts
missionaris
2000-gebied
blanken
cmr-
cvdr
verdragsbepalingen
obscurantist
regionalisme
ondernemingsklimaat
punct
francaise
##ollywood
ivanov
schijnzelfstandigen
festiviteit
##-wurt
presedo
andrikien
ponte
verslag-karas
##socialist
paisley
##yszkiewicz
mededingings-
plannings-
against
raay
##oteles
vrijwilliger
detecteer
verdorven
milieumisdrijf
emiraten
partijfinancier
ongedifferentieerde
##raffinaderij
##verschrok
rbd
baden-wurt
kathmandu
veneto
uganda
somaliland
yanez
feodaal
illusoir
wrevel
zienderogen
amalgaam
pascual
beijveren
denominatie
apocalyp
cizelj
##declareer
jozsef
abidjan
napoleon
##inen-kallstrom
gestadig
sluiot
beslommeringen
520
9,5
aj
bies
bard
bacter
caus
dab
drift
damp
fis
goet
giegold
goelag
h.
jus
kem
krik
lem
nd
num
oven
priest
pmoi
rc
ran
siek
vu
##iale
##soedan
##saboteer
##aite
##g.
##nder
##nale
##national
##naud
##noverleg
##ext
##eign
##tent
##tassopoulos
##trakatellis
##lift
##vk
##vir
##-2
##-steun
##-vrij
##-oosten
##-minister
##4-0
##cement
##hite
##breken
##wich
##eringen
deep
deja
##iewin
##atistisch
##ingapore
inspect
inkopen
vernie
beit
beoord
bezorg
##igner
##aler
onyszkiewicz
##lein
##omvang
aansloten
alco
alla
##vera
##verholen
stuif
stockton
##arritz
eutel
dieper
##otho
##aalen
eurobonds
##schen
##schoep
erbakan
##endent
overlegronde
##atiepact
##rumpeer
pro-europeaan
parliament
##ierski
##uitgaven
toegee
doorgaand
spijs
##akije
##conta
##impel
##gair
##iran
##ussillon
herrie
nieuwe
amfetamine
##ffrey
stekker
blazoen
levai
peri
##overbrug
##beri
##auk
zelfstandige
zorgtaken
el-s
middellange
towers
##atiefereiste
##daagen
##ofe
##ronica
expres
langou
##zijden
##abol
##zenuw
##keerd
charta
gewillig
##doch
pasko
kennedy
##actoren
eu-onderzoek
eu-2020
20.30
##perend
kortdurend
##ieerde
hoofdverantwoordelijken
hoofdbreken
ung
##haleer
acro
middenoosten
##weging
diervoeder
##logie
##loge
eco-
amerikaanse
##toire
##ruscott
##ropolis
##redacteur
decoder
relocatie
notoir
##outs
biarritz
egts
verslag-est
verslag-mus
verslag-weil
tsiak
reflecteer
##winter
acta-
halonen
westlund
onderzoek-
##-bol
overgangs
2002/1
##holpen
cathy
##ationist
vlieg-
gujar
flame
17,5
0001
184
##-russisch
zuid-k
##orex
esm
niet-erken
abiola
##amerikaan
##lay
##laspect
krenk
path
lesotho
##ahy
kenniss
durant
panorama
alcohol-
bergamo
##stappen
b4-1
substitueer
vict
kolen
popel
knaag
papaky
petje
##varela
treinon
saharaans
hygien
schokkend
95/0
c5-060
##rovica
##reymond
98/01
azf
overnamebied
privacybe
padania
bse-vrij
burcht
fait
bolkestein-richt
hosp
ferrero
liberation
marinos
##/73
##z-oroz
penh
##-plus
activisme
calder
##sjacht
split
bric
##transfer
93/7
mayotte
martinez-oroz
wapper
onthie
onthou
bevoogd
scheefgroei
stream-
##vinden
hiros
##-procent
kastan
renate
##nomisch
pseudo-
barton
vermaard
plooij
boeddh
c7-02
sonar
gozo
predikaat
innovatiepotentieel
gezondheidscontrole
karelie
umberto
##oghurt
kwestie-turkije
chemicalieenageer
typerend
energiesamen
91/414
crux
##-enquet
declar
clementine
faciliteer
aristoteles
premissen
hutu's
stiefkind
##ambassade
psd
drugsvrije
keynesiaans
escud
eyadema
ioan
frontex-ageer
telecommunicatie-
hassan
mhz
intergouvernementalisme
karton
nazi-duitsland
gabriel
belliard
geemigreer
clause
tobin-tax
cofinanc
##getuige
76/769
ippc-richtlijn
##opgehelderde
guinebertiere
owners
##diagnost
clinch
aosta
kibaki
yiannitsis
miroslav
buitenproportioneel
languedoc
romeinen
gegadigden
icaza
jessica
mauretanie
benedictus
wishful
etaleer
xerox
verplegend
uitgestorven
lamberts
pyrotechnisch
vernieel
toegeeigen
##container
tsiakour
papakyriazis
-zoals
060
9.
bail
bruis
biefstuk
cep
crime
did
dac
ema
eads
fon
fog
germ
grif
haan
hir
hollywood
ix
i2010
kent
khal
kurk
knuppel
leek
m.
noren
oc
oeden
puik
sze
tis
uca
vle
veen
vayry
yuk
##iuni
##sd
##gok
##evisie
##tam
##tone
##temberg
##lijm
##kus
##kings
##doleer
##dopper
##dreven
##-gebied
##-van-
##coop
##corps
##beit
##bt-
##jd
##fest
##mouth
##ystemen
##'t
##xpl
##enstrategisch
##etts
##elid
##atje
##eering
##rod
gepass
eenheid
verlei
bevreemd
##oesj
onst
onbetwist
##read
aanprijzen
alm
alonso
##verspreid
##depend
##andro
##arissen
##arbanaan
##ilair
##schede
ervoor
erts
overleden
##cts
constructeur
##racy
##atievan
##enso
##agua
##stelevisie
##amin
daarvan
anwar
anoveros
afiuni
##asanjo
ontgeld
##utst
spat
schraal
schwar
##opval
welbev
##wijst
##umus
##datab
##oelina
##oelstellingen
herder
herbicide
pereira
internal
##welli
##bouw-
orwelli
##ratio
##ranaga
misstap
madur
klm
193
##abine
##uigi
mede-
medeop
oogluik
##acas
charmeer
autoc
##auton
procentvan
eu-product
eu-coordineer
cow
##rafel
partijpolitiek
commissiediensten
##ampa
transparen
solas
moniz
monoliet
##-fin
risi
##alev
##plannen
##commando
kern-europa
compar
kwaliteitslabel
##kett
ilves
baanen
adviesraad
##iza
relativisme
noordrijn
##arias
notificeer
balances
lichtjes
oud-collega
rondreizen
##handhaev
##willekeur
biagi
geziene
verslag-oomen
##meten
##niveaudomein
telewerken
##instanties
zoek-
quoot
diepgraven
argwan
getals
1999/01
2003-2006
fluister
double
lethar
familiea
164
ppe-
multipl
passagiers-
ijl
atat
ethyl
carcin
caracas
luxemburgers
##wendig
verstrekker
patric
patrao
schaal-
moeder-
finaal
schaduwrapporteurs
alliance
misselijk
melk-
katyn
##harto
##meln
##iserings-
fixeer
wijdverspreid
mediam
groeiper
so2
##oriam
##lineair
nigerianen
1,14
0,41
kozl
baroness
saberi
geinteresseerden
saddams
480
oost-afrika
lobo
b5-020
##158
##flank
annalen
ici
jordaans
euratom-
##impuls
##ources
respijt
cabinda
tolk-
insider
##hiloxenia
goncz
second
vissers
ict-
gematigden
putin
##audio
##lyon
##-gevangenis
##bados
km.
3,9
castilla
wapensmokkel
91/6
##sperspectief
antidrug
onthutst
##/42
high-
1701
##/86
brevet
paciotti
##zeelanden
##supporter
##agonist
teerzand
francoise
kasteel
casseer
##folio
garcia-orcoyen
guidoni
personage
ondernemend
oeral
##defensie
fouque
undcp
megahy
goal
vervolmaak
gezondheidszorg
yassin
belegging
alexandros
pesticiden
##autoriseerd
##latijns-amerika
##hemel
ratingbureaus
##-functie
vreemds
rovno
eropuit
verslag-beres
##ot-schoep
##diagnose
bogota
cnn
freddy
sint-jutte
milieubeheer-
96-0-0
endocrien
kosmopoliet
qassam-raketten
sovje
helsingør
approach
##begroting
lactaat
afwisselend
jingsheng
deplor
matikainen-kallstrom
nicaraguaans
verzoeek
hennicot-schoep
othmar
caesar
mathematisch
punctueel
siekierski
middellange-
##-bolkestein
gujarat
kennissamen
martinez-orozco
cofinancieren
tsiakourmas
oedenberg
gepassioneer
##opvallend
welbevinden
transparency
argwanend
hennicot-schoepges
-principe
3b
5,8
bend
brij
bipolair
care
cfo
cumb
dot
dart
dolly
etre
ezel
e-europe
foot
frictie
fogh
gamb
hin
hag
horm
hood
himal
ian
loth
licent
luigi
mdo
nasa
oas
ront
ruth
ritueel
sik
seis
tut
tgv
vete
wals
zur
##smacht
##serveer
##sovjet
##sauer
##einn
##toren
##loc
##uuitbreid
##kam
##kank
##kets
##-3
##-mechanisme
##-vallei
##8/97
##/49
##cid
##hing
##hima
##hemd
##bitter
##fum
##falt
##ming
##mast
##multinational
##zich
##wort
##wonde
[...]
