[PAD]
[UNK]
[CLS]
[SEP]
[MASK]
#
0
1
2
3
4
5
6
7
8
9
a
b
c
d
e
f
g
h
i
j
k
l
m
n
o
p
q
r
s
t
u
v
w
x
y
z
¦
¨
©
«
¬
®
¯
°
±
³
¶
·
¸
º
»
¼
½
¾
ð
÷
ø
ƒ
˚
˜
β
ا
س
ف
ᵒ
‑
‒
–
—
‚
“
”
„
•
…
′
€
℃
™
−
◊
◦
☀
★
☆
☹
☺
♡
✯
❤
⭐
ﬁ
￼
##e
##l
##n
##i
##s
##o
##r
##m
##u
##a
##z
##k
##g
##t
##f
###
##d
##p
##c
##h
##x
##j
##v
##b
##y
##w
##2
##6
##0
##1
##8
##7
##¬
##4
##5
##9
##3
##q
##¨
##€
##™
##⭐
##ø
##˜
##ð
##©
##—
##¦
##½
##‑
##–
##º
##β
##−
##³
##¸
##¯
##¼
##®
##ا
##س
##ᵒ
##
##en
##er
##ij
##aa
##et
##an
##el
de
##oo
##ch
##ijn
##aar
het
##in
zijn
##ie
een
##oe
en
##at
##ee
##it
van
in
##st
ver
ge
##oor
##eer
##or
##ig
al
te
he
##ijk
##oek
##cht
##on
##der
op
##aal
##is
be
dat
##ing
##om
##iet
##de
boek
##al
ik
niet
##end
##ge
heb
voor
##le
met
er
on
##ver
die
ze
##rij
st
aan
##il
##ur
je
maar
##ar
##haal
##ord
##ol
##ees
##sch
om
word
verhaal
oo
uit
##id
##eel
##ou
als
haar
ook
##ot
dit
over
##re
##elijk
##og
waar
##lijk
##aak
##ind
lees
sch
##je
##and
##oed
##aat
wat
we
##am
hij
kan
##rijf
##he
sp
##us
zo
door
##ens
le
##te
##as
##acht
##ijd
##ers
goed
bij
##ier
dan
##ag
an
##uk
##ze
##ven
alle
re
##un
##ang
##oon
##eef
wel
##isch
vr
##ik
##ak
##ant
kom
##erk
naar
ga
##ich
gr
##ent
##ct
hoo
nog
##uw
pr
##elf
##eld
##ap
meer
daar
af
##gen
bl
zich
me
##oet
of
echt
schrijf
ont
deze
##ouw
to
pers
##aag
##ist
##aan
zal
laat
##oord
veel
vind
##be
##ief
##sp
heel
na
##den
##im
onder
vol
ander
##ele
##ill
##ter
tot
el
hoe
##uur
dr
##heid
##ul
##fd
##ijf
moet
hoofd
##ann
geen
maak
mee
##ien
##op
##age
##atie
##uit
tw
##os
##eem
##ste
br
leven
wil
pl
man
##oud
##oel
beg
##schrijf
##oot
tijd
##icht
##dat
mij
th
##ug
weet
##ad
ter
##chter
elk
##igen
##dr
##eek
##oop
zelf
##sl
##br
##onage
##um
twee
##aam
begin
##ut
##aad
##rijg
##iek
toch
weer
##onder
##ic
##ond
##es
toe
deel
eigen
hun
erg
##maal
doe
mijn
##sen
moe
krijg
##ster
##ood
##ker
##ieuw
personage
##orm
##ob
hier
mis
##af
##tel
##eder
du
##kom
hem
jaar
##ast
##inde
sl
##eed
##iend
##ets
werk
##of
##een
vl
groot
blijf
##ooi
##art
achter
##beur
##rill
mens
zit
##ir
##ijl
##riller
##od
##uis
sta
##lees
##ort
gen
lang
zie
tegen
##baar
##gel
elkaar
##we
##ereld
##tr
##val
lijk
sn
nu
den
##ud
vrouw
tr
##vol
##ken
##door
zij
##oer
thriller
##ussen
##waar
rom
alles
##teur
geef
##ader
iets
volg
jon
som
verl
mooi
##mer
spann
##geef
spannend
nieuw
##ite
weg
con
gew
alleen
omdat
denk
##rek
##zelf
au
ken
##ect
##werk
wereld
##tijd
##enis
vriend
##pers
##ve
##land
zeker
versch
##tje
her
sam
##oof
##kel
##maak
##als
hel
auteur
want
##ip
##bij
kl
##em
span
tussen
gebeur
the
dus
##eeds
##ies
##stel
eer
kind
##uik
##ac
##aas
ch
##schap
snel
##nen
houd
terug
##sel
lief
samen
##stuk
##ige
##ank
mag
roman
##eng
##oeg
dag
##ref
##wacht
##ctie
zoals
steeds
##zet
min
##ust
wie
duid
bel
##org
##bl
##wel
di
even
einde
##oos
##oc
kr
##voel
inter
##zoek
ieder
mar
pas
##ard
##ess
prob
##ga
plot
kort
ster
persoon
##zin
##dacht
##ber
##uut
soms
##gr
##del
blijk
##erie
dood
vraag
##oment
##bruik
drie
##atuur
eind
##oei
zeer
##pl
##ia
##deel
##voor
moment
##oog
##volg
manier
hand
val
com
##wij
zoek
bo
net
kle
moeder
moord
fr
zin
##se
##ine
##ied
neem
hele
vader
##reek
##tal
##man
##luk
keer
##eur
##aats
##veel
##per
##houd
##oem
20
##ijden
##rijk
jong
kar
##zij
##stijl
helemaal
##ma
##persoon
zeg
##over
zonder
ar
pol
niets
beet
##ab
ex
leuk
allemaal
liefde
wij
##vaar
voel
##ok
zelfs
speel
##na
##itie
su
##van
echter
##ilie
##oep
hoog
##aast
##rijp
##waarde
##iteit
##lijn
wann
wein
gewoon
wanneer
str
##sta
gel
sle
##ool
##aai
fl
jam
anders
huis
verd
zorg
leef
##unt
##beel
##if
##beeld
oud
##ss
##uist
weinig
##me
zaak
altijd
woord
##ucht
19
serie
neder
##oom
id
##sy
##woord
tijdens
helaas
verr
stuk
ne
##ina
rec
##zonder
##kend
##schien
##ink
or
fam
misschien
##odig
rel
##zijde
zw
nederland
pag
vrij
##uid
##ke
##ont
verschill
##esseer
##leef
##zaam
##isje
##doe
##loop
familie
waarom
##boek
##sluit
verschillend
do
plaats
per
moei
##dig
klein
slecht
ding
loop
natuur
oog
leer
cl
##einde
noo
##akter
##iel
nooit
naam
lig
##vl
oor
gebruik
jo
beginnen
##erp
karakter
kijk
##ler
zet
##leg
##vr
fe
##nis
verlijden
##tenis
##gelijk
diep
##neem
pracht
##vind
se
vaak
meisje
jammer
belang
##ogisch
sc
verhaallijn
##zie
##air
##iz
cr
##bel
hoop
ber
##mee
##stand
##ikkel
##druk
##kl
bijzonder
bijn
interesseer
bijna
zon
##au
##th
toen
##ep
##itel
##ion
##trek
##av
gehe
##moord
##ook
##iter
em
probeer
beeld
##oren
am
kn
##tig
breng
blad
##log
##ander
##iddel
##out
pre
##ach
##str
##pel
##eeg
##gang
##sych
##denk
graag
los
##ide
##vang
minder
##buut
##ath
##oort
rond
vanuit
##schref
##echt
##ow
##ay
##ogelijk
idee
##ne
psych
##bouw
ad
##ueer
iedereen
fil
##ner
vlot
paar
feit
uitge
titel
relatie
kant
##zicht
##bs
##aaf
sterk
##wijn
ou
raak
taal
##mat
##pr
iem
iemand
##wikkel
politie
##loos
##laat
verras
fant
rol
##iem
##leem
vanaf
hen
woon
heer
##ium
neer
##uc
##ment
##raad
dochter
verdwijn
##grijp
##ger
ouder
juist
##daad
geheim
my
bin
##aans
##zelfde
genoeg
##io
debuut
##zig
##slag
nodig
##ologisch
ru
##kele
zichzelf
enkele
liter
vorm
ke
and
vast
201
##werp
##anks
##keer
##cl
geweld
##ans
##jaar
##to
##wijl
##rijs
##ene
##leid
##taal
tele
##dek
##hand
binnen
##voer
boven
##off
zoon
##wijs
geloof
vier
##ive
probleem
##ail
buit
##act
geb
##enaar
##tu
best
##issel
##ack
gem
##mp
##eemd
recens
verschijn
gesch
bet
bekend
##yp
##amelijk
av
##hoor
##spel
hum
hoor
spr
##eten
terwijl
enige
##cc
land
vervolg
##itueer
vele
##ost
##istisch
ple
##tref
pu
soort
ten
##vel
regel
car
leid
meteen
pa
buiten
##vat
hoewel
##vers
ond
##heb
##ah
##aap
##rijd
##eest
##ple
stel
kennis
##speel
schr
nederlands
ondanks
heen
##punt
mogelijk
##do
gaan
##etje
humor
##eid
##paal
##ult
ons
amer
det
open
##kr
kw
leg
pagina
zus
geval
##schijn
##zel
##otie
totaal
##form
vreemd
##uwelijk
mak
aandacht
col
jongen
situeer
##amp
somm
sy
##ineer
win
pak
hart
##heel
meest
##geloof
spreek
##ectief
##mis
##all
boei
##licht
##ce
##wees
amerik
moeite
film
##ff
geld
##unst
enorm
verb
school
##spr
verander
##trouw
##kn
geschied
lek
vor
men
##moet
##ks
recensie
##urn
##00
##kst
oorlog
##oen
nieuws
orig
ma
##huis
aut
##iv
recht
alsof
ant
engel
##ende
##pectief
##dag
##breng
cover
emotie
ir
##rect
elke
##zien
##zen
thema
##spect
##schijnlijk
ger
##formeer
broer
sommige
##war
##ugd
##sie
##auw
##spreek
vak
##personage
abs
werkelijk
sim
##tocht
gedacht
uiter
der
##nieuw
war
##ueel
par
##vend
is
har
ziek
reis
ontmoet
##grond
##aard
vijf
##ijfel
jeugd
gezin
dicht
##antie
##aand
qu
##ling
un
gele
##uld
aller
let
##orp
sf
##weg
##verhaal
ged
noem
actie
ja
wacht
beide
naast
##offer
##ass
##iceer
##hal
##oef
##erg
geweldig
wijze
##eens
##sn
##naast
haal
##ov
verhaallijnen
##paald
perspectief
zwaar
fantas
ap
##ieg
##breek
nacht
direct
myster
pret
chr
##voorbeeld
dader
##zaak
bijvoorbeeld
##drijf
##iteer
stad
tien
intr
##los
##aart
cont
##word
hal
gl
merk
mysterie
trek
##ade
##matig
##reer
prec
##zier
voort
##con
##ate
##ogr
verm
red
ruim
namelijk
##achtig
geleden
sfeer
##uze
##fl
##die
precies
licht
##oemd
##oneel
fijn
kunst
ene
##ten
##handel
##ister
##woon
informeer
literair
##amer
##app
##ex
##rik
bloed
ang
zowel
no
##ub
ste
ben
meen
##berg
##ry
##ledig
##ierig
##ept
##iseer
punt
jan
##inner
##koop
hard
##ec
##istor
thuis
##asis
maat
##teken
##middel
##gierig
##zeg
kracht
raad
##merk
psychologisch
##ian
##wege
saai
##oluut
detail
##ong
slacht
##ick
vlucht
absoluut
tel
waarde
##ame
##wek
herinner
teleur
niem
##erij
fi
ee
jul
enig
letter
welke
droom
volgens
help
##wissel
##tuig
##ype
tekst
ooit
la
##hang
##veer
stijl
langzaam
##worden
histor
##len
kans
niemand
##eep
##kijk
stud
don
##vul
reden
##ima
##ulp
sm
succ
##fr
opnieuw
##rol
angst
##inas
heden
##alistisch
succes
##knoop
ele
##was
##iefd
gebeuren
knap
dik
200
rob
draai
fan
##bre
aard
rest
##isme
##red
meerder
vorig
sla
##heen
joh
##anc
wr
##uil
des
paginas
##gebruik
keuze
##cher
middel
via
##one
gedachten
extr
comple
last
pat
avont
##ake
rijk
##genoot
##voelen
nerg
##sla
nergens
##itief
dorp
pos
bew
sh
##fect
polit
##wereld
meerdere
##lig
doordat
terecht
##oeiend
slechts
##eloos
historisch
im
eeuw
##iaal
##urnaal
mid
avontuur
wor
##rein
zwart
act
##ra
tegelijk
bestaan
##uz
##wezig
##blijf
gelijk
##iks
enkel
vertrouw
schreef
twijfel
##win
##iguur
duur
vroeg
##wassen
bar
fot
rust
##actie
##ichaam
##rom
##undel
ij
kop
stil
spoor
pass
pe
##ace
gemak
buur
god
top
##draad
##qu
##its
macht
##ins
toeval
##ict
andeer
##atief
##usie
opge
stap
##recht
doel
##vlak
bovend
bovendien
luc
verg
dezelfde
zodat
##yn
med
##eeks
char
duit
##ineel
inhoud
gruw
kon
bezig
divers
perfect
get
##cr
omgeef
aardig
opper
mede
dial
##ett
gevoelen
norm
waarschijnlijk
cor
##ht
##cherch
lichaam
plan
##co
##oloog
nadat
dank
##cus
gevaar
brief
##lang
##lei
##genaam
##ja
##eter
co
##ha
##weer
amerikaans
bi
toon
##tussen
nou
##zit
##anne
##eeuw
##ient
##voud
volwassen
hol
genre
il
##duid
dien
druk
dialoog
sar
##tien
rede
journaal
mil
##kies
verdr
publ
##tie
contact
reeks
verdien
gek
onze
##dem
wit
##plaats
##az
##vie
##reig
##entr
mo
nee
##ice
##kant
aanwezig
vervolgens
mat
recherch
##klaar
##pak
hetzelfde
boeiend
niks
mon
vlak
##com
##dam
ag
zes
tal
##vraag
##lijden
##roman
trouw
geniet
tom
plek
##up
water
spel
hang
luk
engels
wend
##eeer
allerlei
ve
hulp
##la
##int
##ijst
romant
##zorg
##steek
verdriet
kost
kies
##ly
seks
element
colle
##les
stand
rood
stop
##uwelijks
staat
zom
##mel
genie
politiek
##son
##verwacht
##ous
inmiddel
waard
inmiddels
nauwelijks
super
##ert
realistisch
christ
##lem
##iland
gang
gesp
##vloed
uur
##clusie
fout
positief
##ure
##entie
##appig
ed
##ogie
huwelijk
lucht
groep
eenvoud
vis
##krijg
teveel
grappig
romantisch
##oorlog
fictie
##schik
spec
dier
hoef
ergens
plezier
vermoed
crim
overtuig
groei
blij
verliefd
##erm
##igeer
##ica
passeer
kleur
uitgebre
antwoord
origine
ker
##roer
##eling
##antwoord
##tisch
##bouwd
extra
geest
frank
##astisch
kat
##vens
##voeg
##dien
genieten
aar
mor
you
##elft
wellicht
##bekend
jack
weten
mot
vlieg
strijd
simpel
midden
koning
##min
##pas
smaak
##lend
new
##ograf
##inds
##ck
##olf
eet
fin
##iode
literatuur
vakantie
wissel
klop
fantasie
##pre
prima
##diep
##ro
##maar
##ereer
kortom
eindig
vrees
helft
schuld
magisch
##gem
steek
##ustreer
##kt
verdwijnen
int
voordat
paul
##doend
##urf
##standig
voet
acht
##ena
start
studeer
ros
##geven
##riteer
##wijt
prijs
##ijt
rechercheur
eiland
hou
##halve
##gh
##dicht
##ilig
baan
mich
ro
praat
benieuw
ontvoer
vergeten
benieuwd
##get
##ash
draag
john
##vorm
maand
##ift
anna
##naam
##ai
##dracht
adv
genoemd
##mpath
conc
##kracht
##specteer
part
##fil
##drag
kwaad
mysterieus
sinds
berg
##ogen
zomer
avond
##ilogie
##eth
compleet
iedere
half
basis
ol
stoor
dram
teleurstel
bied
##aagd
inge
##uister
scene
bal
richt
verlie
sterf
inst
##abel
##ed
ontbreek
band
##bo
irriteer
##sc
##uin
##bineer
##ieer
##inter
slot
will
##enn
##ilder
herhaal
bek
been
##ix
eenmaal
##orie
creeer
dav
##ui
doorheen
vaart
##vre
stem
##mate
##ugen
onge
slaap
##ock
handel
pot
worstel
meester
##pleeg
##otel
##ias
begrijp
kwijt
##elijks
duister
ind
besluit
##akel
##iche
imm
##onde
aange
hef
wijet
opgebouwd
huid
vanwege
geboren
##ertijd
periode
##ografisch
##wat
opdracht
##lever
mart
##werpen
bouw
prof
meeste
##draag
##flap
##gaan
duits
##rie
##the
gesl
alex
##ale
##tt
##uig
##doel
##itisch
##oth
for
##iss
foto
pop
wh
##va
##scheid
##zins
##uip
sluit
type
lach
zee
##roep
intrigeer
##inder
gez
besl
schoon
wijs
mel
week
eur
pijn
##leven
##reik
##oodschap
bed
zeven
betrek
##ote
##onteer
tegelijkertijd
dom
##ageer
aarde
verloren
bundel
boodschap
##ere
##itter
##club
##snap
ijs
##stop
geheel
##iveau
bod
##ys
##ara
##chn
##etjes
sympath
##vrouw
adem
##kun
##jes
##ban
collega
##ective
dw
daad
figuur
nood
afstand
gesprek
muz
##back
reg
donker
lot
teken
draad
traag
flink
cliche
conclusie
team
##ley
##view
genieet
##hoop
inder
ill
david
heftig
##ael
##fronteer
lijd
##ue
##toon
jas
jos
##ts
blz
ha
##erig
amster
##mpo
bos
roep
jij
ziel
lever
##ongen
##ogel
fantastisch
as
##mun
##tegen
ident
lee
##igens
##schrik
trilogie
##ton
overigens
thom
combineer
vertrouwen
trein
##lie
##ork
##zo
##pu
recept
lijn
##sprong
schijn
##vriend
poog
##mas
grond
##ject
##zeker
##entrum
auto
##lot
##prijs
##groei
laur
inderdaad
15
gevang
pro
##toe
enth
sprake
qua
enthous
lou
##ror
##ation
##ith
##ultuur
##heer
anne
peter
##film
##niet
##nodig
##kens
##onden
##iere
muziek
dis
verschil
uiteraard
##afel
##spir
##net
##strijd
schilder
##aken
ontvang
carr
##eken
##uct
bese
##iden
laag
vaar
##maat
heet
weder
soc
##ib
res
##own
opbouw
hoeveel
##ell
##ora
klaar
telkens
##vis
plat
jood
wan
##ivers
##pe
##schouw
dreig
koop
htt
slaag
snap
gebruiken
held
const
amerika
##leur
ab
rij
dun
##amel
##spraak
tevens
verlang
fun
vand
##ore
jezelf
##spireer
##ain
##gisch
wonder
##ssie
spring
##by
bang
##nee
wijk
fav
##aris
##ka
##pij
##her
inspecteer
brand
enigs
bewust
##oss
enigszins
voeg
##eren
gedrag
eerd
niveau
100
geslaagd
##goed
verlies
##namelijk
dec
sub
hor
ital
nic
##wit
max
##ocaat
beeldend
dame
ju
##hul
##oeder
fantasy
favor
##dur
##perk
da
grijp
vuur
behalve
ongeveer
10
##mar
drug
##stem
univers
##meer
motief
##nie
##mogelijk
##stuur
##schuw
##aff
kritisch
filos
invloed
cultuur
durf
rus
##za
arm
york
##tw
uiterst
##inger
##gemeen
##uctie
tempo
raar
##hol
##scherm
##ots
##span
zieke
immers
maal
##ng
speur
gemeen
hond
paap
##iment
boer
##enk
##schappij
klink
biz
favoriet
lo
##ulair
wal
kwal
##ek
##weef
aangenaam
origineel
fran
ware
aangezien
##neeom
##ius
##uim
##iger
beteken
actueel
europ
bizar
##basis
instantie
obs
##urende
dub
##inc
##ater
##asc
helder
gedurende
ing
intel
langs
wraak
noord
##lid
##hel
deur
##urg
grens
vermoeden
##plezier
##meld
##bal
198
##doeld
flash
##send
ontroer
zwak
advocaat
haast
kaf
bedrijf
thomas
##rip
##dring
contr
voren
onderwerpen
veilig
feest
klas
199
eg
tv
##ante
bak
eva
##ole
##erveer
##abbel
gre
verveel
##andel
##iff
verrassend
detective
michael
jou
kamer
##bi
##uleer
##groep
196
##ille
publiek
##ase
##agen
bor
besteed
12
hotel
plaat
patr
##bied
techn
serieus
##eeel
##ish
##gev
##ime
http
verdacht
ell
18
##wonder
##lep
duik
hil
##stig
##aby
##wend
##achter
young
mees
##zzel
halver
##durend
zuid
##par
les
omstandig
##gene
##slaaf
##icus
##ofisch
halverwege
beiden
##ulteer
all
##onderd
gelov
vecht
##aduw
voortdurend
oorsprong
apart
kap
##raken
##elen
speciaal
verbaas
uitgebreid
tip
##serie
##ideer
tegenover
negen
##ial
##dern
hann
##wen
##sten
totdat
pres
##iaans
verband
maatschappij
##zamel
sprook
warm
centrum
zwe
##redient
ingewikkel
goud
piet
tref
##schuld
##ummer
et
pen
##akt
##woordig
adult
gat
sol
##iam
##amen
erger
197
schiet
brown
robert
besef
pad
##stellen
##seling
winter
plotseling
straat
buurt
king
##stap
##werkelijk
hemel
##prob
##laaten
puzzel
carriere
doc
port
##lief
##res
jame
flashback
##bind
harry
baas
ep
kath
lind
##schr
proloog
bur
ern
##esse
gebrek
##ghgh
25
amb
##onisch
##oniem
slag
orde
illustreer
eff
commun
spijt
##ument
ingredient
##keur
scen
parijs
gedet
verf
waan
##wijk
hebban
overal
blik
ass
cur
##aum
##ww
##anger
beweeg
gezond
##rouw
schaduw
intern
##upt
link
mond
wens
gar
oe
reeel
breek
verrast
sarah
kook
londe
verantwoord
##tekst
cha
##iast
naarmate
##uceer
ernst
vict
##iegel
scherp
rondom
verhoud
julia
##oes
vlaam
neg
##interesseer
bank
##ator
##ise
crimineel
##kunde
kast
wolf
##udeer
beloof
engeland
getu
lijst
bedr
onderzoek
##waarschijnlijk
victor
##agment
acc
##izen
##ther
##miss
##ascineer
##vuldig
post
##zer
bedacht
##iets
##arisch
dankzij
gedetail
dol
inspireer
enthousiast
wederom
book
it
zak
##eet
##20
##beloof
meeslep
logisch
##figuur
##dan
##etting
feel
vaag
tess
mark
verliest
meeslepend
ageer
aspect
##otisch
##lotte
##regel
uniek
luister
simon
talent
woe
##atr
##itt
frankrijk
##oorte
resulteer
##erf
##urt
kamp
##yl
off
volk
modern
dubbel
##foon
beh
##schre
profess
leeg
##sm
versie
vij
##stie
blauw
verlangen
sa
var
zn
zeld
steen
aanslag
klass
blijkbaar
bol
kerk
erachter
arch
vaker
chaos
imp
moed
##oezie
##rec
daniel
hon
haat
jac
##my
prive
##komen
compl
##auteur
gevangenis
loc
##lach
##uif
schep
emma
vin
##anteer
geboorte
pap
bezoek
ess
groen
##staand
uitsteek
plots
contin
studie
baby
##lijst
##iaan
##ijs
aangrijp
##oces
zwanger
klassiek
rug
##bundel
kaft
boos
##ily
sociaal
betekenis
pleeg
jongeren
non
roos
##raak
##dom
##hard
##ieus
intens
pan
##rel
##cent
uitleg
onderling
##osis
interview
novel
drama
kwaliteit
##vast
##oost
oma
prins
krant
##kort
##oduceer
sop
toneel
##ward
complex
##ureau
##sterk
##leen
bre
lijf
bron
slim
##graaf
##ogram
huidig
intellig
vogel
begrip
ren
alweer
##vecht
volwassenen
vlaams
form
vle
##hie
opval
wed
##ose
vrijwel
telefoon
puber
cir
##jaag
##gave
functie
vre
##fin
##inee
##sland
vorder
negatief
del
##let
##visie
filosofisch
vervel
traan
##achel
kel
voorstellen
overb
proef
drank
##vig
wek
interesse
##ild
getuige
drijf
hom
##wijze
##aire
li
puur
wind
##kan
##pen
citeer
voed
publiceer
stuur
##staan
gegeven
##enteer
minuut
##otheek
vijand
koud
rit
respect
##dra
martin
kate
##som
bewij
##gesch
##arch
orgaan
populair
##dreig
##schiet
##ike
tegenwoordig
##wijg
asp
tuin
gauw
just
##tiel
chic
gaande
identiteit
constant
fel
hoek
##sk
##fi
erbij
leugen
drink
dergelijk
gu
##ouder
reageer
bloem
rad
##fout
##vader
minst
medium
##school
schitter
plotwend
gebied
##schrev
16
jap
vul
##no
##atisch
comp
##reeks
poet
jess
##olijk
mus
vir
##rit
##publ
at
voer
##kamer
##ott
overtu
milj
sympathiek
wen
was
##eind
##rust
##volk
##abeth
winkel
rand
##book
stoel
passie
rachel
##wongen
##ement
recenseer
overbodig
lu
verkeer
gest
amper
##que
alice
##ari
reken
##ikel
##bli
pil
sal
##part
gezel
leon
194
hak
##han
##ama
glim
##uctuur
es
not
##uf
sneeuw
franc
europa
##zuig
##voed
verh
##ensie
tim
##agon
##vlucht
eigenaar
rommel
debuutro
##heers
subtiel
##lijd
##race
##orge
##are
##reis
vrolijk
##spoor
exper
bom
fascineer
pet
##mon
##kast
##veld
##geet
##gewoon
suz
televisie
17
setting
step
##oneer
##arm
levend
##teer
##enig
genereer
partner
beslis
zicht
##stad
deels
geheugen
##confronteer
##oil
overeen
2015
##ule
##var
##urd
schets
mezelf
fragment
##geschied
hit
jacht
##ijg
verbonden
universiteit
franse
gooi
kabbel
mad
##moeder
##empl
verliezen
lar
wak
term
iris
kerst
cam
noor
rot
##lo
##zijn
##hoe
##ity
2016
geinteresseer
opzet
schok
andre
13
bot
oom
scheid
##okter
##rika
locatie
##emplaar
so
erf
real
afge
##ificeer
ellende
boom
##reken
vervelend
kil
##duik
##gew
##verm
west
##ersen
##agisch
effect
##hoek
uitzonder
marie
hannah
##our
degelijk
dring
##sson
duitsland
tin
tur
stroom
flauw
glas
hout
##nd
erik
afwissel
flap
intrige
trouwens
continu
mal
oa
riv
brits
expl
vierde
bibli
vinger
relig
psychi
sym
##genaamd
honderd
mer
##roemd
##cel
##oorzaak
opa
stort
conn
##seud
gedachte
##danig
jur
ruk
taak
tak
##studeer
##denkte
ban
wis
##hoog
jane
pseud
opvallend
##daag
##ingen
zodra
##apen
##utel
confronteer
##well
##pressie
##missaris
mc
veer
voorzien
##ureer
art
jaag
##iens
spoil
##weet
##meisje
195
##izend
project
##schrift
intelligent
nat
##fan
geliefd
absurd
code
technisch
50
##naar
##ty
##olk
tragisch
zweeds
horror
##ri
##ance
##ight
##ald
blog
elf
teleurstellend
schilderij
hoeveelheid
overtuigen
30
but
muur
##zone
allen
moeizaam
iet
vi
wandel
##itair
charlie
##cohol
etc
##aktijk
burger
##201
mos
##zus
vanzelf
alcohol
kleed
vandaan
verkeerd
##ette
##iswaar
erotisch
##ipt
##klap
dramaa
verslag
schuil
zul
##ory
steel
schip
##imum
droog
bereid
adam
uitgebreide
sympathisch
##ny
##weeg
##wijfel
##ino
weliswaar
steun
eng
strand
originee
##uiver
ok
rijd
##mens
##wijd
eentje
bewijs
spion
eliz
##westie
##merrie
##vestig
pool
vat
##noem
##rond
bril
rouw
wet
##bool
##ings
##ola
kruis
structuur
nachtmerrie
jer
jun
noot
nummer
degene
##eerd
##bert
##kamp
##gele
wild
cliff
paard
corr
ser
##onk
stof
welk
markt
##getwijfel
bond
dokter
##netje
##jo
seb
sara
kaart
log
##ogramma
hersen
jal
rich
sor
##ivel
##zak
##ane
##wezen
##groot
aangrijpend
jud
jenn
maan
##oul
##ience
2017
honger
kay
sig
sand
##hor
##sleep
##ira
##essie
zonde
##imax
financ
hilarisch
ietwat
##ario
##ids
tover
bekor
pieter
bill
zacht
##port
##het
##bar
vergeet
schat
dans
##ico
##oductie
verraad
zelden
geinteresseerd
14
gezien
plus
slaaf
arts
beroep
communiceer
cal
fa
ul
##ana
##iee
grof
traum
nick
uiteen
straf
##hoo
##iest
wezen
duivel
##blik
kruip
pseudoniem
che
nam
ramp
##wil
depressie
volkomen
aspe
poetisch
religie
dim
po
##ret
##richt
verkracht
##geval
##tem
meid
misbruik
exc
reeds
soep
##nog
zoet
breed
##athan
park
observeer
symbool
cas
rauw
wijn
##nader
##hart
##ini
##oordeel
daaren
##bijt
kern
room
##kind
##turn
##aalf
##bei
##brand
vlees
bericht
love
accept
45
fat
gun
kwestie
mate
poezie
##dy
##hen
blind
##lands
##thriller
presideer
##ox
##zw
##onaal
twaalf
jacob
vleug
chickl
sur
##rafel
##band
appar
italiaans
##hil
##chtend
storm
neig
chron
##cript
##hof
prom
##umn
marium
2018
biografisch
linda
tens
wiens
##luid
##che
veron
leger
meet
twist
diens
huur
##isum
monster
spoiler
cat
##boom
##eteer
recent
laura
novelle
##hoewel
11
fre
##kop
##ern
##reur
##realistisch
##spot
stevig
##vermogen
bibliotheek
tenslotte
lok
##aus
##daar
##ijp
theorie
##plicht
ijzer
william
zulke
bene
ya
##neer
##gaand
##boei
##boog
alhoewel
##gebied
##schets
reizen
advies
fem
ri
tante
naz
that
noch
dosis
fen
hans
##daan
##elle
##aly
##reet
quote
##puter
onderlinge
daarentegen
can
ko
mur
##sh
##oken
defin
vers
##anda
thr
##acteur
sek
partij
loof
##gegeven
nauw
jonge
extreem
##zoch
##perkt
russ
verdachte
##du
inner
metaf
##ussel
cons
sleutel
ly
##line
##gorie
##uken
rese
grap
##aditie
vandaag
elizabeth
corrupt
ton
##type
##bn
##ita
onderneem
gedwongen
potent
joe
lid
proces
miljoen
metafoor
ler
##debuut
##ocus
##ategorie
middelbaar
##scene
##mijd
##daat
##burg
##derij
belg
##cussie
innerlijk
##78
allebei
graf
bestsel
curs
abr
kip
raz
##steer
##eerst
gast
traditie
##ilieu
ak
bad
jouw
meld
zwijg
praktijk
##ofte
##structie
research
hall
sus
wapen
##ya
##ench
##erson
bern
##meester
patient
##ode
##uster
prot
brussel
vlug
fraai
##fictie
chicklit
raam
##wor
verenig
alth
beurt
draak
##ife
bon
cy
kim
tafel
##steem
hecht
priv
duo
belofte
frans
##vreemd
science
matt
wall
##ire
##wn
##aars
computer
climax
scand
##stra
offic
nut
##vor
##ijfer
terror
commissaris
##winkel
rivier
leraar
sas
##geen
stiek
schoen
##obi
mac
##hriller
##orde
##olo
zoiets
##sterf
##arts
ruzie
beklem
mir
stuit
sche
ann
read
duizend
##bereid
isabel
jullie
##pres
doceer
stiekem
vond
velen
##put
##baan
eraan
##ump
missie
triest
ronduit
keuken
kwets
##snel
medisch
professor
ac
dar
hof
must
##nl
##rok
##titel
##intr
##lect
overzicht
spir
willem
treed
klap
column
isbn
standaard
ambitie
fer
kol
##ax
##ham
##vak
##ente
afscheid
meg
koppel
beslist
##probleem
sk
##natuur
##good
##paar
##ape
vloei
mager
french
##staureer
club
pest
mass
nora
zing
##lander
##ile
##zucht
##vrijd
heks
stief
wreed
varieer
vrede
##hoofd
cre
lin
sport
spiegel
griek
##ghghghgh
experiment
##alyse
mia
ochtend
##uel
##kunst
##waak
bezit
schakel
##opbouw
##droom
##onderzoek
neus
scandina
mill
##aut
##gar
ref
##tueel
autobi
rose
proza
ego
internation
bus
##ca
##omp
stoer
##ondanks
arth
##uck
gerecht
##halte
##quent
afwisselend
autobiografisch
dor
ven
##macht
##ford
##bur
##oest
##strek
##scheur
schot
##ober
snijd
2014
##oefte
althans
mun
pit
##alie
stal
##stein
brun
##treed
colleg
ham
hug
huil
pal
ron
##uber
##for
verleid
##ison
##gezoch
menig
concept
mol
oh
##tement
appel
gal
milieu
ob
##lum
##elie
##onie
vooraf
##irl
##ectie
cla
mythe
chris
corn
discussie
woede
suzanne
arthur
wees
##igreer
##omisch
##oliek
ther
sleep
klus
##ioen
russisch
hy
lies
vs
##las
##lop
##xt
##schakel
##illa
brood
##blog
tenmin
desondanks
regeer
zwem
wo
##pens
##rey
manus
uiterlijk
##vredig
tenminste
hanteer
##jant
inf
##schot
levens
bloot
ontwikkel
frustreer
fanta
##probeer
doek
econ
mi
verstand
gescheid
lux
categorie
lap
mod
rid
verhe
alsnog
##reden
bijbel
##und
##blad
scar
briljant
belgie
ment
mul
##ye
##ooster
heil
schaam
regen
graaf
duim
dwaal
italie
patrick
soldaat
scenario
978
cel
sil
##ocht
##misch
verkoop
waarschuw
##perspectief
henry
syl
##liefde
onderzoeken
jessica
##partij
manuscript
##uvel
##vant
oost
##afe
##ipuleer
##meet
oorzaak
##kleed
carl
##flict
##langs
behoefte
##agonist
ogen
ris
tja
##uff
##go
##wicht
##wets
stat
##reid
miss
evenals
schrik
##ergie
amsterdam
35
fit
kal
roer
##zoon
##jer
##visch
##ano
dek
alf
##ila
rem
grie
arr
exemplaar
lucy
typ
george
toer
##acher
meneer
materie
identificeer
weduw
chronologisch
vondst
bind
good
haak
jim
ra
wer
##uari
##kond
vertel
##elevant
zorgvuldig
##publiceer
21
keel
sug
##sma
##dood
tocht
ouderwets
ram
sj
up
##mijn
##mid
##bor
##wind
onlangs
princ
##vaardig
strak
##vlieg
##hanger
complot
nonfictie
soepel
ef
sens
indring
opereer
##isis
##ary
leen
mevrouw
##ull
troost
cliffhanger
aug
wee
zand
##kw
demon
##ons
##leden
##oll
spook
##ager
veelvuldig
plant
##gelegen
appartement
24
lat
##det
##ijns
aline
test
##ami
maur
uitermate
crime
thril
cass
sow
##huid
##bie
##bureau
naief
##vallen
##plan
psychisch
johan
roy
balans
dwing
josep
document
essentie
eis
eten
ky
mist
##ron
##zeer
energie
##gezel
##genen
this
klim
##lerauteur
##vreden
collegas
ras
##ef
##ceer
stam
##oun
restaureer
##ieso
belgisch
decor
dijk
##eis
##hou
##beer
##spiegel
##ught
##ipe
carol
stephen
ult
bureau
mas
##inisch
##arr
leden
##anceer
razend
sowieso
ca
ever
koe
##meng
##dw
gave
##apper
afschuw
afrika
plank
klok
##mans
2013
plaatsen
##ski
sorry
scandinavisch
internationaal
fact
focus
lust
##ruim
##moed
hetgeen
ener
##steel
grish
conte
conflict
dilem
##bsite
abrupt
grisham
grijs
hanne
kok
laad
may
##uter
##wood
##ston
##tjes
##kell
gericht
planeet
##naamd
##issa
##help
impact
economisch
award
bord
kor
##invloed
##schat
##reg
##bew
onderhoud
##element
austr
obsessie
vincus
sebast
##90
##chel
versl
##ress
mankell
##ifer
##ifiek
2010
acteer
besluiten
niccus
essay
bewijst
ogenschijnlijk
##lust
##ml
##enen
##itaal
star
uitgave
##team
##ction
##draai
vloek
geleerd
heers
militair
bestseller
astr
##zee
##kaart
##gooi
##bak
website
greep
##genre
nabij
slap
vlaag
##gemak
plattel
##twijfel
woest
bele
mix
out
tand
##name
##uus
##hout
prent
trots
chin
child
arg
##izoen
##ather
##grijpen
2011
##est
##last
##nem
##oden
##bus
verhuis
##bed
##trap
jonathan
##sluiten
##ally
enthousias
platteland
lug
oer
##nom
oprecht
ontspan
##electie
##ada
minimum
##organ
introductie
##adeau
poseer
spirit
##vredigend
dwar
son
sab
vals
##eum
##ren
##col
##ged
##idu
##ventie
##ocieer
##atrisch
sask
bob
fal
hap
##uvre
##kleur
##geest
##inspecteer
vergelijk
##ona
brug
minister
simone
bewijzen
ur
##eg
##luik
vern
##spin
nadeel
##sequent
193
gerrit
redactie
##hangend
##boven
forens
panisch
lied
zoe
##dogen
##read
##voldoend
##avond
knoop
fotos
gruwel
morgen
indiv
walter
green
protagonist
40
kit
koff
rut
inval
##igh
spect
spaans
##strueer
##laught
louis
##nomineer
bas
maff
vet
##luister
##sa
##woest
##oede
vang
##schip
uitvoer
blank
##steun
manipuleer
##izer
lucas
##ossier
psychiatrisch
august
ba
brein
tab
##zend
##bank
tem
##omeen
##schenk
volop
##drink
straal
##ioneel
kantoor
medic
##twist
katholiek
adr
boot
ech
kinder
##mond
##duur
##bet
end
##andeer
mary
kei
amerikaan
ironisch
parel
parad
julie
visie
##pest
assist
enthousiasme
individu
noort
relevant
##gan
##dote
alvast
stijg
theater
romance
krist
seizoen
openbaar
verboden
specifiek
judith
dimensie
60
boord
fys
kust
tor
##lin
##yer
##ani
##rest
##entreer
bruut
stere
##ney
##snijd
concentreer
ontroerend
minstens
##bewust
aud
girl
run
##aden
##ko
##cover
gefor
bepaal
##schaf
angel
reacher
##vaart
##athisch
##breuk
principe
22
##lim
##honderd
##ande
##heim
review
grot
##oduct
beleef
schrijn
syn
##ekdote
klasse
##recteur
fenomeen
geforceer
23
cast
koel
mail
##rice
##mo
##pan
##bol
##beter
verpleeg
geur
anekdote
##ika
##anna
##iciet
##pliceer
bodem
elean
show
zweden
cirkel
japans
francis
saskium
bitter
hob
okt
she
von
##informeer
gede
gedraag
##ordig
prikkel
##oets
##briek
slordig
helena
##zichtig
##tuin
barb
controle
kapot
links
##relatie
forensisch
ach
ball
ei
mach
##mag
##pol
##iep
enof
verder
aanzien
##spreid
##ieke
vlam
trans
under
##water
scenes
rotter
##duo
luxe
koffie
ho
kaar
tik
##feest
gein
##alist
analyse
komisch
##volueer
##delijden
coma
sleur
##dochter
redacteur
##creeer
presenteer
artikel
luguber
oktober
dapper
isl
pier
vel
##loon
##ider
##god
##pt
alter
##vent
revol
marg
streng
relatief
##masker
##nietig
homo
gestoord
hugo
bou
kun
neef
##sleur
##fict
##oochel
##heil
toestand
houding
##ograaf
stapel
##html
market
financiee
job
liz
##samen
##oers
##ris
##mann
##stoor
tevreden
##iloog
##ressie
weiger
trap
##okkel
joy
##preteer
zuidaf
epiloog
realiseer
##ologe
griezel
80
face
nor
san
##bad
##olie
##techn
onderwijs
tijdelijk
##oft
consequent
klooster
##seks
amber
##straf
anti
vermink
##ynn
recherche
oeuvre
ultiem
chinees
hend
hay
hype
mit
vamp
##kar
##boel
##wee
##anch
##oleer
##ough
personeel
##istan
eventueel
boy
arme
##ffff
maud
islam
ebook
tam
touw
##mes
##aw
##zz
##deer
##har
##wet
beck
##verl
##agr
prost
china
##fris
bestaande
charlotte
##etta
with
##tegendeel
kasteel
fatum
##fiction
beest
gord
##ras
##moei
##dier
##dank
##week
integendeel
##ders
jean
##agel
##spek
ideea
adop
antwerpen
##rael
what
##twee
hanneke
adel
cop
kaas
lena
moer
mike
por
site
##ld
##stof
##ament
##ago
rev
##weid
down
bovenop
duitser
connectie
heilige
dwars
bepaalde
apr
ier
dement
inzien
besch
beken
boeken
streek
##schotel
rebel
##beid
##ipp
klant
spanje
theo
chan
##bloed
holly
contrast
borst
compliment
paper
felix
eleanor
bie
cadeau
go
happ
ruik
zen
zol
zout
##eff
##ning
##dik
##cy
##jan
##geb
##aktisch
fris
##unsteld
biologisch
gekunsteld
portret
behulp
jennifer
bende
huiver
lily
mr
zuur
##ey
##geld
##fen
##beth
grim
wille
sommigen
##construeer
##affel
lokaal
maffia
bart
evolueer
rap
sir
time
##met
##zamer
##kon
##tover
##jam
##19
##stal
verde
optie
##urk
prop
langzamer
myth
noorden
##introduceer
dilemma
langzamerhand
boe
how
mama
natie
toren
zuster
kanker
##temin
subl
sep
##proces
keizer
stef
intiem
lotte
expliciet
beneden
definitief
terrorist
weduwe
spectac
fysiek
fiets
loes
rat
selectie
##ival
enz
beperkt
##ident
meedogen
##utie
##zichtbaar
##proef
patric
books
context
barbara
april
hoed
ts
##list
##aver
##fend
##pop
##omaat
spot
zelfstandig
rome
##ustrie
scott
2008
##witz
##helder
egyp
associeer
##detective
meedogenloos
kas
lof
lud
ring
teek
##situeer
##hod
##etter
opstand
one
onschuld
waarneem
schim
vries
praktisch
mei
##adig
recl
2012
robot
treffend
professioneel
gezellig
##rokken
spectaculair
golf
lis
race
zond
##ioo
##raffel
##top
##10
voorkeur
overheid
medelijden
brok
##ese
klik
##clus
##spring
##cret
70
coc
cyn
##ezone
##men
##ta
##haar
##iner
##angst
prov
afwezig
gerust
christie
christene
europees
##centi
subliem
liv
muis
nicht
osc
zucht
##nik
##don
ingen
##stort
verzoek
opt
bewezen
ontslag
wantrouw
schreeuw
baant
jason
museum
tinor
##apeut
dir
est
keur
put
sanne
vos
##kaar
##centrum
##hy
##vier
##weten
##erik
hekel
##amant
dante
##wed
gelief
relaas
systeem
##warm
##presenteer
jaloers
##blogspot
gerritsen
dak
life
roof
sat
##trein
##want
opzij
##schuif
##andra
##ikatuur
programma
##istiek
##uldig
twin
thrillerdebuut
zwerf
psychop
##wekkend
fiction
schijnbaar
cursief
mattias
##dwaal
##samenhangend
moeras
revue
willekeur
cafe
ry
vies
##dorp
##bod
##wens
##iegen
datum
onbe
##versch
##urs
##imeer
##illy
##braak
genees
marok
##key
diepgaand
##neemen
##programma
parall
robin
louise
arche
zichtbaar
hitler
psychiater
##worstel
verdedig
oscar
camp
dre
kir
rod
rud
wol
##geer
##dium
inclusie
##stol
geh
##briel
kenn
##veilig
mari
karikatuur
flor
##gereer
betrokken
##sproken
gelegen
##rikaans
politicus
house
sindsdien
jule
##tember
griekse
kader
luid
math
##neel
##ring
##pad
##held
##vogel
##iti
inc
##alisme
voorzichtig
##aakt
aff
train
directeur
##aude
##straal
psycholoog
justitie
##ouders
leonard
beleefd
september
reclame
by
cle
ide
treur
uber
##di
voorlop
##oten
schaap
grat
afgelegen
##slacht
truc
marit
stede
##compliceer
special
feelgood
femin
kyra
ruth
voorlopig
bv
dam
jaap
lad
pens
sint
##wis
##ateer
##deren
spul
leo
##steen
##dachte
##kroon
##flo
2006
world
oliv
bald
##markt
bedrog
radio
moslim
##journaal
500
beer
ev
meng
##norm
##dosis
##oegen
##stijg
##iette
story
oosten
##ason
##unn
braaf
thee
##umm
somber
##uiker
##boeken
##strik
gemiddel
potentie
##www
jaloezie
300
bir
cijfer
mic
rac
tent
wijd
##raat
##risch
##paard
##hu
##wille
##ije
deflo
stom
##idge
doorsn
anoniem
pri
blok
kring
emp
uitgesproken
regelmaat
field
150
##mark
sciencefiction
gemiddelde
back
ruw
veld
##inum
inte
vera
##ung
##bedrijf
elena
bram
##bijster
##wijder
zweef
##boy
aangegeven
massa
##technisch
bijd
gee
lun
rijn
tas
##mber
##por
##hau
##att
verbijster
##igheid
bijt
welkom
product
mes
britt
tran
verloof
wegens
##ember
##stroom
##cca
##ahl
verbaz
euro
beseff
##hilip
verheug
alinea
paperback
zenuw
doorsnee
dossier
evan
lieg
vu
##ser
##dd
##ju
##jar
voorbij
##lijks
ella
##ugde
front
##mail
##praat
steven
agat
social
oefen
##vakantie
autobiografische
marketing
baantjer
parallel
baar
hyp
hint
lip
leeuw
naakt
sier
ty
wauw
##noot
##fort
##ben
geel
##schilder
##schuldig
omhoog
##beveel
##osie
##broer
elkaars
dusdanig
##ardeer
strip
stella
finale
technologisch
##publiek
jeroen
trauma
##vorder
medicijn
mythologisch
bu
camer
han
hill
hinder
lam
nes
raaf
##zon
##ding
deb
##ilia
schouder
bloei
nader
##uts
kenmerk
eerst
interpreteer
##zink
##mach
liefdes
192
secret
presteer
betal
sarc
intellect
ritme
wallander
scarp
sensatie
vampier
##lan
##kaan
##feer
##dus
##pijn
##wan
##ijzel
##innen
albert
##iethriller
##des
voorkom
overdaad
black
drang
zelfde
##zett
martel
heleboel
##ioneer
##getrouw
kelder
richard
gratis
dal
nagel
ray
vuil
woud
zil
##giet
##jongen
##vrij
##iester
ins
vervang
##lepel
diezelfde
plak
##werken
##ieda
##legaal
geduld
##vormd
betekenen
traumaa
bijdr
daan
esc
werp
##sap
##zwijg
##erger
degenen
##sto
##leens
aaneen
maarte
overeind
spat
##ikk
##spl
##osc
arn
gemoed
betaal
##oefen
gespan
virus
verhuist
sekte
28
mob
nare
pale
tamelijk
##laad
##logisch
##ique
##dun
##juist
##ateur
##gezin
stor
##schep
bijster
gram
##blaas
kroon
comment
exact
secon
##belang
noah
vluchten
ross
india
##isseer
melanch
verbaasd
##amenlijk
tessa
veertig
juni
logica
jenny
risico
kennelijk
##machine
dy
ivan
koffer
##fer
##ijm
verblijf
bepaald
##oman
omvang
##agn
volstrek
gene
bocht
crisis
smith
##ancy
##crim
correct
##varen
kilo
##ould
acade
woestijn
geinspireer
facebook
seconde
2e
90
fir
iv
tar
##nacht
##nood
##uizen
##dad
##vouw
##boot
##etsen
##staat
##verhoud
##been
##ofiel
genade
##kennis
##ipper
minste
zinder
flora
##denkten
##aye
##pro
##laatst
##jaard
isum
sher
getuig
tomas
##zorgd
moreel
gezamenlijk
sandra
murak
mentaal
joseph
revolutie
affaire
cock
his
hop
ner
pik
wolk
##mor
##ave
##ket
deaver
##gehalte
erken
goeds
##aga
##uweel
onthoud
##traum
##oemde
##knap
introduceer
##exemplaar
2009
astrid
boel
cap
jor
kees
rani
wim
##iver
##roof
##ho
##hoef
##stip
##strijk
verfris
##geschik
##verslag
ofwel
##spoel
els
genot
convers
klinisch
langzaamaan
ped
##combineer
##press
##ennium
melissa
epos
zeldzaam
formeer
circus
object
indringend
hendrik
haag
like
mann
ninum
path
rook
##nummer
##zweer
##vin
##buur
##ender
##elly
verme
afspraak
##beantwoord
##sport
##uls
##icap
##esk
mijns
choc
cross
##iana
december
westers
uitvoerig
commentaar
gard
lab
tol
##liter
##jacht
##50
##era
verover
heuvel
##inda
##ctuur
bruin
jamie
quin
wortel
fotograaf
opgevoed
more
bedriegen
##staande
japan
verhuizen
larsson
augustus
happy
call
kou
mort
ox
oven
pel
past
wagen
##gas
##fe
##hi
##gestel
scherm
meyer
tob
##bestem
##stek
vlinder
samuel
weinige
scrip
##avel
ruil
##krom
kwart
##ubbel
##etti
offer
typeer
audrey
zondag
ingenieus
##haupt
are
centr
jake
joost
nar
poe
ret
roem
sem
##nam
##magen
##can
##wandel
##inent
gevormd
schuif
gret
tof
##afer
##leraar
konijn
nazi
zuidafrika
adoptie
uberhaupt
volstrekt
high
sant
zeef
##doc
##hent
##itri
verleden
bestem
stoot
schud
schetsen
web
##oordelen
nuchter
##grid
arab
flat
sex
psycho
anton
tommy
louter
religieuz
##ghghghghghghghgh
model
##oscoop
dip
eth
jen
lui
ni
sent
ta
waag
##rad
##tz
##way
##94
gecompliceer
ted
##andideer
gabriel
priester
##trent
tracht
##keuze
emily
authent
para
finn
illusie
formule
hitte
amsterdams
koester
murakami
converseer
##afereel
big
did
dont
koek
lay
tast
tafereel
uw
way
##ness
##oy
##60
##stoot
verslaaf
beoordelen
##omi
##alet
onrecht
schuur
##akker
##ctor
prooi
##genoemd
blaas
karin
arbeid
strop
scoor
amus
vormgegeven
autisme
volwassene
##uppel
##kundig
##ylan
explosie
richar
poir
stereot
bekenn
authentiek
dou
day
moo
rick
sin
zuiver
##naal
##mm
##aster
##zi
##fot
##buit
##inie
##ato
##oriteit
onmacht
overspel
proc
##genoeg
misdrijf
##acc
magn
mars
2000
##vaard
verricht
febr
cruc
##gericht
##allen
donna
2004
zwartwit
christop
greg
vreugde
gedegen
400
case
hoer
juweel
kist
os
tan
tir
##dim
##haak
##huur
##13
##aarde
insteek
##gez
stone
##ologie
##ida
spin
blond
jonas
##vember
knal
henning
##cludeer
autoon
rechtvaardig
##iano
2007
2003
zielig
1960
boter
officier
claud
empathisch
poirot
dyn
fall
has
lie
ril
sad
vik
wood
##ziek
##vle
behoud
stok
omwille
##uteer
##blok
marion
struik
##denkt
myr
autistisch
november
barst
paula
##thew
##smet
virg
margot
doos
gans
oce
tikkel
##zand
##goochel
##tast
##jon
##wal
##ery
tege
maart
##oute
##enseer
##behalve
##becca
naomi
elis
##drama
slijp
genoemde
##engte
##achelijk
##knip
##ova
app
##winter
geslaag
armoede
masker
assisteer
scarpetta
mobiel
##trauma
cruciaal
tikkeltje
tegemoet
fac
fase
guid
jill
mik
rock
suiker
wier
##leer
##rieda
##cie
##cijfer
##hode
##eline
opeen
eric
bijeen
constructie
claire
amy
adres
##materie
actief
zombie
eddie
moraal
rosie
##kund
haver
about
filosoof
portug
##eindig
tony
ridder
arrog
paradijs
dick
email
gig
ian
iers
laar
lil
moon
nob
##sier
##gids
##daal
##via
##bom
##ieve
##streeks
##orn
##aleer
##othe
overgang
annie
##unie
##gende
##iste
##spaar
kraak
sup
flinter
##sympath
##auff
actrice
hollander
##stempel
sprookje
archite
cursus
venet
##houden
cynisch
psychopaat
script
arrogant
aur
dig
hiel
ii
lood
niel
pir
sic
toed
##pos
##pool
##11
##ero
dem
##chem
##itr
inkijk
##ony
beheer
##gestie
##leuk
zeil
##uren
##aret
##olisch
omtrent
##appel
##speur
herhal
##inson
##com201
haw
##elli
##stapel
##uffel
status
australie
sebastian
roddel
##literatuur
februari
##auffeer
bent
buik
cook
evie
fles
ip
lim
nom
villa
##lee
##nut
##riet
##uy
##ziel
##80
alom
##alniet
##aanderen
##besl
##datum
##ado
sluip
##trof
concludeer
##accus
##ocraat
client
##klas
binnenkort
middag
getal
dankbaar
geestelijk
patricium
##sympathiek
game
gijzel
kogel
lelijk
##eigen
##sle
##uier
##weld
##wond
##storm
##stok
##levend
grace
prote
broei
##broek
gewond
chir
##nauw
roll
januari
middels
christen
motor
##tegenwoordig
kathleen
breuk
noors
prominent
river
suspens
ambitieus
##gedwongen
dystop
bj
fut
ka
nul
rene
sander
viv
your
zijd
##niveau
##ube
##zwaar
##gal
##voren
##iebel
ingrijp
##start
aanval
##hem
doorzett
gril
hoof
##apie
brig
##ugh
##waarloos
##aca
##zine
##periode
##inair
doden
##ava
##doende
vork
automaat
vermeer
2005
charmeer
agressie
christian
##elings
jasmijn
universum
loy
delict
##partner
zilver
jak
lengte
rab
##aine
##ky
##pass
##ba
##wr
vermiss
teenen
bekl
voorwaarde
##vertrouw
jes
##ound
##reuk
##amisch
spl
##aph
##atiek
zijde
kruid
##mede
sec
harper
juli
juliette
desalniet
cole
hazel
tvserie
verveelend
papa
info
hobby
mitch
melancholisch
1e
faal
far
goe
gil
long
nap
oord
sel
sing
tat
ut
##loof
##koud
##ktr
##fa
##fijn
##biz
##itz
##ituut
hevig
sticht
stock
omgang
##idd
schrij
##ula
slik
geweten
from
nest
sean
##auze
##avia
##bouwde
harte
##halen
##fragment
2002
vaardig
##witch
turks
kippen
schemer
suggestie
marianne
##project
vermeend
elisabeth
doorzetting
boo
cath
its
lyn
mn
mont
nr
pin
weef
##ew
##iber
##kle
##fam
inzet
##stik
heus
##alig
##gegaan
gras
ofte
##drie
##ical
##irt
##ody
genoegen
chanteer
nek
zwits
amateur
##streep
##hoorn
smeer
agend
christine
who
##holm
portie
internatie
aangrijpende
vertelperspectief
wantrouwen
amuseer
caz
fo
jans
rite
##rr
##rat
##gun
##too
##borg
##yle
##waan
verval
vertrek
##onken
jessie
danny
##traag
##geefs
##ocal
##talent
nederlander
psyche
psychologe
myst
profiel
dwang
wankel
rijs
bomb
connelly
##barst
excentr
bruno
caroline
prostit
guido
fleur
gids
jens
moor
rog
wik
##uch
##tre
##durf
##ete
allang
##onne
staal
overweld
##reder
bijl
afrikaans
##bevredigend
mijl
##bron
vlaanderen
##waarts
##abet
smul
patt
patroon
garant
times
erika
kolonie
maurice
olivia
##dadiger
stereotype
gigant
##besloten
loyaal
oftewel
excentriek
cium
gul
him
kool
morgan
ot
weeg
##lant
##sis
##mily
##zing
##cule
##hoff
##jet
##voet
##12
tex
##scherp
##idason
schaak
##asi
##zeil
reik
gray
prim
##oete
##beck
##adv
##dridason
##waarschuw
herf
belov
exvriend
supers
##systeem
##vloek
##strom
##kruip
cobe
verdiende
geniea
roze
slotte
domineer
have
##toestand
constante
bedrieg
taboe
34
full
nim
us
##lok
##soort
##mus
##ange
##geplaats
dief
zeur
##arrest
ween
##antel
grand
person
drastisch
##agedie
brad
##brief
##aft
gener
##trilogie
herstel
belachelijk
marcus
##iveer
hardop
julian
luca
lucie
olie
lauren
impuls
libr
excuus
stiefvader
refereer
alterneer
hollywood
geliefden
chocol
bots
daal
hul
hut
hals
londen
litt
neur
rav
tre
waal
##fascineer
##pun
##woud
##wolf
##oeid
verstandig
tevoor
##gekend
##gevoelen
##verteer
diegene
stee
aanvaard
##indo
schuw
anja
##zek
nad
nadien
grootouders
tril
troon
dict
mara
##grim
bour
streef
##iziger
glad
law
jasp
##schuldige
effectief
financie
egoistisch
therapeut
97894
suggereer
beschadig
centrale
oceaan
vermissing
##ocalyp
herfst
tevoorschijn
26
cec
kus
kwel
mcc
til
##time
##da
##doek
##werf
gebouwd
##ark
westen
##uss
drift
broek
mijmer
##geluk
##sedeer
karl
polly
floor
##auer
knip
parker
##orps
vermoeiend
gekleur
concur
alexander
privedetective
andrew
promotie
##ernij
zolang
verloofde
dynamisch
##kundige
suspense
##familie
bil
beek
bont
nij
naad
##li
##ruk
##moment
##kap
##pot
##stam
thijs
##arton
karel
strik
verrad
prem
##aham
rechts
zwaard
elektr
##erts
aarzel
motto
disc
nico
httpwww
hanna
gestal
jung
logeer
##koppel
testament
pierre
tentoon
mystiek
dod
fort
gent
lol
##sal
##doem
##ph
##haast
##bul
##elt
##stoord
gehalte
bevredigend
methode
schenk
##hef
spaar
##under
##spil
droef
##anny
##opteer
terrein
trip
hercule
diamant
marj
##bericht
##knop
charme
moira
concreet
immens
curaca
##atrice
joyce
racisme
venetie
dystopisch
desalniettemin
agenda
prostitue
27
eve
honder
loer
pod
summ
tint
vide
##eiland
##nor
##kost
##hoed
##station
teweeg
##verre
##verander
spont
lef
grip
blader
ontbeer
##aangenaam
naieve
##open
terzijde
hunker
##obsedeer
##trust
tragedie
marco
##gronden
comm
kleuter
##oke
clair
schrift
rechtstreeks
paris
harm
##uba
##uzz
##letter
verontrust
97890
##kwart
austral
##geboren
dirk
##dimensie
patterson
spontaan
cool
city
cather
nost
song
tachtig
##sens
##gent
##cker
##inia
gearrest
bestel
beslag
bejaard
##gespan
erlend
stress
##arium
##olet
doorgronden
afg
dronken
mijzelf
thrill
##igende
##draaf
conventie
magier
diana
##klaag
##outube
pretentie
tell
achtste
rosa
houvast
michel
melk
josip
dave
doll
tovere
billie
surin
canada
##ount
verhuisd
sabine
tempel
ideaal
##tooid
nostal
gas
hu
kill
vent
wang
##ez
##gast
##haat
##erecht
deeg
beaut
##deur
aanbod
##ars
legende
reus
reput
##adopteer
##droog
achterwege
tris
sterre
##plot
exotisch
never
clara
##krant
legend
monoloog
https
pietro
saus
madele
serv
maandag
billy
dimitri
mustread
sonja
kunde
arabisch
sentiment
struikel
##levenden
utrecht
little
ay
aal
coor
doof
gom
kam
kandideer
lenn
ode
row
taart
##rig
##azine
##dis
##oosten
datgene
##gevaar
ervaren
##old
##schwitz
##ouch
##ted
##agne
anto
blake
sne
dennis
auschwitz
them
##essa
##grip
##plaat
verschillen
adler
nocht
peper
opgebouwde
getrouw
standal
christus
regisseer
vleugel
rammel
klimaat
##karakter
bijdrage
dicteer
curacao
erlendur
cent
gi
gide
maag
py
pien
rank
tang
wreek
##ran
##kie
##kauw
##ør
##ijker
bescheid
##imuleer
there
##broken
gewicht
##acy
marc
commer
flynn
doch
fey
cricht
sprong
veranderde
isa
holland
college
when
nicole
walg
##keurig
munch
##organiseer
bieb
##verschil
tobias
nobel
protest
superspan
nostalgisch
nochtans
burn
cul
cob
jar
jord
kooi
kem
pur
piep
sof
sofisch
sally
tij
vonk
wiel
zater
##raa
##ux
##kuil
##gaans
##psych
##hond
##erco
vervallen
hek
heim
oproep
schop
schots
vrucht
##istool
##aanval
##illustreer
genoot
##gauw
streep
##woording
mindere
##gerecht
writ
##haus
##thema
##theorie
##municeer
##lidge
vatic
palm
wervel
romeins
catherine
reputatie
madeleine
standalone
crichton
zaterdag
bun
gis
lor
nl
raas
ronde
tong
##lyn
##iot
##ious
##racht
##munt
##pik
##haag
##hum
##18
##ijer
##stoel
verle
alma
algauw
bewoording
##lectie
sty
##schaaf
##schrijd
##oust
overlevenden
##ogh
doorgaans
anno
reich
##behor
##sper
##iene
##esa
trump
hert
##ema
slechter
vrijdag
##klacht
paus
parano
johann
##uiloft
hollands
mode
instituut
juf
boris
intelligentie
washang
expert
viool
point
##zwart
reading
verslind
##verlies
gordon
sexy
ipv
oproepen
##behorend
ibiz
jd
koon
kik
nathan
tolk
viet
waas
##lucht
##kabbel
##boer
##any
georganiseer
station
jezus
##schoot
schade
leun
anita
##entenis
##annie
bru
plicht
##vesteer
comfort
clou
josta
keus
jansen
smelt
mediteer
##crisis
editie
edwar
##enny
immigreer
white
petra
turk
definitie
documentaire
##wetend
ontslagen
ryan
##indochter
honderden
summier
commercie
ibiza
bb
gaaf
lond
riek
rots
##laag
##lock
##raap
deal
##itiek
##onen
##onkel
datzelfde
ikzelf
##lex
##verslaaf
##schoon
##resp
schurk
##andaal
spijker
##usan
onterecht
elite
##bra
##broeder
gewend
samenwerken
floren
berucht
##prikkel
cold
##sprongen
gerard
smart
2001
short
actiethriller
##kantoor
body
ash
gevangene
##peins
constateer
rijm
dubieus
zuiden
##akteer
suzan
andrea
andrej
##celona
annabel
therapie
argent
##allenge
myrthe
aap
bud
ce
cinder
das
eden
fab
gok
hot
hav
ie
lack
night
wenk
www
##bid
##anje
##ouk
schaf
spoed
produceer
proust
##ulier
brian
manon
##volwassen
eventjes
krom
##beraden
artie
nep
##ypt
##kritisch
##ecial
wring
##quet
milo
dierbaar
uitgebreider
bekentenis
industrie
alexandra
abby
##orea
decennium
##biografisch
keller
piloot
storend
##aphne
coorine
##ercoaster
washangton
##respond
aver
bul
cou
duw
gh
jet
line
live
neen
poos
self
sme
switch
teer
woed
wow
##mod
##zy
##tor
##pat
##poog
##hl
##bon
##binnen
##15
inn
versterk
vertegenwoordig
aanpak
##rede
goedkoop
graad
mekaar
##bevel
##illig
##adel
weergave
misdadiger
achterna
##iped
##acker
terugget
bell
kramp
##zoekt
heleen
##ksh
mae
gerak
historicus
stilistisch
collectie
edward
communist
oever
kelly
##gevallen
stalker
##pensioneer
sylvia
verneder
secretaris
joris
chirurg
cazalet
gideon
florence
artiest
akel
donder
ht
kaak
luit
lift
mut
maas
mult
rang
sid
##gaaf
##pal
##jas
vander
verz
teen
jeff
uitver
overvallen
schut
spits
lev
lectuur
ontbijt
##aanslag
##best
##ugel
##slinger
##icaal
hemzelf
genee
##trop
klaag
##voorwaarde
kleindochter
gelaagd
##iona
##handicap
sprongen
puin
gedaan
##breeken
glans
##redacteur
##atiefiteit
mila
eindigde
olijf
stempel
##park
sebastiaan
##nemen
undercover
esther
##unnel
camera
vervangen
claudium
zijdelings
turkije
##respondeer
teruggetrok
bag
had
jod
mam
neel
sap
ui
vaan
zuig
##eus
##lor
##koord
##takel
##ville
dead
##chan
enzo
gehandicap
##ones
##ala
aanklacht
##idisch
##outer
##une
##sprek
##ope
bruiloft
##oots
##uise
langdon
##baarlijk
krab
flits
amanda
##oorts
##neig
2019
##wijls
harlan
##dieer
hardcover
##iane
dikwijls
monte
michelle
##bode
nicol
##incie
ritueel
chef
indringende
provincie
integer
lunch
objectief
##document
dipl
generaal
akelig
geneez
enzovoor
boef
dool
kaal
mier
nik
serveer
too
tit
##lag
##gl
##hulp
##baat
##bach
##14
##engel
##char
##stil
gepaard
alarm
voorbereid
##olog
##schop
##industrie
##tempo
well
ontwerp
brit
##brok
##trant
##trip
verscheid
stroef
neger
scr
preston
predik
##straat
##nest
cara
syrie
##appar
##apport
diversiteit
##code
##duidend
agn
visioen
##vrede
betrekken
wonderbaarlijk
danielle
camille
realisme
jury
nauwkeurig
##nl201
ronald
woius
miles
onbegrip
##itiatief
##iddeld
podium
ah
ama
goog
gister
nas
##lap
##nt
##smaak
##zang
##kin
##vuur
##ym
##wer
##orven
##oma
##geheim
##rijden
##idee
haarzelf
##heet
reunie
##unit
elders
hoede
vloer
##plak
fest
##klinisch
knie
##strooi
##ower
myron
ruby
andy
bekenden
##kring
colom
antwerp
##cons
##amerik
noir
mild
##ghan
indiaan
gevangen
allan
victorium
archief
brei
miljard
erfgenaam
merel
halluc
factor
hayder
##ffffffff
coco
satire
incident
treurig
patholoog
democraat
##fabriek
dollar
##raaden
air
cus
foll
kers
kut
lit
lente
pia
pistool
roth
surf
##soen
##aardig
##inatie
##isse
##omen
##aline
##endel
ere
ongeloof
diegenen
staar
ditmaal
leah
rebus
blue
##bes
##bek
##iefde
##imer
brouw
##utsel
weerwolf
##iciteer
herstellen
challenge
magazine
scep
know
prestig
iemands
pauw
glijd
shar
vestig
##pedieer
##erendeel
1996
##abyr
misselijk
fitz
werner
verslin
machine
prestigieus
ax
boor
delf
eye
fol
got
haaf
lan
lib
merendeel
set
ye
##lik
##ssel
##mos
##gee
##glas
##toer
##dief
##patr
##poneer
##citeit
##biel
##inst
eenzelfde
##eeck
verken
verward
##oreer
opname
##gevang
##gedrag
erica
alsook
##reen
##oga
doorbraak
ani
blan
ontbr
##utr
##ican
##waardig
mare
maron
##pler
zwaan
##vrees
##izz
pleit
dermate
quinc
##ecuteer
robinson
##comple
##melk
middenoosten
road
oliver
regime
189
kathy
ambass
radicaal
jurk
casan
verongeluk
vlugt
sky
stiefmoeder
dorre
egypte
prize
toedracht
goeie
zwitser
harmonisch
coun
dai
ein
gus
ic
lara
saf
tunnel
##mine
##touw
##tafel
##had
##histor
##ble
##blijk
##17
##iticus
initiatief
##streek
##ommer
##gemerk
##uro
##scha
scheld
##jev
##teit
productie
memo
##beg
nav
##ienl
play
##dateer
##drin
##slachtig
vloeiend
##werkt
chase
arden
expedieer
beroemd
bijzonders
knuffel
##offen
america
autoriteit
kopie
peeter
##pakt
edith
##getogen
indones
popp
melaan
##olein
##atorium
varken
formuleer
guy
mcder
koste
##koning
##accept
facet
lilith
chocolade
marjolein
ontbrak
bier
buig
cele
ful
foss
hip
hong
lord
maf
nie
vuist
veeg
##sig
##say
##ruil
##ute
##uun
##kok
##kaans
##tooi
##toren
##ces
##wagen
dex
dev
##ieed
##eee
investeer
verhoor
##igo
##gesprek
stieg
staart
##reven
##recherch
schel
##ikant
blink
##illon
druppel
broed
place
##esar
##sterisch
##orth
they
themas
##plant
dozijn
##vloei
##zieig
oubol
##primeer
kepler
tenzij
##misbruik
mengel
simpl
##oveer
smit
fanatiek
baron
kostbaar
gemeente
1989
1999
jacque
vlek
##uft
rivaal
violet
chemisch
##garet
hyper
falco
##hua
academisch
labiel
pelgrim
narc
mitchell
australisch
verscheiden
festival
oubollig
baal
bast
citr
gust
lut
nancy
say
saga
tart
vo
wa
would
##lett
##ires
##kick
##curs
##vond
##enom
inkt
##oeken
##ome
voornaam
##verstand
##rijt
schande
schandaal
spreuk
lex
##asie
##agina
##iko
##istent
elv
toegegeven
slang
##troffen
tri
##itein
conf
hero
##blader
##bloem
kroeg
marieke
strooi
190
neu
##klim
ruig
##kruis
##sneeuw
charact
##commissaris
visueel
##minst
##ilight
besliss
horiz
maximum
kwalijk
grey
##dompel
break
juridisch
wiskunde
apparaat
cato
temper
adriaan
syndroom
bouquet
potentieel
palest
quinn
architect
digitaal
nominatie
rankin
verlegen
johannes
koontz
casanova
29
32
600
dj
gier
kaap
ketting
loon
list
mand
mits
turn
zaf
##edie
##sne
##mil
##mooi
##uum
##zka
##kus
##kist
##din
##waag
##40
##ankel
##ito
inslag
vernietig
gefr
gevlucht
alb
heilig
stijf
strijden
hijzelf
zoen
##asme
##agier
grun
##genade
drag
##opol
bro
bruid
hunter
jone
klacht
diagn
##beroemd
fruit
wijle
strot
dosto
feil
##ions
##tour
ava
sprankel
gere
harris
benjam
passief
##passie
herhaald
##mund
1986
120
1974
accent
pools
veronica
femke
riley
##duizend
officie
##intrigeer
##burger
mulder
jimmy
grotesk
transformeer
archeologisch
moois
##buiten
quincy
dorrestein
benjamin
36
bat
janne
kur
labyr
mind
mast
ness
piano
route
tj
##nou
##ki
##koel
##gaard
##ferm
##dor
##doof
##hak
##wa
##70
##elia
##chen
ineen
geer
##led
##verwarm
##verdachte
rep
griff
prijk
afghan
##spe
##iman
##ienne
##drang
##slap
misverstand
sluier
##arth
##treer
##ieszka
beleer
bow
exclusie
kleinzoon
cruise
gebieed
##urnalist
##adem
##quin
##dament
olif
dominee
fundament
##hulst
1987
lesb
ambt
leonie
afgebeeld
lyrisch
kalm
##middag
vernuft
cleo
specialist
##crimineer
virginia
bourne
sofia
citroen
##cursus
diagnose
dostojev
afghanistan
fox
hoff
joel
kier
nel
poot
roots
veen
##nas
##set
##sug
##rid
##mpel
##zaal
##kou
##gy
##gens
##baas
##inct
##aten
##atienl
verplicht
gechar
##ingh
##ommuniceer
##rijzen
aanbevel
##olic
##schok
alsmaar
wester
##ants
pruim
afkeer
ontferm
terry
##kommer
genu
thrillergenre
kronisch
##med
##inkind
##izel
##prom
gemiddeld
##ccommuniceer
schrap
made
##halie
benaam
##breid
##htccommuniceer
vlakbij
##minder
intuit
asiel
##zekerd
1965
httphtccommuniceer
camilla
turbul
calif
cyber
offici
mulisch
##arriere
zolder
pensioen
ethisch
portugal
overweldig
concurreer
video
getrouwde
coben
kemp
htc
gedaante
##apparaat
agnieszka
##rechercheur
dostojevski
gecharmeer
aanbevelen
turbulent
54
aylan
coo
daat
dist
dahl
joon
kab
lul
look
page
ruit
tay
tax
wals
##muis
##zonde
##karton
##typ
##hr
verw
veront
alas
##ism
bevel
beknop
##inge
##omstandig
##endeer
##less
##lezen
##ura
##schrij
spe
antrop
##enthriller
praag
##spat
##spoed
naiv
##osh
broeder
##adees
##sler
##icum
##komisch
slijt
stabiel
chl
samenge
ieders
valent
##klop
hartman
gerucht
eek
cora
correspondeer
moge
monica
##melt
##filtreer
whis
ellory
renee
justine
afwisselen
veertien
##gelezen
fabriek
koch
versus
hysterisch
liesbeth
##daalena
##writer
jesse
bombardeer
fulltime
##ocalyptisch
antoine
adlerol
zafon
beknopt
buck
hok
lila
mom
mick
migreer
sich
uil
##even
##eila
##lam
##letje
##lichaam
##ni
##nend
##sfeer
##smelt
##mie
##malig
##zaag
##gend
##cultuur
##hn
##hap
##hall
##buk
deer
dean
##inf
inkomen
geir
geaccept
##ors
##onist
##arl
##schaal
##schud
scheur
spit
##agh
any
gran
tour
##bec
##bedoeld
##beweeg
##uite
##brug
##bridge
weerga
##icker
##gelo
diaz
exvrouw
##ionist
knul
knop
##aya
##actief
##velop
bewogen
kermis
willy
##maatschappij
decker
juul
kafka
1997
continent
intensief
##quez
terrorisme
ferr
roerig
maya
beledig
echo
marokkaans
christopher
##klein
libris
vaticaan
google
##eeeuw
joona
taylor
bab
cab
if
jere
kava
laf
riet
wonde
##lind
##lers
##leed
##kas
##gif
##dict
##bok
##bow
##16
##inal
geprikkel
gesprongen
alan
dateer
ongemak
doorge
##ukkel
rechter
reve
pril
##istreer
onderste
##eles
hoofdverdachte
braz
pluim
##brauw
##icaat
slee
##geefe
congo
##blauw
coming
kleinkind
fraude
karen
wijt
##prof
gemma
spraak
american
harriet
glam
##constructie
##ategisch
##exico
donor
gods
##vieew
gangster
old
##aleb
josef
laurie
jude
daven
##ishing
kapitaal
getuigen
##recensie
chicago
signaal
sigaret
surrealistisch
islamitisch
integr
##ikkeld
first
procent
superie
futur
feyre
wenkbrauw
ghost
##model
hallucineer
memoires
simplistisch
gefrustreer
chloe
adlerolsen
33
75
diner
sen
tie
zoo
##nose
##ramp
##mi
##gaat
##tele
##dak
##pa
##poort
##vaag
##elkaar
deprimeer
##inx
into
##stee
geit
gehoor
##onel
##onair
##isode
boekmark
niettemin
vooraan
vooraleer
stijn
##ili
##arie
mess
##eleven
elin
mank
terreur
##brood
##ofe
genese
tristan
connie
magister
##orgaan
krank
kriebel
##perikel
##houding
##avo
##plek
##doen
##000
##asson
fantaseer
intro
passagier
peil
katr
martine
lotgevallen
##resulteer
episode
renate
1945
hakan
##wortel
crew
arriveer
every
biecht
ratioo
vuuur
##jubel
sarcastisch
##scheppen
pedofiel
oxford
magnus
fallon
limburg
getalenteer
foster
london
##verslaafde
enzovoort
scepsis
##drinken
boekmarketeer
boud
burg
ec
fasc
goochel
kurt
much
od
roel
rain
sul
tara
toets
touch
va
weem
yv
##sj
##sley
##kill
##klem
##gard
##gres
##fase
##cor
##carriere
##wikkeld
##ence
opwind
##verwant
stan
stoep
stink
##teister
##ieren
ana
andr
##iknou
memor
##impel
##opgel
##sted
duizel
##sell
hoogst
##ked
clay
##vrucht
score
knok
##pret
carrie
coll
geschiedkunde
gedachtee
##wordpress
bennie
bioscoop
journaalistiek
gespecial
concentr
dwerg
regio
gevangenen
walk
1984
1998
1995
1968
1975
garage
home
guill
##vestigde
##portage
canadees
bestsellers
uitvoerige
##heimer
mickey
##ghghghghghghghghghghghghghghghgh
##foto
brigade
##ughter
lynley
burnout
##amerikaans
labyrint
weemoed
##iknouvind
gespecialiseer
abel
bauer
dm
dd
farm
gogh
hi
kouw
pam
penny
rijst
sw
skel
summer
tuur
waak
##laas
##rood
##mantel
##ude
##kook
##fest
##dame
##cer
##cle
##cuit
##bt
##wapen
##ieur
##eeste
ingetogen
##stakel
alert
alias
opgave
bezet
beperk
##geel
##vergeefs
street
omver
haarlem
schuin
rein
reilly
##una
blood
tok
todd
##uitge
beginnend
vlag
##maakte
bellum
##blind
boks
arist
arlidge
ext
executeer
idi
##avier
##tiger
betoog
gerenom
##contr
bloedstol
wrang
shock
profeet
thomp
rijp
1985
httpw
250
##ilda
componist
atlas
butler
##portret
linna
adrian
prostitueer
lady
sinterk
oostenrijk
sarcasme
gretig
##passeer
culinair
olifant
gerenommeer
39
aqu
hig
koen
krijt
len
liam
lynn
ny
nation
oly
peer
piek
pip
pauze
sun
tap
tijl
zaad
##ii
##rus
##muz
##zheimer
##gor
##gift
##treur
##fun
##dans
##po
##vir
##92
##ijsen
##ella
##chauffeer
##inck
##iev
indien
verwant
alzheimer
##iska
voorin
##vergeet
stag
##eelance
##hecht
bijv
danig
komedie
##ieft
##spion
elsie
##osl
brook
terra
##sloop
weerstand
##iro
stacc
##blij
##grap
20e
##able
19e
org
dode
perry
toenmalig
##neke
##aha
##kronisch
##half
##eptie
pech
##acey
##hai
ingewikkeld
profil
schoonmoeder
duncan
1983
zweet
##smuk
guys
petto
fragmentarisch
dringend
##zwerf
grafisch
stalk
infer
weduwee
##betaal
paradox
assistente
ballet
##awa
##agram
gordijn
##effect
##vlecht
sicilie
jakob
##patroon
fossum
horizon
vooraanstaand
opwindend
beperkte
bloedstollend
3e
boete
cult
evang
eco
fabel
gone
haas
pand
poort
rag
soul
tank
##meth
##zamen
##koek
##gat
##gon
##tip
##duw
##donderzoek
##post
##ji
##vo
##veen
##bann
##etel
##oester
##eeee
instr
geens
hey
##inga
strek
strijk
aanvang
##oli
##ido
scheer
schaal
##onds
##oerd
thrillerlief
geweer
##blo
kraam
internet
##plof
valerie
##wijmel
frie
free
arrest
gewoonlijk
clare
cry
crash
##structuur
##neus
henk
carlos
##light
##romant
media
monnik
rosen
##bodem
beslommer
muzikant
virtueel
verhoef
toni
privacy
##lecteer
obstakel
silver
##effrey
optim
feminisme
##crimineel
tiran
mikael
benthe
vivian
wikiped
argentinie
##complex
alaska
doorgewinter
beslommeringen
aid
bam
ey
eleg
fon
giet
koorts
lint
lacey
meel
mum
nier
niger
rail
tah
tib
youtube
##roe
##mmer
##uzel
##kool
##gn
##gaar
##golf
##ful
##cene
##hic
##vard
##bos
##wakker
deus
##inkel
eend
ent
intrek
verwoest
bedrag
metro
onvermogen
aanstaande
##ilet
##ury
##ando
##agan
##oeter
##istentie
##bestek
voltooid
##anner
plas
zelfvertrouw
##astic
sluim
zijzelf
##ector
##vey
hell
intervieew
marl
##graag
arend
hoogsens
flard
verdur
zwaai
##loops
##vloer
amandel
knaag
hoorn
##formuleer
geruim
ish
stadium
##exper
smal
tomaat
roade
balanceer
1000
universeel
##affineer
borrel
ellis
guard
overtuieg
glimp
termijn
banaal
jerry
fatsoen
milly
cornwell
##splits
ingrijpend
gestalte
kiki
litteken
##utraal
taxi
futurist
concentrer
sinterklaas
inferno
zelfvertrouwen
sluimer
cody
dum
dylan
hole
joop
lamp
moss
nich
ott
pun
pion
taai
##sw
##raam
##mot
##zoet
##kor
##tain
##fact
##past
##hh
##hill
##24
##30
verpest
gevar
##eerde
bes
##geh
##lement
stoom
jegens
uitdag
wessel
##hedr
reiziger
gron
graal
grauw
##genees
##aange
volmaakte
druip
pluk
manager
than
dender
troop
##oeroe
spannends
##oca
interme
##grens
##manager
oranje
##otiep
aandachtig
autos
queeste
angeles
smokkel
writer
ilja
mori
##prec
##filos
pender
soll
1978
##ylle
##recenseer
##kanker
##gewens
##gewild
check
##show
brusselman
alfabet
argument
schrijnend
##politiek
tamara
##clusive
hypnose
gardner
sinister
beschadigd
##ussi
indonesie
neuhaus
bezeten
staccato
geenszins
elegant
uitdagend
38
bit
cd
coel
gaar
hur
linde
lina
lissa
mie
nil
now
nov
rend
rout
rapport
sou
zat
##eik
##rang
##zich
##keten
##korea
##tint
##cont
##hon
##vlees
debor
bez
##ommel
stimuleer
omarm
spor
##antum
things
dubl
##astr
##arty
tro
verliefde
herman
##alsnog
##ips
kluis
##stelde
##acon
##acade
chauffeer
kraai
##greep
##sed
fluister
flirt
james
##syn
record
clancy
##vlies
emigreer
##streer
##praktijk
##leidooi
beth
##missie
irak
irene
##amerika
finch
paulus
concert
ongeacht
register
carron
##martel
1973
rita
vulkaan
cassie
dark
mentor
stereotiep
vlaming
verminkte
geliefde
marokko
archeoloog
##noodzaak
piraat
##poseer
single
gekleurde
elektrisch
legendarisch
rowl
avery
nesser
califor
##methode
##hedraal
solliciteer
deborah
##academisch
berk
bui
cart
dop
gor
heem
hipp
iss
kos
ps
pleidooi
sang
sov
sober
vil
wad
##ei
##non
##rich
##fast
##dit
##dle
##pil
##has
##hut
##haf
##vijf
##bot
##erd
##elore
envelop
##sticht
verstaan
geus
hew
opera
##gezet
##verschijn
stip
##olen
##idus
schil
spier
##uner
##bestaan
##spit
##illo
##opereer
##stes
brenn
tijds
think
termin
##ijlen
##gela
##tran
nuance
##kenmerk
##werkstel
kloof
klaus
##bluf
krim
friend
freelance
##sey
##iform
idylle
neutraal
doyle
##digeer
criticus
##ganger
adele
##gerald
syrisch
pakket
lekker
##snl
apotheek
lucia
mona
positiefs
speculeer
kathedraal
##scen
domin
jubel
juff
kapitein
##field
levenden
##porteer
freder
##garandeer
lisbeth
rudy
mathil
mathijsen
splinter
strikt
bladeren
naslag
lesbisch
##suggereer
kouwenaar
skelet
idioot
olymp
##bannl
hoogsensitief
groningen
37
att
cond
dic
gif
jussi
kaz
mop
oct
roog
rizz
tun
vic
zend
##ibel
##rick
##korps
##glijd
##tas
##tolk
##pet
##cat
##camp
##citeer
##hav
##bø
##analyse
deon
geop
alya
##omer
##deal
##alem
##lez
##lega
only
##verd
stug
##scheep
##schui
overhoop
##ush
reportage
toilet
##spanne
dries
drake
bridge
plaag
plastisch
##adisch
terras
##drenk
##icier
##etsel
##artikel
snak
##orgie
##blieft
kro
zink
fleem
verdom
zwal
light
crypt
##thias
##orene
##struct
##ahn
master
derhalve
quasi
naasten
##halz
glob
stein
bente
benauw
johans
shak
peuter
normal
##eteraan
coach
match
colleen
##ureus
schuldige
intim
intrede
##ailey
gezag
identiek
france
1988
##oleon
great
1969
1979
locale
graphic
bernard
brunetti
mythes
##borough
straks
##betoon
becky
florida
pastoor
layout
bjorn
napoleon
oordelen
amateuristisch
##advies
jungle
sporadisch
sovjet
##haftig
brennan
##werkstellig
juffrouw
##schuiol
ai
boon
boeg
bish
cos
edel
gip
gift
jay
lik
label
poes
sok
sukkel
wijlen
##metsel
##kol
##kerk
##dal
##paap
##bord
##wik
##wilight
##25
##aafd
##oemer
##stan
##igger
alib
##dernis
##isha
##omon
onno
onversch
##vervang
##ota
bijpersonage
rek
rey
groet
eline
alleszins
herberg
##ipeer
klank
##igeuner
evenar
##plooi
zins
##overt
strategisch
claar
clary
##leger
losstaan
ouderen
##jaardag
bett
##plein
iran
vakant
voortaan
johanna
##anco
##winen
passant
costa
verdragen
publishing
luke
antwoorden
kerel
katja
discrimineer
abd
fungeer
controver
contract
controleer
1993
httpss
vlaamse
##therapeut
conser
bernini
cyclus
ferdin
reflecteer
verheven
urban
sirene
##blogspotnl201
pension
geestes
nimue
jordan
woedend
follett
fitzgerald
axel
glamour
extase
ishig
dublin
bishop
ferdinand
44
aw
bah
haan
hort
iius
jj
las
loep
mang
munt
nell
ove
pff
rans
raap
sav
##look
##ostel
##oles
##rand
##rum
##milia
##toef
##fant
##pagina
##cast
##hatt
##von
##beek
##ball
##yen
##€™
##chr
enter
##igs
aldo
temp
bea
beatrice
##endonk
##sche
##repen
##oedel
##zeur
vracht
program
afwacht
##bestaand
##slaap
##slijt
##icz
true
kleef
terugge
##bloei
kris
marijk
markant
handleid
klem
##sep
##pert
##houdend
flik
flow
##meid
bernie
##kluister
ember
amos
add
##produceer
politieinspecteer
##slagen
symp
meesten
##sprok
paragr
##exic
stefan
jana
smacht
##frank
##oney
work
gekun
monument
johnny
##other
fors
louche
juan
franz
1980
1972
1971
felier
radeloos
compenseer
pete
andreas
jurist
faill
benedict
scheil
spiraal
fervent
millie
liese
nesbø
##zonnen
josephine
##buurt
diefstal
aalina
vietnam
gehandicapte
cussler
##gevangene
poppy
elvira
verplichte
genuanceer
##opgelost
gerenommeerde
##oslav
rendell
naslagwerk
onverschillig
paragraaf
ae
age
baat
bay
dv
daag
dins
food
gam
gio
kaat
kag
laa
laars
pijl
pfe
rok
utop
waai
##link
##leep
##script
##fel
##hals
##iness
##stond
alone
hect
opgericht
##aals
bec
##ingann
##gehoor
aanname
jez
omme
uitsp
alsje
##oteer
overleven
##lijken
schaar
schaars
schiep
##jech
hijzij
anouk
##uki
grant
##genot
meander
##eleu
##steur
pluis
plastic
##ador
##adult
teresa
##drage
##sluip
##brow
##umeer
slinger
achterdo
dene
trend
klucht
klonen
##seller
diz
kraan
strubbel
next
orth
clark
adoles
betref
geraak
unie
##assa
##ryn
fotograf
bib
holoca
##componeer
##diende
##urfingann
martijn
domini
##jesmaat
1962
1966
meesleep
mondjesmaat
##recens
homer
##sky
16jaar
atlant
lubeck
##hande
nota
artistiek
ultr
surv
akkoord
##burgh
rembrand
latijn
latijns
maura
kokos
francisco
##politie
provoc
##blogspotcom201
grammat
laylum
verslaafde
sadistisch
##sleutel
grayson
##punk
cecilia
bagage
dexter
geirriteer
tokio
instrument
##romantiseer
tibet
geopend
httpssurfingann
conservat
gekunstelde
achterdocht
holocaust
55
bid
cq
cup
dob
etal
geek
koor
kabel
lise
mack
nelle
narr
vink
vick
vinc
wurg
zeep
##loo
##lene
##row
##zzo
##faam
##dre
##cir
##hia
##huwelijk
##hinder
##barm
##wall
##wraak
##erine
##aaid
##anl
##eland
def
deug
##cho
##stat
##stick
verstrek
geaard
gevorder
##orgen
opzien
opport
opinie
##gek
metin
sticker
##oug
overhalen
##ogan
schijf
schoot
ans
##aks
##akkel
gries
##entel
meu
ontwerpen
tosc
zalig
##uger
terp
duin
##eenise
##tree
##trakteer
##vallend
vrouwenthriller
trigger
some
##vest
kluun
their
mini
##groen
box
stroop
flan
##ontzien
knof
##vangen
##neuzel
##prins
politiemens
vieren
##activ
caro
vorst
isoleer
jawel
apprec
##exueel
##uilding
shop
barn
peop
machts
vergis
dialect
cour
kater
pauline
josh
lindell
puberteit
compact
gestaag
1942
1944
maddie
malta
1956
serge
schedel
isabelle
bruna
statistisch
belemmer
lizzie
porno
optimum
leonardo
feministisch
##unnit
prioriteit
tyler
##deskundige
insect
onrechte
portugees
##rederik
stymp
vaanessa
breakfast
gevarieer
rizzoli
afwachten
dinsdag
overlevende
aak
east
jol
ku
kreet
lieke
poep
pink
pitt
pony
ree
sij
vocht
wy
zigeuner
##lardeer
##room
##mend
##aven
##korene
##tij
##tak
##felijk
##fende
##donder
##pijl
##hij
##heem
##buzz
##wie
##waai
##inaal
##ieder
##oeeer
very
verandeer
geert
gevrees
##orin
alvor
##alis
voorraad
voortref
voornemen
erud
stage
##schuil
haard
##ogn
schild
really
gross
##uwe
onderdaan
##illeer
##opvallend
wilson
wildernis
snack
tralie
trave
krok
kronkel
verdorven
zwager
doctor
##vrie
##vries
scif
bert
kneed
##strand
plein
paig
##versie
queen
allerhande
extras
shaw
barry
##quel
##ynd
medeleven
matilda
morris
jackie
michiel
##ethriller
halfzus
instinct
dompel
##yssen
italiaan
1991
1970
kings
##schrap
virtu
1957
soraya
##horst
##ernood
bonnie
##lopen
laptop
royal
factoor
astron
rotterdam
##harina
howard
paleis
##gezond
rabb
beklij
nadine
reichs
luitingh
intuitie
overweldigend
superieur
wikipedium
nichol
routine
bijpersonages
entertain
##frankrijk
laaiend
alsjeblieft
etaleer
nelleke
knoflook
apprecieer
alvorens
voortreffelijk
erudiet
31
ade
baard
gin
git
gwend
haha
kre
lum
luis
lance
mall
noemer
raf
rinkel
soft
siebel
teng
viz
zeeuw
zwijmel
##lijf
##lood
##lieg
##nat
##su
##self
##smeer
##ochtend
##roei
##focus
##dney
##pect
##jav
##vet
##vuil
##75
##33
##inclusive
inbraak
vergeefs
##igan
hein
##isoleer
##verleden
##arist
##schoen
uitstek
uitbreid
##reizen
##reiziger
spar
lezen
##tein
##teder
anor
prik
blum
bliks
##imo
voldaan
volslagen
##illie
ternauw
##drik
##drop
##slik
##aams
##iciteit
tegenaan
##train
troef
##merek
kenmerek
##maakt
helene
kloot
chap
##ustr
belinda
marius
##plank
fries
##overzicht
strook
flint
##iful
orp
clan
##klink
filip
##prop
buitens
sydney
##spruit
maja
antis
geraffineer
##conventie
fire
laz
laure
robber
aaron
##ografe
intentie
##getu
alexand
##ueus
university
##biageer
1964
12jaar
180
youngadult
adults
katherine
account
##smijt
said
lize
##hane
frances
religieus
absurdistisch
##waakt
millennium
reflectie
dilemmas
korrel
##nemend
mitford
copy
##cycl
patricia
tsjech
egyptisch
##direct
transport
ivo
auric
##klasse
selma
##stikke
##advocaat
gekleurd
beautiful
paranoia
lackberg
gisteren
blanche
##muziek
californie
betreffende
dominique
siebelink
ternauwernood
65
aga
bis
boed
bone
cs
cant
diet
dut
goo
goet
gill
guil
kond
kids
lauw
muze
nijl
occ
other
oreg
paal
ss
ti
tine
wool
zero
##lus
##laars
##ios
##seer
##sessie
##zwe
##feld
##duit
##puz
##pauze
##hat
##hys
##wi
##enley
##eton
##oob
zijne
##itar
ine
verwezen
geg
gebaar
##oorn
##orf
alain
##oner
beur
beurs
##gest
overgaat
schier
schul
schaad
##amon
dani
gaby
grande
hoover
##apend
block
ontleed
##be201
##bezonnen
eli
twitter
manson
tweeen
##eserveer
sluw
vloed
##vallig
snoep
trut
congres
klara
theologisch
belle
dion
##ploeg
come
examen
verdw
##ific
##avont
adverteer
##climax
schroom
kweek
maj
jazz
apothe
glorie
##exia
julius
##uzalem
hollee
veget
rox
indi
heft
assep
constance
1992
solo
japanner
compos
musical
cambridge
##loge
##vermoed
jeruzalem
##baren
##chef
freud
bonus
galgen
modder
oosters
urgent
zuidafrikaans
mrs
howar
racist
sheriff
casey
reikhalz
halsover
suriname
httpswww
##begrepen
celeste
kiera
whisky
cabaret
integreer
##syndroom
onnozel
##steurop
survival
opportun
people
beklijv
anorexia
##puzzel
verwezenlijken
holleeder
assepoester
azie
ath
bach
bian
beeck
could
four
island
item
kis
pc
pele
pic
rig
si
tu
vee
ward
yoga
##lias
##maand
##zomer
##kker
##goeroe
##taart
##dip
##dokter
##hit
##houw
##buig
##encer
##ervaren
dever
deken
##iew
##eech
verbluf
alt
teug
temeer
optisch
oplet
beu
bevestig
##aliteit
dieet
##arbeid
##schade
##schaduw
##otiv
##respect
schare
##hed
doorn
lei
leuf
##zem
griet
graham
##isteer
nadeer
##ijffer
tweem
bra
thib
##adee
##ution
##ofilie
achtereen
##odor
##tracht
snuf
trol
klaas
##emon
chat
chur
chip
diver
##ockey
march
##iair
handicap
valk
stram
orkaan
perikel
clio
berger
##ional
amelia
##strum
gemotiv
geschik
##aholic
##eidoscoop
##urnal
##ateau
vermoeid
##wekt
barok
kopen
opgewekt
##roerd
achtig
balkan
##uinig
##interview
indisch
forsy
lauryssen
russell
1990
1994
plaatse
verbaasde
communisme
##recept
papieren
guus
notime
franco
zachtjes
##ifest
miriam
miranda
cornel
lapidus
cassandra
##steunen
kristal
verpleegkundig
beckett
kasp
drempel
gehakt
ladder
##porter
bijdragen
escaleer
##canos
booker
tentoonstel
dodee
afgrijzen
lennie
writing
hertog
##kshop
ruiter
verwoed
##functie
hurwitz
bettine
ishiguro
##hattan
##recensies
griessel
meubel
##vriesen
bliksem
apotheose
indiaas
halsoverkop
tweemaal
2de
aj
aza
bailey
ceer
cad
dele
euf
earth
gou
hieer
hacker
ji
jk
jola
kid
kont
mah
maagd
mantel
pul
rik
rib
sie
tig
zaal
##ein
##lat
##lund
##ior
##so
##saus
##mom
##aber
##aise
##zuster
##kat
##ds
##pie
##categorie
##beef
##48
##enken
destructie
##inburgh
encycl
##itatief
vance
inventie
##stud
##orium
alber
bestand
ongen
##verzekerd
##ileer
##uri
##olaat
dito
overdag
overleden
##regen
##head
##zef
reuze
##iket
komma
gracht
##beduidend
##imat
##illard
##oped
bree
manisch
thora
##dram
##britt
##ormoon
duif
##wez
snuif
tru
troep
klun
belaag
##plaag
frons
##manent
##maniti
suf
weinigen
##beelden
relax
clar
##belle
##echts
##gerust
ruine
ruiz
human
legal
hartstikke
gereserveer
wars
gloed
##woond
history
angstvallig
avonturen
imago
lucille
##haw
##haven
edinburgh
dierbaren
##ermo
##othy
why
##herlock
subject
allinclusive
1977
negeer
victoriaans
saul
respectiev
asperger
salade
1940
1943
madison
##geweld
##gewicht
mcle
natalie
signeer
catal
##bury
goodread
vertelwijze
beleid
spiritueel
##colm
hosp
##blogspotbe201
rudd
genegen
hope
pedofilie
schrijver
cathy
gombrow
paranoide
predikaat
pamfl
alibi
##getuige
composiet
respectievelijk
gombrowicz
48
aarts
cake
cavia
cuba
caleb
dog
eu
euvel
fig
gort
hag
jinx
koer
kauw
low
ml
mount
nak
nikk
pant
perk
pamel
roet
weel
wand
##nap
##iar
##oge
##oak
##rost
##molen
##ustel
##kaas
##kans
##kaye
##game
##day
##pent
##corp
##jong
##vand
##boe
deugd
##cha
##atoom
indie
geera
##oratorium
ali
heart
beuk
##ington
##alt
##aldur
##endom
##geur
##lein
onpas
onben
##vern
##verdr
stamp
alsmede
##heden
spuit
doordring
doordachte
graan
##uwen
primeer
blijd
##bey
##spier
onderaan
elsa
dragon
##dri
##bruin
##utisch
doem
slow
##ofeer
##oduc
snow
vrouwen
thrillerfan
##ipline
klip
klauw
##emy
dagger
marel
##dell
##delen
bok
polder
expres
wijzig
flam
permanent
clive
jozef
##nisme
kne
pred
##product
##clay
bovenst
carter
##cede
isol
##conc
smeed
smoak
##oneal
wendy
##presteer
balkon
##edure
##aleis
forum
which
abstr
1982
scenarist
##oesem
##smokkel
bronja
vreet
delic
poets
wiskundig
1953
june
##journalist
cynisme
hugh
claim
celine
alfie
##kondig
demonstreer
##elementen
##nemarie
##geduld
synoniem
tsj
spotlight
gehucht
olivier
raymond
escap
arnaldur
santa
douglas
architectuur
otto
premier
fortuin
commandeer
pretentieus
beauty
##psycholoog
##patient
amazone
##historisch
album
brazilie
evangelie
crystal
hippie
uitspreken
orthod
antisem
bianca
##opedisch
buzz
dad
dina
ead
haz
jag
kum
kna
kuip
pie
puck
sis
sund
siber
vit
vas
voy
wrijf
##lied
##nu
##nisch
##iers
##ioos
##site
##ram
##route
##mak
##zaad
##kaars
##gow
##tol
##tent
##dient
##huil
##bium
##bende
##bui
##aaa
##els
verstaat
verkondig
beau
beduidend
##alf
##alen
##endijk
##leans
eraf
erbarm
onver
zed
zeik
##rije
sto
stre
verhaalen
##oux
overrom
schotel
wesp
wemel
spoel
spencer
##tevreden
ange
reil
##enth
blanco
tov
ondersteunen
anderhalf
##uitgave
brul
brynd
manco
tijdreizen
thillie
##slok
##broed
hiernam
##afge
##ederlands
slip
slank
##beurs
##ortus
##wey
snaar
terughoudend
##sella
##blink
diagon
interess
##oogd
comed
ari
##vana
##lijns
##mechan
##syboek
nevel
famil
creep
##thing
##thia
knijp
##gerd
bovenaan
humeur
pablo
make
filmscript
menno
autop
##ivum
geringe
##ovic
tiener
##flix
janine
##zegd
donald
smeek
##redactie
##aceutisch
milan
vegan
##othriller
melo
dwaas
regie
##ible
subplot
maxon
kwalitatief
1961
1967
188
etiket
1976
bedroe
imponeer
##relateer
##archisch
##arios
17jaar
afgedaan
##gewond
mercede
1950
natas
eliza
caleidoscoop
casa
hallo
klusje
statement
raoul
caesar
1938
##raelisch
ryder
hypoc
cameron
callie
jenna
teddy
wieringa
hoofstuk
tatoeeer
##ratioo
##rederick
grandioos
tango
##ffffffffffffffff
kersvers
##likaan
fulia
verscheidenheid
character
cooop
linton
addison
kagawa
fotografeer
rotterdams
tineke
galgenveld
thiba
forsyth
pamflet
blijdschap
orthodox
thilliez
hiernamaals
diagonaal
72
ast
bard
cia
cow
coke
dres
eik
fur
fred
gand
gall
grein
gym
hmm
kak
lier
leed
lover
loren
linc
mouw
miene
nan
pom
pijp
roei
rhy
voc
wir
xavier
zang
zwel
zaai
zuip
##louw
##sim
##soep
##selectie
##och
##rijn
##zalig
##dump
##cijf
##cock
##haaf
##huts
##vij
##bat
##buik
##22
##73
##95
##eliner
##inus
##innik
##ieie
##ata
##atje
##ition
alp
ophef
bekom
bevreemd
##endal
voorst
onenig
oneliner
stank
##oldaat
##schke
wate
kanaal
lehane
##elden
bleek
mega
##denken
drop
##heids
##ulen
bruis
manifest
thing
##adder
tergend
terlouw
##oboeken
slo
slok
##valst
trio
trakteer
##volge
##volkt
kluwen
thea
magy
minut
evenement
doods
##manipuleer
##perium
arte
flut
ida
neon
orleans
relat
percy
jojo
##vragen
cra
##keerden
##acterie
sprank
carly
buitenaf
##kraak
##formule
verbitter
gerr
##assan
apocalyptisch
##appen
nour
smoor
##fried
##redder
pearl
getogen
##craft
##zorgde
eetstoor
dramas
bali
##interpreteer
whit
zielen
grondslag
abortus
deceptie
europe
1981
##pareer
allocht
##schrok
commune
##itteer
bolitar
honk
160
1947
##gewiss
afwisselende
##ingenomen
1959
judas
##ause
nazaat
consistent
wallace
##auto
international
stalin
molen
levenslang
risic
kaliber
##regisseer
verslaafd
verderf
romein
cynthia
twintiger
sierra
nerd
beklijf
schrijvers
koloniea
nimmer
##punctie
bunker
buddy
couleur
innig
ambassade
palestijns
##typeer
##infoboeken
##lindaline
##gifte
memoreer
optimist
##campagne
normaliter
teruggekeerden
dizzie
##ought
vizier
##avontuur
church
predicaat
##infoboekenblogspotbe201
700
94
aaf
cand
card
ddr
eas
egel
fiks
factie
gy
hab
hai
hormoon
kin
kong
kai
laken
lola
mj
nano
pent
pict
saar
sage
tink
wc
zach
##lun
##rop
##doll
##ps
##jd
##youtube
##will
##enier
##erwijs
eenieder
enerveer
gezet
gevoel
##ign
##alles
##enden
##gebeur
##gewijs
##verij
stu
still
stout
uitmunt
overlaat
##andro
##hemel
doortast
less
level
bijge
bijpas
anju
##ikoos
pronk
laatst
##bezoek
##spas
broo
##adow
hunt
slink
##ortie
tegengestel
tra
cho
chagr
wieg
##bly
##ocentr
krak
marina
margo
##beroerd
##pletter
##volgens
frits
##vance
class
close
scout
##thijs
##avis
##avag
##clan
##officier
##aille
carm
carlo
schril
irina
##ware
isis
hari
introvert
##itsj
planet
rosling
johnson
partic
instagram
davis
force
popul
gezap
schoonzus
15jaar
annex
disney
##herinner
kwalificeer
##uimel
obsc
ingre
##bibli
1963
httpinfoboekenblogspotbe201
hilton
slager
steengoed
jeremy
sandford
susan
macaber
skye
##borst
sensueel
contemp
liza
adopteer
porn
dream
feminist
##feit
##doceer
##chemisch
##eigenaar
texas
primair
gestalk
tempelier
lennart
heimelijk
styx
verkennen
ambassadee
icoon
bouquetreeks
gereformeer
farmaceutisch
national
fontein
##geheten
##verdiend
zwaluw
verstrekkend
scifi
deverill
divergent
hieerarchisch
##brittannie
mountain
##verdriet
rhyme
beklijft
64
az
beeg
bubbel
cott
cesar
dolf
eut
fara
gaap
hat
hos
iene
loom
leest
lale
mig
mug
mbt
oz
piot
roo
rees
rhod
ripper
sector
tact
usa
vaat
wouter
##lon
##nes
##oir
##ru
##rent
##ruba
##mir
##a€™
##kwel
##kreet
##tand
##fus
##dop
##cu
##hanteer
##jag
##voe
##vist
##voets
##burn
##yson
##enna
##aac
zijnhaar
##ieel
enfin
opdat
beul
beveel
bemacht
##alp
voorop
voordien
##redigeer
scheef
schort
##amus
##hes
doorslag
##test
##tegrond
prul
after
afval
mem
toby
##spann
navar
ondernemen
##terrein
hoezo
##opter
##agement
ploeg
##drift
##bride
krijgs
##sterie
vlijm
achterop
##ird
##odie
##odder
##geloos
##valideer
tram
trent
volgend
verlof
conan
##veus
herber
terugblader
diff
comprom
boston
20ste
argeloos
anderson
##sscene
##meijer
1900
##zonderd
pervers
claus
##vindlezen
sea
##achs
##acha
##streef
adolf
addy
##ucatie
##cla
betaam
antip
antagonist
parlement
uniform
##concent
##fluit
##fluister
done
wrok
shake
shadow
imag
barr
barbaar
pek
lucinda
vergetel
getrig
##crip
agne
rowell
willow
bekw
##vreet
thomese
##nodigde
reser
##ello
fransen
egocentr
borr
125
18e
bedachte
##schreven
franck
judi
catastr
consumeer
lidma
duizenden
kolonel
verkoopcijf
griep
21e
cait
##modern
ballard
lizzy
cocaine
kirch
florian
##directeur
##kroonde
micr
elsschot
poespas
ethan
##jonge
booog
##museum
discipline
tijger
tolkien
schutt
spitsvond
jodus
eyeopen
countr
mcdermid
triom
##profess
##blijven
##motief
##honger
kosmos
globaal
utopisch
adolescent
kismet
geschikte
##drið
abstract
dadelijk
sunday
voyeur
creepy
autopsie
magycker
allochtoon
churchill
uitmuntend
chagrijn
gezapig
euthan
bemachtigen
##vindlezenleuk
##concentreer
catastrofe
verkoopcijfers
52
buis
beng
borg
bio
dump
fok
fuck
give
gib
hj
hamer
jr
kaars
lak
lav
lock
lanceer
lijm
mog
minds
mandel
pomp
power
riem
see
sessie
tbs
vt
woel
wern
yes
zan
##eh
##leng
##lima
##life
##nab
##relevant
##mand
##mix
##zan
##zia
##kal
##kader
##food
##cia
##vocht
##bun
##beest
##enie
##erwe
##inet
##itan
indig
incl
##streden
verniet
gezeg
geurt
gebed
teder
bef
beach
##omgeef
##dewijk
##gevraag
##gezegd
##lef
##vert
##verf
##vervalst
##verschrok
jem
##arus
##arneer
##oln
##schors
omslachtig
verhaalelementen
##idi
overweeg
##reus
scheel
schenken
##hep
spetter
speech
lewis
anim
gros
grinnik
##entertijd
bla
blunder
schrijfer
schrijfcursus
town
toentertijd
anderhalve
andermans
elise
hoezeer
twente
##slijp
##sluier
mijne
duig
duvel
##ofoon
##vals
trui
##doorn
romy
##ited
herder
klets
theorin
chape
chuck
chili
mariska
##overval
zonderling
##abber
fluit
ord
zweed
##kest
##keus
clown
scala
zone
##ionaal
knut
##tigste
prequel
loser
roland
binet
rube
ruijt
bestaand
humaan
vervolgdelen
carry
onszelf
antiek
engelsen
##nieuws
isaac
harol
harmon
beno
niemendal
julien
##front
##fraude
sho
immer
workshop
activ
enkelvoud
bioloog
##aza
moye
mats
veil
concieer
olga
davies
schoonvader
melt
weekend
##ysse
regulier
ziels
societ
plattegrond
##herent
horloge
##helma
18jaar
kapel
##ialisme
jacqu
##mysterie
circa
libelle
window
componeer
##otti
1948
##hanie
17e
wakker
##aney
toverberg
frequent
beklemmend
argwaan
bobby
haper
achille
proportie
tais
##vlek
##othese
##chemist
second
primitief
surinaams
##volwassenen
smeuig
maestra
diplomaat
narcistisch
tartt
characters
grunberg
messias
guillermo
stagiair
##experiment
ottila
##factor
intermezzo
olympisch
##structureer
atlantis
gwendy
dutch
stramien
encyclopedisch
ongenoegen
pamela
onbenul
knaus
overrompel
cowboy
relatioo
europeaan
stuart
terugbladeren
euthanasie
chapeau
concieerge
aim
boog
bass
ford
fair
hog
haai
istan
kick
liane
misch
naai
nipper
our
odd
pulp
philip
piste
raff
side
worm
wod
zant
##low
##lamp
##suiker
##rakel
##meel
##micus
##moes
##uard
##kandideer
##girl
##dar
##duister
##poot
##cke
##hine
##hoen
##hotel
##ween
##26
##44
##quis
##quid
##enl
##anig
##anatoom
##elien
hetero
##stuim
##stimuleer
geografisch
##orig
ally
##chtig
opmaak
oppas
##alia
##gedaan
metaal
##verantwoord
diego
stik
stoner
##urm
##urant
maarten
##arant
##schil
##rep
##reader
##restaureer
schne
##amaz
##heus
spil
spreid
lem
anth
alledag
afrik
bliss
mein
mechan
ofzo
ontrouw
##beh
volhard
##elect
##tern
total
elle
then
terr
##drank
weerzien
##icon
misere
vlie
achteren
tegenhang
trant
truus
##voltooid
##kenzie
heront
klakkel
bella
marine
mariel
mariam
marelle
##plat
handhav
vallei
##seyn
jongs
arne
extre
neuk
orient
berlijns
bervoets
knor
rolf
carpent
##kraam
quantum
gedreven
jade
##conclusie
##ated
vermits
vermogen
steve
benard
sms
robie
##rediet
rijken
bewustel
fotografisch
peet
mededogen
milou
##intosh
standbeeld
##erty
christina
dieren
overtuigend
paulien
roza
geslacht
where
indertijd
##schouwen
##mars
baku
kameraad
##biaans
hannelore
##schuldigen
solomon
burke
scenarios
gary
dolore
kampioen
impressie
vervelens
miljonair
hitch
jaagoslav
##klaps
zulk
abrikoos
proto
##lectuur
business
ronnie
clae
theresa
350
alfred
##kwaliteit
royaal
bureaucr
mason
awards
##regeer
sonny
girls
##ippa
##gebrek
behulpzaam
##hodunnit
satan
marokkaan
bird
##stoj
##splanteer
antonio
marionet
brigit
stichten
pinborough
overweldigende
pierreux
trisha
multi
colombiaans
libby
##historicus
navid
##dorst
distr
josefien
##wordpresscom201
##festival
tapijt
##virus
##exicaans
kaaten
ommekeer
provoceer
vincent
toscane
##treeden
##activist
boedd
##studie
interessants
lincoln
##vijand
##bibliotheek
getriggerd
bekwaam
##quideer
##stuimig
klakkeloos
bewusteloos
800
aster
brij
bann
buz
cu
cann
doop
diss
eman
eugen
fj
gn
geem
gud
gwen
hate
janna
khal
karton
loot
loos
lov
lub
lomp
mok
mous
need
oke
pard
sort
six
soete
tb
tier
view
wag
yar
##latief
##nia
##naai
##soldaat
##oise
##oureus
##raas
##roos
##rook
##ratief
##mut
##mokkel
##kust
##tante
##dijk
##dder
##doord
##cen
##car
##cadeau
##boor
##bas
##bang
##wentel
##quist
##enz
##ijzer
##ela
deja
deseyn
##ooot
##inos
eenent
##oebel
##oezel
ender
##ative
##itas
verre
alm
##derf
beider
##omie
##dege
##endon
##lev
##leun
stasi
jef
##scheld
omstreden
##otter
overstap
##ogne
schol
schater
watiknouvind
kangoeroe
speer
##tek
##asia
##asco
##entatrice
schrijfers
ontredder
##spoort
##term
elias
##iende
##stempo
bran
brain
thor
thought
##ugend
##adres
##drich
tweeder
##utter
ergs
duijn
##baard
##wegen
##truc
tromp
austen
herb
auteurs
##aciteit
chine
##refereer
##bleer
##bladen
marian
marcel
klef
fractie
karamaz
##staurant
geluk
flau
flavia
##syverhaal
nef
claris
##kloof
##aux
knik
##athon
admin
##program
politievrouw
##gere
##handen
##actrice
pub
parf
apostel
halt
glor
glitter
lichtjes
##veertig
roboth
wrak
desolaat
pater
shir
geteken
publis
seksist
superlatief
edge
visite
prijsgegeven
olaf
##uivel
##ocket
meesterver
indiana
##watiknouvind
domein
dwdd
jose
reserveer
##herberg
italiee
daver
##meermin
durft
kapstok
##schreeuw
honing
vince
circuit
radar
company
attr
atoom
salv
salander
peters
suzy
malva
bibliografisch
viola
serena
##horne
lovecraft
fatima
brussels
hamil
raster
##midden
kyle
##house
saboteer
medicatie
torak
machina
maffiabaas
hoedanig
ludw
campus
drew
storytel
luna
tranen
##desem
arnol
loods
zwitsers
bombast
thrillers
servaz
jargon
bruyn
levi
deadline
blanken
bastaard
gustav
luther
verontwaardig
bucket
##uiteit
##scenario
intimideer
failliet
narratief
ginny
occult
##zwem
wirwar
risicos
haider
bijgevolg
cottage
piotr
##criptie
mandela
indigo
bureaucratisch
clarisse
robotham
43
68
bacterie
cv
cer
eh
fanny
gita
hir
jel
jank
joep
korps
mers
nuk
nort
noth
pi
piz
phil
raa
rim
rum
seth
singer
tina
vill
werf
zim
##eil
##espe
##lique
##iqu
##soc
##serveer
##rison
##zuur
##zadel
##kaft
##delf
##dossier
##path
##haan
##hos
##how
##vath
##vred
##bond
##bab
##yd
ded
death
##chv
##inte
ingrid
##stab
vert
verst
verwijt
geconcentreer
hed
hex
height
oper
##isy
##iser
bedel
beatr
bevolkt
##deins
voorgaand
zegen
zebra
##rijven
aanschouwen
##uru
##oter
overgaan
##rem
speed
##ensief
goeden
reine
reza
repres
republiek
restaurant
##untel
prog
##apocalyptisch
meets
meijer
ontw
persona
##bem
nazin
drak
many
##adverteer
moes
##sterd
sloop
grootbrittannie
##oddel
##odump
trib
verlop
herver
sammy
##aco
##reflectie
kruger
margr
marino
##berge
##groet
##volgend
fra
##seum
pols
expat
strug
flo
zweem
vrijgev
journalist
karakteristiek
##lery
scan
cru
cree
crow
##drukken
##moorden
emot
amstel
##idemisch
##ned
addie
paars
##princ
##productie
kester
##hooren
carmel
##hebbannl
##kruid
vreemds
makel
mazzel
parodie
harvey
quir
quiz
chronisch
letteren
donal
fanfictie
##ancier
impl
middern
##raine
biografe
monde
talon
frankie
houelle
halfweg
potter
bediend
registreer
##ations
soci
##ainer
lowell
tvprogramma
##iffel
bordeel
kapit
epi
ambacht
mondiaal
postapocalyptisch
saw
plotsklaps
radi
atmos
sneeuwwit
camper
reality
merten
##weegend
chicklits
wallis
claust
woi
infodump
trotseer
##collega
urs
kinderwens
torn
vonne
gedeporteer
nors
saneer
schimmel
camping
##porig
##attle
vuillard
##jarige
tarant
nerveus
semi
doug
##gezind
viking
splits
longlist
napels
roger
##ocalyps
premiere
httpwwwwatiknouvind
commando
davey
bbc
montefi
patholooganatoom
years
heroine
mastai
##wordpresscom
##ghghghghghghghghghghghghghghghghghghghghghghghghghghghghghghghgh
pieker
guardian
punk
issue
controverse
##schemer
because
httpssurfingannblogspotcom201
shopaholic
buitensporig
gillian
##wezigen
siberie
##mechanica
voorstander
minutieus
gerrard
picture
slinks
contempor
rhoda
spitsvondig
country
jacqueline
soetewey
parfum
##vredigende
middernacht
atmosfeer
httpwwwwatiknouvindcom201
00
aas
bavo
cm
cub
fier
feder
goes
gile
goeken
hp
hind
hack
hup
hassan
ivar
korea
mu
most
mong
mert
mumm
nien
oland
own
pac
petje
rio
rafel
sod
tus
tate
wass
woman
xander
##ea
##num
##sb
##samerikaans
##rader
##mist
##muur
##moot
##uo
##ues
##zag
##zout
##tl
##tur
##tum
##tiend
##toom
##faal
##fonisch
##foob
##dage
##pectie
##bu
##bum
##wol
##23
##etisch
dee
##oeit
##eeyen
##ituur
vervloek
alec
head
oplicht
##ombe
##dehand
##aldo
##lek
##leyn
ervar
onstuimig
aangifte
##aria
##scher
oosteurop
uitbuit
overschot
schar
##teen
##agnie
anker
vroom
grange
##ctr
prin
veelvoud
##besprok
##bejag
##illusie
##terror
brom
brab
brink
manuel
manhattan
management
##bril
misdaad
misha
##afstand
slop
##ofreen
mensen
##orthod
tegenop
##udding
tussenin
these
##aceer
mink
minnie
diane
krap
krul
interieur
maril
##gram
##pluk
boleyn
freek
existentie
##oolini
nestel
zweer
clich
##klus
##klamp
##ionisme
emelie
ambo
knipper
premis
##nek
adoreer
paarden
##gerig
cargo
##alleer
antid
gerald
israel
##ovie
##flat
##examen
nostra
robyn
slaughter
shot
politica
middle
enkell
barne
vergat
vergader
charism
cohen
holmes
sarina
moza
monique
##lain
educatie
kerr
##bekenden
##ktakel
rodr
josie
##idence
##ibbel
rijg
rijed
100jaar
horr
juich
daisy
filoso
allison
ambul
##wwlindaline
bedriee
dolly
dubbelganger
##smeed
bolton
compliceer
bronte
liber
16e
1946
##load
13jaar
mcnab
1958
mosse
##ingsdeskundige
sign
##horn
14jaar
##zwaai
##auss
nazis
privaat
macle
kolon
kolder
grieks
scandinavie
venijn
modiano
silva
amsterdammer
kalf
maurits
faction
stars
beleefde
castle
hobbel
ballast
norber
##technologisch
boyne
ingenieur
psychopathisch
evident
##boyant
##jarigen
debat
##geschikte
haagse
gregor
toedoen
bradley
therapeutisch
beschadigde
cecile
concurrent
coolin
utrechts
marcia
heksen
annabelle
jeffery
diplom
##becq
senator
krankzin
dmv
nigerium
pendergast
terminaal
verdomd
##kolonie
pfff
giov
mackintosh
flanagan
sijpel
##javik
francesca
oregon
woolf
cornelisse
##dramatisch
truant
flamboyant
antisemiet
melodramatisch
egocentrisch
##bundig
vernietigende
gezegde
before
ordinair
zielsveel
##hoenix
schneid
##doordacht
salvador
hamilton
ontwricht
vrijgevocht
claustro
ursula
nienke
##orthodox
charismaa
mozaiek
bedrieeg
42
46
95
911
aus
abe
avr
athe
cj
dij
eb
ets
fak
fonds
gon
gir
hers
honey
jub
kijf
kad
kado
lanc
lilly
mør
maleis
oers
pj
pon
rena
roes
sound
tm
tum
vac
veteraan
wic
yor
yara
##eger
##lies
##lov
##nib
##roem
##riaan
##moe
##mad
##milieu
##ual
##uill
##zaai
##kee
##kul
##kins
##kola
##fund
##fonds
##dora
##pp
##pink
##hone
##here
##veeg
##vinger
##bis
##wier
##wurg
##77
dest
debet
eender
##itre
inde
indra
##staf
verlei
gedenk
geportret
tear
bezorgde
##ingo
##aliseer
##ends
##ges
metam
zege
steeg
aanhouden
##schim
ome
verhaalopbouw
uitbundig
overlijden
##reola
schik
schiz
schommel
wei
ank
##zeul
reader
##aki
##akkoord
##antz
kommer
naarstig
gren
prous
meervoud
ontvoe
##bevangen
##imm
##iller
##anni
two
braak
ploeter
manoe
though
##adeer
##onderneem
hunger
sloom
##beurt
##odisch
genet
##udi
##uda
##udder
romer
joni
someth
##mere
aust
##perspectie
helik
chant
mine
marijn
marathon
archer
exposeer
##naval
suic
##oepel
flop
##ssa
##ssee
family
pagie
##leefd
perz
##auper
beeldende
ammaniti
##negeer
psychose
##ucces
##keerd
televis
telefonisch
binnenste
please
carf
carina
carnaval
leidd
kwast
menu
maef
ira
derek
warner
##lings
und
directrice
voortbestaan
##conf
teloor
shit
imperium
koper
luce
lucratief
##haut
ilse
kerf
finish
achterk
domp
##ibbe
##enko
##iami
kathryn
garandeer
garcia
wolfe
onderzoeks
##yll
sax
archa
nonsens
formeel
vervelende
homos
compet
salt
1949
francine
gedachtewereld
1955
##alda
brilka
##grootvader
##zwanger
freule
consult
conserveer
razernij
molly
discussieer
celia
fitzek
alfa
efelien
##biecht
##kleurd
verniel
zoey
hobb
balling
macho
backs
geeaf
hypothese
ivm
sherlock
santi
nrc
diamanten
uitgebreidere
caravan
colombium
##hadow
mafi
temperatuur
katrien
aristo
##controleer
novik
##contact
viljar
hectisch
conservatief
dobber
again
googel
##hysand
gegijzel
vegetarisch
figureer
##oducer
natasha
gandhi
pompe
particulier
farao
triomf
hitchcock
eenentwee
chinezen
karamazow
gloria
norton
antidote
aanhoudende
ontvoeer
something
away
brijs
cind
catr
dur
dys
equ
fu
find
fonkel
goor
hank
hau
jace
joke
kiem
keep
kots
koets
lup
lund
map
mika
nal
nijd
obl
ody
pocket
ruis
rip
roc
reep
rimpel
tl
vw
voogd
##lak
##lage
##ois
##mal
##motie
##arij
##abriel
##zake
##kers
##kaap
##koffer
##klep
##kwestie
##gle
##til
##tik
##fiets
##dubbel
##pand
##cal
##hun
##hony
##jun
##vuld
##vonne
##bil
##bide
##59
##99
##eno
##etch
deuk
##chal
hetzij
##ines
##itor
vande
inv
innemend
geil
gedr
gewaar
##oran
alien
almaar
heather
##aald
##isp
beker
voorhanden
stier
##uraat
jeug
jeetje
##arber
##olp
schw
schoor
schir
sper
danie
dance
##agiel
respecteer
##eeft
##anthos
greer
afstaan
elder
ellery
##opgave
##opname
##stede
brend
broos
plaf
plath
##adent
##slo
##onderwerp
##icia
vleer
##odeer
##geleerd
##valier
##volkomen
##kende
gewaagd
##enissig
vrienden
##ved
same
##emd
##aasappel
chalet
chateau
##bla
div
dianne
diva
##ocol
krabbel
##gair
##gradeer
##sef
ariel
arreola
poly
leuks
stro
gelaat
flip
flair
huise
19jaar
ned
organ
##vlogen
##vlinder
zetel
crom
kneep
knetter
##strong
##strengel
uitgeverij
rub
##jaarden
##handhaaf
buitenissig
pubeer
tennis
##krop
autor
##rectanl
que
quent
glut
##appe
fanf
stilton
##rechtvaardig
moham
##compens
tali
vegas
christiaan
##roy
##ether
bekaaid
ongewis
##issement
##inderen
haig
laurel
##ithriller
decadent
horst
daemon
armoed
lodewijk
##incarneer
##helst
verdachten
accuraat
##ylum
vijver
saint
nonchal
overboord
vulgair
##otta
##ottir
timmer
madame
noorder
##lozen
1951
1954
sandy
nicky
chronologie
ijzersterk
thats
macbeth
magertjes
masson
munck
##lope
silvia
oostduit
toerisme
vertelperspectie
1939
adren
revolution
norbert
##weegen
##verlof
porter
tsaar
kasia
estheet
campagne
micro
##willekeur
fields
raafen
firma
pikeer
koude
antonia
tanja
sanders
gulik
gulden
##lanta
nadia
978949
bejaardee
killian
service
jarige
argentijns
averechts
gehandicapt
scrypt
follow
sharpe
county
voice
heroisch
##ridder
looking
spektakel
ondersteboven
rainbow
yves
dmitri
oostenrijks
pionier
##transport
friends
dominant
giphart
dvd
grammatica
##drempel
gitaar
achtereenvolgens
veganist
obscuur
antipath
shakespe
##driðason
pompoen
society
navidson
district
pizza
nazinderen
kapitalisme
contemporary
##tiendeeeuw
marilyn
schizofreen
helikopter
archaisch
cindy
odyssee
plafond
##compenseer
nonchalant
vertelperspectieven
1x
ader
boga
cog
dage
ez
fast
font
ferm
flex
goos
hits
honden
iver
jit
kent
kes
kore
kahn
lob
luik
lacon
mure
miami
nit
pd
ping
pinda
roe
rina
ralp
tud
tiff
umber
wade
wake
wyl
wapper
yol
yas
zien
zelie
##ege
##lip
##ns
##nett
##noveer
##sij
##sem
##smee
##savel
##shaw
##oide
##ozen
##rug
##reeel
##rapport
##abe
##aed
##aida
##ku
##kigen
##gie
##tim
##doos
##pi
##ped
##poets
##hira
##honie
##jood
##jurk
##boet
##building
##yne
##69
##83
##71
##ener
##enoord
##enkel
##etype
dess
##chy
ince
inbreng
##star
##stoom
##stook
verk
verwonder
geoefen
alk
opus
##isk
bear
bevlogen
daten
##alle
nietz
eras
ong
onde
##verhalen
stoc
aangelegen
##iliaans
jewel
##arct
##olah
omar
##ouse
##oto
##reageer
##redrik
##ogeer
schap
watt
##amb
##hesie
##usanne
leigh
lebow
annet
anarch
##ents
pruis
prow
afger
tow
##bevredig
##imineer
ondervragen
##eleid
##steken
bruc
bright
plag
thie
##breed
eigenger
##oba
duel
##astreus
##artre
achterover
##baars
snor
nuanceer
nucle
##udde
gewillig
gewapend
auster
heruitgave
klerk
klamp
cher
champ
##orgio
kritiek
##garije
##plus
fragiel
##seini
##perfect
##overtuig
##abble
exit
express
suus
doen
oogst
##vlam
##leggerig
bernd
berlin
##thoff
amelie
##achim
uitgestrek
uitgebroed
##prent
henne
neerslachtig
ruy
rubriek
ruben
keul
binnenin
geborgen
beters
regelrecht
schroef
maksim
gert
gering
uiterste
harold
unity
unni
##assisteer
mystery
pretty
##expl
maatregel
smet
smoezel
deskundig
desastreus
patience
bewind
imiteer
impliceer
worst
zwartendijk
ijl
kopieer
lucifer
getroe
coh
court
##hael
witt
moz
##comp
veg
vest
##lemen
crimin
rosem
ingegeven
##edy
##edith
##box
indiceer
whod
haven
asa
##elleer
wanen
function
nicola
daughter
universitair
armstrong
contra
hilde
zuidamerika
gelovige
burton
feeling
archetype
vledder
liquideer
compagnie
##loaden
turijn
meredith
viii
alcoholisme
sigur
poker
excol
surpr
cyborg
scheut
isbn13
megan
venster
stalken
hamburg
luxueus
##ulli
##detineer
##rence
brugge
vete
##saer
castorp
##magn
tamlin
##zzul
##zzos
##haron
downloaden
optreden
dirigeer
dreun
kirsten
##huy
buch
1929
##zettend
melancholiek
erkennen
laboratorium
gretch
arabier
nihil
douche
sinaasappel
##ziatisch
procedure
##gezout
neurose
978946
##salon
ayaan
##discussie
sneu
kikker
comfortabel
fabienne
verzot
jodi
caraval
gisteravond
##geeafe
einstein
schelm
schelp
##snede
janneke
griffel
##olicisme
##schrijv
aristocraat
frederik
attent
dicken
sovjetunie
abdolah
vicky
rafael
beurtel
##imatum
nikki
comedian
dresden
philippe
sneeuwwitje
tarantino
mummie
ervaringsdeskundige
premisse
oersaai
metamorf
teloorgang
santiago
vleermuis
mohammed
umberto
incest
lebowski
bruce
eigengereid
1ste
78
84
aber
aha
aula
bn
boem
caar
corp
cred
cita
dot
dell
esch
ester
ezel
ezzul
faam
gij
gan
gaal
hud
ile
kie
kiel
kuif
kahl
loo
lom
lill
lake
lipp
mira
mendon
nur
num
nino
ouwe
odell
pine
pow
rens
rium
right
ranch
sister
squ
select
tul
turf
vood
wist
wijf
yr
zig
##lier
##noemd
##netti
##sor
##sele
##oder
##run
##rico
##mob
##mout
##moeid
##uvr
##zooi
##zwel
##kem
##gom
##tus
##pit
##cing
##cam
##caris
##cafe
##hler
##hype
##xit
##vi
##vus
##vas
##ves
##vous
##veteraan
##ying
##wald
##wring
##21
##98
##enos
##encrisis
##ija
##etr
##etreeks
##animeer
devent
##chanteer
##inor
##inette
##ats
##atel
##atisme
##itch
initie
##staa
##staar
##stre
##stuw
##stock
verbe
versta
verhulst
gegoed
georgie
allie
aliens
alicia
tegel
heup
heitz
opgel
becom
bejaarden
date
##ingredient
##alom
##alex
##gedacht
hebbannl
##leuter
mete
##vermaak
##verloop
stook
statisch
stomp
stender
##arte
##idel
##oup
overhand
##heks
leopol
##tech
bijhoor
bijdehand
dana
##aganda
##agethriller
anal
anime
grijns
price
blom
perse
##besch
##spo
##spook
elm
hoes
drive
##oppel
##opgemerk
brie
bryson
wilhel
plaus
plaza
##date
##ading
##ume
##eske
toegew
vlog
genant
##troost
truck
construeer
kenia
##personen
spanjaard
samenloop
##orgisch
mario
marias
##berry
##gren
##plug
ark
arie
arena
geleerde
##syl
##inazie
##inkt
orakel
reliee
zwier
zwerm
##ontwerp
joachim
##lerina
seg
sein
beroer
zonne
knutsel
##owall
##geremd
myri
##offel
plechtig
detro
##knal
mende
maje
parabel
vijfen
##aandeer
quest
##asseer
##icket
fix
file
##reddie
politiethriller
godijn
##quaat
getint
##crantz
corey
##etera
cox
costel
gekwet
tale
kostelijk
kostuum
gangbaar
roder
ingekleurd
indiaans
schoonfamilie
jasper
louisum
abbey
dunn
nicc
maxim
juven
daw
httpsnl
elliot
zuidfrankrijk
katholicisme
garret
postuum
varg
delaney
##kanaal
dergelijks
pilar
##hanistan
madrid
camiel
1952
vilein
mosby
alcoholver
##ingsvermogen
corrigeer
sores
sigaar
##baron
casino
450
##zwak
11jaar
cyra
##straeten
annika
##umptie
acker
isbn10
##ileum
galen
galerie
woens
riddle
riskeer
sjoer
sjowall
ultimatum
everless
##dwing
sonia
spectrum
kristin
groten
marginaal
##stooren
##verliefd
grimbert
dirty
archeologe
kircher
rudi
##porno
britta
##series
socialist
zilt
escort
academicus
sheri
capit
capaciteit
tolereer
pasta
didnt
##fotograaf
gregg
boterham
##nauwd
bjør
##baud
psychedel
bijlm
lawaai
9789492
mccaleb
##phone
##rigan
themaa
vaticaans
##humor
##humus
smartphone
selfie
##kshow
vernedering
year
saffr
palestina
everything
fascisme
yvette
##filosofeer
cartoon
conditie
virtuoos
verdwaal
roxane
vermoeidheid
hospitaal
escapade
thibault
zwelg
easy
gevoels
populist
pornografisch
navarro
meltzer
boeddh
emanc
pardon
watiknouvindvan
##programmas
nothing
epilep
merthe
jubileum
##uilleton
scryptuur
goossen
stockl
nucleair
getroebleer
beurtelings
plausibel
toegewijd
relieef
myriad
320
a€
ain
avers
benis
baz
building
cee
came
cash
dress
fis
fien
fake
guur
goth
huber
iq
jop
ki
kard
kwijl
kah
lelie
morm
muts
nate
nash
nelly
naald
pg
ph
pis
pond
pont
pay
pippa
rende
rapp
ranc
rico
sien
sum
sac
sult
tav
tannie
vaal
wink
wash
were
wish
wanda
zac
##lif
##lijm
##nederlands
##sd
##sja
##succes
##oid
##oven
##rot
##muts
##uug
##uchter
##zuinig
##koorts
##gis
##grijs
##ti
##tis
##toneel
##fo
##fu
##fur
##doop
##dooi
##dav
##duld
##pend
##poeder
##cier
##hoer
##hok
##hyp
##buis
##wt
##wand
##wart
##wyn
##wonde
##27
##47
##45
##58
##eni
##etur
##chie
heter
##oeven
enjo
##itis
vanavond
vanalles
ina
ingang
inform
##sti
##stom
verve
geo
georg
gepass
##eerage
##order
##orient
allicht
alva
hester
##onnen
bekr
becca
##ded
ikvindlezenleuk
##gevend
##geschreven
ongee
##verdien
##verband
##verminder
sten
stoet
stuip
stuntel
aanschaf
##urus
##ordano
##schaar
omheen
words
overbrug
##reak
##rectie
leesdip
schamel
##amide
kaneel
spa
spek
spons
lema
lepel
bijpersonen
##ieri
rector
##aker
##aket
kompas
grom
affect
blow
bloss
ontzettend
##istair
##beker
##denkend
##imov
onderspit
##terg
##opstand
##opdracht
##opsis
broc
broken
bravo
wilfried
plooi
plomp
##brig
##brokkel
##ics
##obie
##afschuw
sloot
##ofage
gender
##weil
snoer
gewel
here
heloise
kling
klomp
##eman
chil
chart
magi
##enger
##bleek
kraa
kruit
kreng
drieen
frieda
##mani
karper
arno
sue
gewoontjes
strom
##oolina
fladder
flodder
##ssens
1920
1914
##sygenre
neuf
order
perd
perle
clint
oordeel
emmer
emmy
amis
amar
amoureus
##ache
##pelen
##profiel
##ucteur
keet
keun
telep
bestuur
geschift
beterwe
between
schroder
##kras
kwantum
legaal
colette
##knijp
mait
autist
autumn
gereed
##auwer
isi
harland
##snipper
appl
apocalyps
glip
##const
##eca
eef
enigzins
studio
smijt
##liggend
enkelen
topthriller
holg
holder
dienen
##azar
##complot
talkshow
romanticus
##zorgvuldig
katar
morbide
mott
newton
##ijts
##gette
teleurstellen
##bour
##vreugde
##watchv
marten
schoonzoon
schoonouders
##ereh
regioo
illuster
resort
subst
##holpen
franje
noordelijk
tvseries
186
portium
##resse
garr
kastanje
##itta
sascha
hongarije
continuiteit
brexit
brons
formid
delta
delph
##leton
##skind
guer
leonora
1941
petrus
##uleus
wispel
junk
judge
faith
excelleer
freak
feniks
koster
murat
through
sasha
mackenzie
reflex
egoisme
obama
lapena
ridpath
mulan
states
typografisch
raul
ramon
upper
latimer
crimezone
borduur
basket
synopsis
ballon
geinverteer
##risie
hendrick
dwarsbom
##ippi
##jammer
ludiek
##body
evy
birney
buenos
albertine
##getrouwde
inside
##splinter
##stippel
retor
koeken
mooor
rilke
##vleugel
rocky
##othecaris
aurora
piramide
##positie
rogier
legenden
dimitrios
writers
##ipedia
vernederingen
donderdag
vanderstraeten
vaandel
titan
##ology
hongaars
confereer
temperament
cruiseschip
intuitief
antropoloog
eekhoorn
##steeok
intermezzos
##zichzelf
bezwijk
kroatisch
aebi
##cirkel
courgette
copycat
truth
cabaretier
delicious
##tolereer
hypocrisie
lorenzo
krijgsgevangene
knutas
gelukkigen
administreer
##stabiel
montefioor
prince
giovanni
mørck
schwung
schirach
shakespeare
laconiek
dessert
prowse
hennequin
mendonck
##uvreer
opgelucht
overhandig
detroit
gevoelswereld
benissa
rendez
sultan
gepassioneer
ongeeven
blossom
delphine
dwarsbomen
4e
41
47
56
61
63
atel
aire
bm
boren
banks
bora
babbel
bax
bison
ci
coen
caff
coul
cugel
dul
darm
dillon
earl
fiet
fle
fou
fand
foot
father
gimm
herk
hach
jorge
javier
kg
kee
kuil
kitt
krediet
koepel
kudde
leek
lijden
llo
maa
mister
manda
nag
niek
nine
nice
nova
ole
oslo
pim
pover
ran
roedel
sene
suite
sulli
toom
take
voss
vita
wt
wul
ym
zel
zot
zoef
##ekoop
##ehl
##nij
##nak
##night
##iant
##sir
##ros
##ried
##rah
##rooster
##maan
##milie
##uer
##uarium
##zog
##zuip
##zuiver
##kid
##kelijk
##git
##gageer
##tone
##fig
##fir
##dee
##dog
##pap
##card
##camer
##czy
##hara
##hung
##jin
##jury
##yt
##yton
##200
##36
##enant
##enja
##encie
##erne
##anche
##elde
##elling
##chelen
##ijne
##eeen
inbeelden
##eera
##eerden
##oriet
almere
alistair
tea
heiden
##onna
##onneer
opstel
##aalena
##album
##endoorn
meta
##verenig
diehard
zede
staaf
aankaart
aanrand
aanwezigen
##ural
##aron
##olair
ookal
overmeester
schouw
schmid
kantel
##heila
spaan
spui
##usioneer
leandro
##aspect
bijstand
anya
republ
##unami
welvar
##akov
kommas
gastel
gra
gryll
##enten
hooi
##uwel
prang
prix
##apore
affin
mement
ontzag
tosti
persson
##isters
##special
nadium
nadege
onderkomen
voltooi
##eleinde
elimineer
hoegenaamd
geengageer
twilight
brother
##slaan
##utt
duck
vliet
##west
snik
##udonne
traceer
jonka
gewiek
##veaalena
herzi
##kelder
chet
minette
##welkom
directie
sterren
##zinn
combi
klei
frase
##rijks
jongens
karig
##main
zondermeer
extern
supre
gelinkt
##medelijden
19de
recon
recencie
##doezel
natuurkunde
##vlug
joan
jochem
journal
##vroeg
feuilleton
##niss
scoop
cron
crist
criter
##bell
##thet
preview
##athriller
psychotisch
uitgest
fantoom
ruud
##class
##offensief
avant
##spelen
carib
##kraine
kwak
legio
colum
##ivak
parool
jaime
jaeger
##associeer
gluur
##ianl
laium
smale
robb
##breken
middelst
impr
barend
ijzing
peg
lucio
medi
##cross
sarac
monot
##comm
##communiceer
##ktail
voetbal
roar
party
ballerina
##ixt
potsier
profiteer
##issue
bedrijven
ijssel
asimov
laurien
lough
##ellow
horeca
##affeld
##balanceer
baker
greet
grebe
verrassends
allure
professional
bolster
papeg
pleegouders
bronck
vlecht
dela
##ritueel
luuk
notab
bomvol
malone
merete
##hoogendoorn
nature
verslagen
adams
okap
spionagethriller
##journal
logan
kaylum
faust
traumas
exces
gunn
##oxy
fenna
##alyt
koers
consul
miljoenen
abraham
akte
protocol
kimber
darcy
miller
bush
hammer
hydr
scarlett
mission
240
sabbat
1931
1937
##ready
gedes
pierce
bouma
##weekend
ierland
going
##cyclus
zondaar
cocktail
living
wolff
penseel
##ahloo
##juich
##jargon
tycho
naderhand
scarpet
280
firm
hopper
neruda
mortuarium
poeet
roemenie
gretum
days
##fotos
##walter
appet
lilian
##rrrr
##becka
hulst
neuro
gladi
michelan
sneuvel
feyenoord
piepklein
##huma
expertise
jefferson
##besteed
##instinct
zwaanen
wait
dragt
antropologie
ferrante
##paste
##killer
hiaat
brookmy
##voir
denderend
terminologisch
##wikipedia
vakantiethriller
controversie
symptoom
ultra
grammatic
cupido
gevreesde
kroket
adequaat
alexandrie
bisschop
overledenen
subjectief
kneuter
spotlights
gymnas
schrijverscarriere
kirchhoff
zonderlinge
hoger
wodka
fjodor
lubach
rimbaud
beatrix
representeer
progressie
##turig
scharrel
genetica
adrenaline
tiffany
ondeugend
jewelste
afgeraffeld
plagieer
ruyter
##magnaat
ezzulianl
voodoo
verbeke
beroerte
roderick
juvenalis
woensdag
bjørk
emancipeer
stocklassa
mormel
bekromp
lemaitre
##brigade
formidabel
wispelturig
atelier
lloyd
sullivan
welvarend
memento
voltooide
criterium
ijzingwekkend
papegaai
##hoogendoornnl
3d
51
57
77
87
900
ake
baa
bens
bonk
cit
cis
cord
corm
cleef
civ
caus
duk
dah
esp
eamon
fight
farr
gany
hosh
iep
ice
idem
jets
kuur
kob
lac
lonk
lano
mijd
maad
might
mire
money
ng
north
obel
osk
pt
poel
pooi
pep
rou
ronk
rooster
rhode
sweet
sette
sudder
tut
tora
veder
vrijp
vice
voil
vitaal
wi
wk
yuk
zijl
zgn
zuinig
##loot
##nier
##sand
##rou
##ruut
##rout
##mc
##mac
##mont
##aill
##zn
##kman
##gord
##dwar
##down
##paan
##pul
##pes
##hann
##haans
##juff
##bardeer
##yck
##wrik
##97
##enberg
##engeur
##erijn
##ercrantz
##etum
deen
##ooter
##aarn
##instein
##ieven
##atig
##ature
##itude
vann
inkel
instructie
##staart
##stomp
##stateer
vero
verne
verhalen
geall
gepassie
##orst
##orisme
allig
hector
opzichzelf
##isette
beat
beis
bewaar
##ingham
boeke
##endig
##gevoel
##gestoord
erich
##verlaat
dieudonne
stuw
##urney
omlaag
uitkeer
overge
overnacht
##review
schie
schoth
schuim
schema
##jewel
kannib
spatie
spino
spendeer
spinazie
##ensite
##ensionaal
leu
##aser
##zes
##zeven
##zegel
reet
repl
repareer
##uno
##ische
kompaan
producer
##geniet
bloos
bloede
mest
##oordineer
##behoud
##bewijs
##besef
##beholpen
voldoende
##illusioneer
totstand
droesem
broe
mankeer
manege
##ady
terg
##drine
##ices
##koming
vlaandeer
##artiest
##odil
##odore
genius
##wei
##weiger
##westen
##valueer
snee
vrouwe
conform
contour
kenbaar
werelds
sammie
kliek
klif
kluif
cham
chang
chann
chau
##anka
magic
belabber
dix
dias
##ocent
kruimel
krauss
maria
marple
pasgeboren
##greer
boys
franny
##seille
around
police
##abetta
struct
pagetur
perc
clos
claude
##vra
few
scot
##epos
amen
amalia
prehistorisch
##neet
taalkunde
##proc
fantast
henrik
kevin
buitel
sproet
carel
pais
detect
openbar
kwaal
legioen
##knutsel
##urnee
oorlogs
main
maia
engelen
irma
iraans
simp
hare
dichtbij
##lington
fantasys
##conflict
##consequent
##constateer
vermoe
stevens
bender
enigst
small
##redens
##reduceer
patrik
ship
shade
should
shirt
##raite
stilstaat
lucien
##coach
cove
milena
public
without
matthias
matthijs
monsie
##computer
talk
collect
eduard
visum
motel
mother
final
roald
##filter
ongeduld
marty
##issance
1500
laagercrantz
##pijp
##mares
motiefe
##affia
walvis
duikel
speciaals
garden
##therapie
##danus
saoed
archie
novels
keltisch
poetin
gesticht
esoter
timothy
##monster
170
175
larken
afgezonderd
bibliothecaris
banaan
pseudo
mcg
mcf
##fano
engageer
jerome
##grootmoeder
fauna
namens
rampzalig
loved
canon
bernhard
ferment
stiefzus
linker
mundanus
moluk
##kweek
##bieb
##houck
##arriveer
##resseer
falk
augustinus
tabak
tamar
##verloren
##rasp
beschaaf
##metisch
propaganda
vriesekoop
geruststel
livia
optredens
keurs
##veiligd
floris
birma
stories
pathetisch
##accin
magnum
facade
##slede
##hemd
##fijnd
lynch
bijlage
himself
usb
library
hulde
ravijn
treure
978940
kameer
antoinette
pyth
##psychologisch
smeul
luitenant
##palm
verzoen
levus
##glip
miljardair
##gevangenis
##signeer
devil
elvy
griffith
valentine
valentina
pluimage
comingofage
tieener
##telefoon
##paul
limburgse
fascist
roelof
##correct
##uitgesprok
aquar
aquarium
##virtu
heyink
heydrich
optimisme
marloes
##hillips
##filosofisch
coelho
nowhere
south
kroatie
rekke
##loochen
entertainment
csi
tiuri
ineke
##gesteld
klungel
mclean
mcleod
##corpio
##vandaan
vasquez
stoic
##afgebrok
bedroevend
hmmm
onenight
laatstgenoemd
loomis
reese
reserve
caitlyn
mogad
anthony
afrikaan
gniffel
yaroman
##mutileer
##sociaal
##integreer
journalistiek
impliciet
amboanthos
avraham
chantal
competitie
catrijn
gewaarword
autoritair
taliban
antipathie
iverness
uitgestrekte
##sylvan
pilarczy
saffraan
gothic
rendezvous
baxter
gimmick
gewiekst
uitgestorven
caribisch
monotoon
potsierlijk
loughlin
gedesillusioneer
gymnasium
lanoye
maadeline
mireille
obelisk
alligator
bewaarheid
schothorst
totstandkoming
structure
esoterisch
59
53
67
atr
agr
bend
beef
boet
bals
bip
bikkel
boost
bacon
bivak
cum
creek
cello
doo
dille
eus
este
eure
fee
fillon
fidel
gol
gine
gamer
hee
hees
huw
ict
jelle
koos
loe
lore
later
mm
mim
mma
maast
nanne
nish
nola
pess
pene
pact
pov
pudding
rh
ric
reed
rif
rigo
siska
tulp
tup
tape
tissue
ug
vip
vine
yo
yard
zu
zar
zooi
##ligen
##linde
##lake
##laagd
##nim
##neur
##ize
##iak
##sz
##sop
##switch
##simpel
##rant
##reep
##rida
##roddel
##mr
##mack
##machtig
##monteer
##uu
##ua
##ziend
##zwij
##zoom
##zieke
##koor
##kab
##kinderen
##gut
##giene
##ters
##tir
##tank
##ckel
##cake
##hle
##hus
##huw
##hack
##hamp
##jat
##jør
##bout
##baut
##wade
##weeks
##wana
##81
##enne
##enstein
##eraad
##ijver
##anen
##analyt
##elijne
depart
dehouck
##instr
##ination
##inspireer
##insey
enough
enscen
##ati
##itiseer
vanja
vanille
inspect
invent
indridason
inquis
inlev
##stuceer
vertig
gea
geintroduceer
##eering
##eerte
##orra
alison
teister
text
heit
hessel
heaven
##oneeel
##derman
##isabetta
beziel
bewegen
behelst
##dec
##deen
##alarm
##endio
##gezie
##gedachte
erkend
online
##verz
##verg
##vertel
##verdrijf
##verneer
state
aanleg
aanvul
##ures
##arier
##arden
##oline
omge
##oton
overlever
overlijd
##realiseer
waarheids
schum
schem
##andy
weid
weijts
spiel
spuug
doorde
doorzien
##ensmokkel
lez
least
##ersap
bijelkaar
dant
anat
reme
redigeer
##angeer
naargel
##ichel
graas
group
hood
prag
daarachter
aforisme
meade
mechelen
ontzien
tod
tove
##istr
##isten
##aande
nast
navel
##imp
##illant
elan
##uurenz
driek
##opie
maniak
begeerte
territ
##uma
##uman
tweed
##uttel
##icie
##esis
toestel
toeverlaat
deelname
##object
mish
slogan
langdr
##web
##trans
snuff
trust
tracy
jonah
##rekruut
auberg
herrie
eerbied
chel
mina
##blet
diabet
event
pascal
##ardottir
##graf
comes
##wijzig
##secret
karoo
ariaan
existent
##oky
strike
flets
flower
##ifel
##meg
1917
##syroman
stuks
neven
neville
orden
zwoeg
##onto
peru
cline
clavis
sejer
seije
screen
crush
beryl
bereik
##klank
##klok
pregn
##stro
##stroof
##strilogie
ideeen
ada
taalvirtu
##gerijm
ruper
literary
vasthoud
##anson
##ailer
##enaars
##mpt
geschie
spruit
pupil
caravag
schraap
##kramp
cola
##misdadiger
##alleng
##ceum
##weesd
maine
autom
gerda
geraed
pareer
isik
harari
harnas
harrison
quer
quich
apple
container
glass
##appeer
stewar
benul
##middelde
lauurenz
##lenn
dono
wroeg
rijks
midd
midas
ijver
ijdel
peyton
medicus
perfectionist
##htt
##cours
coal
cospl
biograaf
hollow
ilona
mole
standvast
supergoed
katniss
jackson
middendeel
rosalie
concord
olsen
handels
illus
illum
illustr
proz
##ekende
wanted
subverhaal
armada
##hollands
born
##ialist
hanni
etiqu
solide
epidemisch
curieus
wolfen
boose
novellen
delicaat
homofiel
compostel
random
salaris
esmee
maddy
##hoebe
schokkend
130
botan
##riquez
moslima
engl
poolina
sereen
financi
calorie
455
chronic
verona
catch
frey
riool
murp
consumptie
bonte
prozaisch
gerechtvaardig
hamvraag
palmares
menigeen
hygiene
muller
silhou
carlton
alfon
raid
21ste
ramse
##planeet
dijkzeul
maybe
gerichte
belezen
chinouk
saba
auditie
underdog
kunstroof
porte
porsele
##metrisch
boezem
stefaan
lisa
floreer
byr
clean
##boekenrecensies
geex
lunar
verbazend
leeuwen
sieraad
nesbo
debbaut
chocola
oxen
poeh
retraite
christoph
sadist
##bombardeer
hawkins
##slecht
##slechter
future
zijdee
janssen
himal
personal
brady
neurologisch
lawine
lawrence
elektron
##normaal
teweegbreng
huh
##discrimineer
bungel
lori
##oghurt
lineke
diploma
scrabble
##consin
##toerisme
icarus
##begin
celest
gustave
##lettend
batavia
coole
##schrijven
babys
braziliaans
superieuren
##corr
andries
thompson
orgineel
eyes
nigeriaans
entiteit
troika
##boter
##transplanteer
mopper
mangel
##vonnis
##chroon
faillissement
gioia
httpssurfingannblogspotnl201
boxer
krokodil
kreun
tsjechisch
ajuba
gouvern
gouverneer
kidnap
jinxed
bedroefd
##ffffffffffffffffffffffffffffffff
sloane
neonaz
##youtubecom
traject
dolfijn
migraine
compromis
##claimer
knausgard
zantingh
totalitair
jaagoslavie
wagenaar
herbjør
##kloofersap
margriet
crowd
houellebecq
sawyer
007
cubaans
mongolie
##ctrineer
rodrigo
diplomatiek
maleisie
renaissance
suicide
##confereer
ongewisse
kessel
rosemary
sigurð
excollega
yrsa
##beschadig
gekwetst
httpsnlboekenrecensies
a€˜
kardinaal
rancune
heterdaad
enjoy
overbruggen
plompverloren
telepathisch
applaus
##bourne
hachje
##figuren
peggy
delaware
grammaticaaa
voila
geallieer
pageturner
vermoeiende
monsieur
mogadoren
pilarczyk
atrium
bipolair
laterveer
rigoureus
ensceneer
inlevingsvermogen
vertigo
waarheidsgetrouw
remedie
naargelang
aubergine
diabetes
pregnant
geraeds
cosplay
etiquette
porselein
herbjørg
220
49
73
86
92
atw
ble
baak
buk
buil
cic
camel
cogn
dinos
fond
folk
fiona
gut
gold
hr
huld
hick
ign
juk
jann
jink
jago
koord
kiss
kachel
kolk
kreuk
kassa
ll
lant
lann
llos
linder
lama
lana
mou
morg
maai
mace
mabel
monteer
muf
mieke
noel
nem
nout
nanny
ov
ow
ore
paa
puis
pok
pair
pick
penn
pole
rie
reel
roon
reef
rits
rash
raket
seem
sut
sectie
tred
tilly
vd
vael
vox
wave
yan
yoghurt
##ever
##evel
##ezoon
##liefd
##nn
##iat
##ibr
##iander
##sin
##sink
##sion
##oi
##ove
##roek
##ray
##rigeer
##ronde
##maa
##mind
##mank
##maagd
##maken
##mitteer
##maffia
##upel
##aure
##zum
##zira
##kooi
##koos
##kong
##gs
##tap
##fit
##fol
##fix
##doo
##dos
##dum
##damp
##pur
##poos
##ppel
##hersen
##vide
##viger
##bijl
##wanda
##76
##93
##eraal
##anker
##anelli
deef
##inch
##ining
##oepersonage
enigen
##itus
##itzer
inkeer
indo
veroor
verste
verweesd
geassocieer
##oorloo
##ori
##oril
##ores
##iguel
alke
alger
alph
algor
tegoed
hep
##oni
##onis
##onse
oploop
opzichtig
opgelo
oplage
oprah
being
beje
beam
bestek
bezwaar
dato
##defin
##ali
niettegen
##geschap
##geheel
##geslacht
##gecompliceer
##gebreid
vooruit
voordracht
##leet
##leigh
diesel
staak
##iliteit
##illes
jeuk
##ordan
##olien
##olly
##oliber
##schen
##scheer
##schon
##schots
worden
also
##otine
overall
overgrootmoeder
##ogether
schre
schuit
schwar
schuchter
hijg
kane
spij
spag
spagh
##usa
doorgang
anach
##zever
##zegen
allegor
welagen
##ikken
##akis
##anton
gade
gaelle
gaiman
gaudi
groon
grill
grop
preek
print
prime
##apr
afra
mea
mex
meis
meulen
onth
ontbreken
toky
tournee
##bedrag
##begrens
##spied
##sporen
##sparant
##denstein
onderget
eland
else
drog
drenth
##opge
##opper
mante
tijdverdrijf
those
zelfkant
##bry
##aamd
##obel
##obot
miserie
dust
duff
duoloog
duvalier
##komst
genrich
genesis
##weden
##trommel
##troebel
jonasson
verlos
spanning
consc
herbert
hermetisch
samson
kloek
##emi
##stell
##acke
chab
dageraad
##orgium
##blus
##blish
##oose
##ocatie
interest
marge
marai
marnie
marissa
marquez
##bereik
##gruwel
##pla
##voorzien
comic
bodenstein
moederdochter
aria
##aboreer
##nay
##vande
##vanhtml
streel
strange
##stablish
gelang
##meul
nesta
familia
zwijn
zweep
vrijwill
peri
kleins
joa
##vrolijk
##klun
amir
knew
##stralen
##atholiek
rondje
filter
##nert
uitgebouwd
##print
##ucc
binnert
debuutthriller
kever
##cliche
##jaarig
telegraaf
##actisch
gebaande
care
carla
paige
##krans
color
##misdrijf
##spraken
maium
##ivd
irf
derix
paras
parvath
quas
sfinx
apathisch
halte
##cones
steviger
benzine
##ecr
##ianus
juliana
enigma
laer
doneer
robbert
##brei
##brein
johanne
patiss
imo
action
##rain
bark
barker
##crime
cobra
##eeuws
##entrop
##entrilogie
move
##commun
tomi
standup
##urek
edgar
katalyse
moralistisch
jacks
wisselval
##rocht
##roze
schuldigen
intact
roslun
micheel
bergman
zomerthriller
instit
gezant
schoondochter
melch
##banees
havana
bosnak
##tegenover
disfunctie
abdel
##heres
10jaar
armen
##holland
lois
walnoot
franzen
dubio
1200
technothriller
##parad
etnisch
penibel
255
curry
garrick
oei
bedrogen
behr
##schrealistisch
leegstaande
saillant
bold
babylon
breid
puberdochter
circe
##archie
aspes
identiteits
wasnt
pilgrim
salomon
experiaan
lars
##loze
geinteresseerde
##ndoril
conny
connolly
blogs
kruisig
##kampioen
kaylee
140
faber
##hoooge
##blikken
##temper
daarenboven
promoveer
fredrik
riad
nazisme
##shot
##shir
##ship
ako
suss
brusselmans
terroriseer
macy
##presideer
darkn
cress
creme
dorn
dorian
dorothy
venus
##burcht
palmer
moldav
lapd
menthol
remie
materiea
rawi
sjaal
##borrel
evert
focuss
korst
koriander
starn
outs
invalide
basil
audio
angelique
castell
##boli
transgen
##oughlin
boyd
##away
##dankbaar
whats
change
barthes
siri
siren
ratio
egypt
voorkeuren
rudolf
gehaaid
incendio
evus
transparant
1926
1928
dali
##agnost
geneal
##hohn
mannen
tolstoj
mortier
mortimer
stereotyp
magnifiek
gregory
hoera
tirade
woody
jillian
supporter
geestelijken
##ughn
rabarber
bookloofersap
cathelijne
##rates
nijhoff
nijmeg
discotheek
##salade
##stationeer
gomorra
budget
wwwalex
##volwassene
lineair
##kshire
vandermeer
enzovoorts
scrup
ahndoril
knows
##toerecht
navigeer
playboy
mandy
##sneuvel
##milio
##opolitan
western
pages
valentijn
whiskey
granaat
zoooo
gehoorzaam
elinor
elinborg
ecologisch
fascistisch
vaughn
collaboreer
##point
tahereh
mosset
##aangepast
krimp
pensioner
##fantas
##christ
someone
sergeant
reeve
gevreesd
rabbijn
rabbit
adema
verdwaas
opportunistisch
opportunisme
kluns
hagar
koerier
pantser
artefact
imaginair
microscoop
bengt
hjorth
benoit
raffael
mechanisch
vlieger
##historicusic
zimbab
vertier
speedboot
quirk
httpwwwwatiknouvindcom20180
wassmo
oplichten
maclean
kolderiek
wicked
tearling
perzik
achterklap
obligeer
gedrocht
polyg
ezra
ziggy
stromboli
maitresse
substantie
ymke
##siroop
reconstructie
psychotische
cormoran
hoshiko
jetset
oskar
##dwars
spinoza
nishk
taalvirtuoos
concordia
atwood
huldar
llosa
##oorloofd
alkeiden
opgeloste
bejegen
niettegenstaande
##geschapen
spaghetti
tokyo
ondergetekende
##stablishment
vrijwilliger
patisserie
rawiya
wwwalexhoogendoornnl
2x
81
83
auk
avance
bee
baad
bout
bff
bfilm
cz
cav
coff
cain
dineer
each
evel
ett
fell
faye
found
gist
gop
giel
glos
hink
havel
hachelijk
ig
ies
ivoor
igor
jp
jip
jurg
jockey
jurek
koo
kend
kussen
keten
kade
kous
ketter
kakker
kuy
kidd
lon
loei
lauer
lmc
ms
mg
mch
mck
movie
noon
noud
nsa
pes
pall
pendel
roek
rele
rivers
rory
rings
sit
seek
serg
susie
sole
sartre
tif
tucht
tete
together
ugres
used
vb
vene
waa
wom
went
wheel
xen
yathriller
yellow
zaag
zoom
zack
zadel
zuivel
##lis
##lou
##lende
##lint
##lanceer
##nuik
##nix
##sam
##sby
##oire
##ruit
##roop
##rooi
##rucht
##riette
##mant
##monden
##uh
##uste
##zl
##zant
##zeng
##zuim
##kam
##ging
##goede
##tv
##teel
##foort
##fits
##dden
##dget
##duin
##cap
##hd
##hore
##hari
##herty
##jen
##jos
##jose
##ving
##vele
##vinder
##bork
##bentrop
##yote
##wijf
##wauw
##work
##worth
##64
##queer
##erend
##etcher
##elier
dep
deste
deins
##chus
##inn
##iny
##inster
##ineen
##infect
endo
##atus
##atius
vanden
vanop
vanochtend
ingericht
##staal
##stier
##stien
geord
geologisch
##orca
tech
tekeer
##onalisme
##onimo
##dera
opvang
opbiecht
##isa
bever
besm
beoordeel
becker
bevrede
data
boekvinder
nietwaar
##endat
##gepas
##lemans
metrop
onuitge
##verkeer
##verkracht
##rijst
stig
aangericht
##arn
##ariteit
##schijf
##schut
##schiks
##schlag
##schelling
verhaalfer
uitstralen
uitmonden
##idair
##iday
##ouf
##oufl
##otr
ditzelfde
overk
##elijke
schaaf
scheep
scheet
wex
##amo
##amas
kanjer
##heime
doormiddel
##ensatie
leander
##ierd
##agus
##univers
##angel
welnu
##ischer
vree
vroed
##aksen
gayle
gadget
gro
grana
hooge
##apende
afr
blaam
blunt
mevr
meira
##beet
##speld
nab
onderhand
##illen
totem
hoeve
drent
draaf
twe
##osant
##eeman
wilma
##ugo
##adie
##adette
##druppel
##branche
##onderwijs
##escu
does
hierachter
##komer
##artij
achterblijven
##odo
genaamd
##tro
snot
snuit
##udy
track
triv
travel
roma
gewen
##enisleuk
##lando
hern
herleid
heller
klonne
##emie
dusver
##iescene
eerder
kinds
##acombe
challeng
magnet
magneet
##welk
##zoekwerk
mariet
margaret
marnix
stern
##groeit
##pleer
##voorde
valley
commiss
##wijz
##wijde
klep
fried
frappeer
##sej
##iney
##perus
karma
##made
arc
arsen
ariz
arjan
##itiem
such
##vanagh
stront
strau
geladen
flu
flood
neil
orwell
##ontsteek
##ontbeer
doeleinde
permitteer
##vlot
sever
scient
##beleef
amari
knaap
##strip
##neuk
##nefer
advent
adonis
oude
##ucker
telegram
gember
beton
better
teneinde
##kritiseer
makes
pakistan
hartig
##sprak
mai
##ives
isnt
isaks
haruki
unit
lettre
##wegian
##snuif
hale
gloor
gloei
glib
benny
##eck
telg
juliet
laver
smos
smile
smoky
##friss
aardbei
##anck
##ancipeer
design
extravag
rijke
rijkel
imogen
actu
actiescene
##rainde
vergiff
konrad
##crash
corell
coyote
bibi
holm
mour
mater
matras
##pakket
monog
lukraak
veeter
##ousse
gespl
gespierd
extravert
##ckx
finesse
roslund
halfslachtig
oli
olm
ingebouwd
ingewijd
baltim
instant
installeer
while
melodisch
domburg
haiti
laurent
##ither
resoluut
brandon
##ossip
favorite
##affaire
##gemeente
noords
##helaas
jouber
##agente
borge
patri
allon
allah
zweinstein
penryn
solidair
paddy
##problemen
##liefst
##aume
##wwyoutube
garde
verantwoorden
saunder
bologn
kerker
imposant
lijfeigen
lioba
##ikein
##skatholiek
##node
##novel
jessi
musicus
notoir
petron
13e
merit
bana
arturo
artific
spoileer
codex
##2017
moskee
okay
seroepersonage
sigma
##wili
cases
##zwakt
##hilim
##chester
catacombe
freu
femme
kohler
murray
russo
joey
akker
##worst
although
mattis
nuttig
macbride
mirakel
acuut
darwin
darkest
kolja
cremer
lines
dorien
munster
galerij
infant
ridic
silke
risk
mississ
toeriste
##born
princip
sense
royen
cabr
cavanagh
koran
##register
##bakken
belegen
vernon
1932
1936
1933
kitsch
##izerd
kristof
runa
angela
transcriptie
hohl
velde
revolver
chanteur
##konkel
##identificeer
providence
##blogspotnl
onbevredigende
betrokkenen
clement
##serv
##fortun
buizerd
1925
##agnon
ivf
tarik
##pressief
calla
central
narnia
gretchen
hightech
jennefer
tablet
didi
wayne
claudel
sadisme
dickens
gilbert
chocolat
hutje
discreet
tentoongestel
sneak
centi
pyren
havix
kellerman
sidder
krabbe
mierlo
settel
##compleet
harmonischie
##signaal
luttel
##bloemen
1902
visueelis
##militair
albino
##opolis
gerekt
##promoveer
overweldigd
praags
##boks
##profeet
davenport
integraal
senior
katrina
collage
bloody
higg
brooks
orgine
rosenfeld
tahir
hoornstrum
##pasta
##aangekond
##haspel
kazuo
##lezenisleuk
intimus
##circuit
deftig
##status
sijthoff
astronaut
mallorca
accountant
schulz
delegeer
pulitzer
ribbentrop
##latan
alberto
overledene
weelde
weeldee
beuke
eadlyn
hazendonk
jagger
##enthous
hypocriet
doortastend
##ruzie
##a€™s
##cuul
memorie
differ
compromitteer
zania
blaze
marielaure
carpenter
carpentier
eugene
flaubert
attractie
tribune
bedienden
yorkshire
##kolaj
omega
pompeus
haute
invasie
guliker
pinguin
tudor
onguur
towers
##competeer
eschbach
renske
meteoriet
blomk
boeddhisme
dressing
sacr
childr
garrett
hendrickx
retorisch
fouca
zelve
##kidnap
republikein
affiniteit
##specialist
supreme
##ixtijns
okapi
collectief
usbstick
pessim
##secretaris
##gerijmd
querido
donovan
chronicles
silhouet
leeuwenhart
gouvernante
paaz
##ezoonenl
allegorisch
gropius
meulenhoff
ontheemd
##ecraft
melchior
starnone
scrupule
verdwaasd
kakkerlak
lmcmr
mchugh
opbiechten
boekvinderbe
verhaalferloop
straub
extravagant
vergiffenis
##lezenisleuker
5e
6jaar
79
7jaar
82
85
96
aa
aka
aya
bac
baai
bath
both
bley
bild
buff
cens
cach
cade
culp
dord
duld
delft
dare
estel
ecl
fc
forg
ferg
fift
goot
gaam
gott
govert
gossip
hoon
huls
huppel
hava
hockey
ith
jut
jør
kord
kot
krijs
kock
loek
loet
laaf
lans
lail
liene
mb
nos
nina
pouw
penis
poeder
panda
renn
roest
rtl
soe
smer
sve
saff
sesk
toos
torp
uk
uf
vn
voe
vun
vaas
vaccin
woo
wre
wip
wikkel
wulp
wife
woll
wentel
xi
xiv
yang
yann
zag
zivum
##ede
##econ
##lia
##nit
##not
##noord
##namen
##nagel
##ians
##scrimineel
##soolini
##rak
##raan
##moor
##mage
##mic
##mistisch
##mineer
##more
##magisch
##ae
##zijd
##gok
##gime
##ginnen
##fys
##futsel
##falt
##disch
##peer
##piet
##pack
##power
##cre
##caat
##hom
##hoon
##hant
##hop
##helft
##hikel
##jud
##juf
##vv
##vee
##vius
##brij
##bir
##babbel
##bott
##bare
##bola
##bull
##bird
##yr
##yce
##wolk
##wurm
##62
##53
##qvist
##enu
##enon
##enas
##erwt
##ijten
##aaal
##anie
##anas
dein
desper
##cheer
##intel
##inne
##ieu
eenen
enge
entour
##athe
##itme
inez
indrukken
##stuif
##stwee
verwe
verzaak
verzoch
verzucht
verfriss
temidden
hess
heide
##oeker
##dero
##ismo
bem
##deeld
##degelijk
##alc
##geois
metoo
metsel
ona
##versl
##verhoor
##vervel
##verstaan
zeden
##rijgen
stoon
staf
stoei
aangem
##olijn
##olle
##schoft
##idan
##eele
##ousel
overlap
overblijven
##reien
##realisme
##ogend
##inden
##indie
scher
schaat
schlink
##ands
weiss
weird
##amine
##ambt
spett
##use
lead
leif
lewin
lezer
levana
##agu
anast
alledrie
rever
reper
revan
rekr
requ
reporter
rebecka
##ango
##oonstel
##ischwili
##ikamp
##antiteit
komeet
gay
##icheer
graat
grac
grif
grow
grabbel
##apserie
afijn
afro
afdoend
##genereer
blur
blues
meind
ontzet
ontgeld
##aandacht
##aanse
##bewaakt
##spaan
##spact
##spits
ondernemend
andermaal
andersen
elly
draken
dronk
twent
##osse
bride
branna
brrr
brenna
wilg
wilf
plac
plunder
mance
##ados
terloop
##uth
##sterren
##kerf
##orment
##obbel
##oberg
##afi
##afrika
duch
dupe
hemhaar
##ofee
##ofaag
##ofoob
vlad
##iri
gena
##traagd
snood
snuffel
denigreer
vrouwon
tree
troy
trofee
##voldaan
##waard
jonna
kenne
##personeel
herge
##alsa
kluit
chi
chal
terugblikken
samenstel
##stukin
##engs
##oegoslav
minus
miniem
minoes
minute
##bler
##bloemd
##bloesem
mariette
pasen
paspoort
##ardo
##esssam
##graad
driemaal
##iade
##voort
##sein
##manus
##manier
arun
arlin
policier
beeter
##abie
leukemie
##vaarde
fletcher
##ify
nederlaag
idool
##sylees
##keup
##does
perez
clue
zeta
scept
##izzo
creer
cris
bere
berouw
##klyn
##klore
knecht
knight
knoll
preuts
##straum
##new
adjun
uitgek
uitgezonderd
##proo
##priester
##geren
myt
keil
keith
binnenkomer
vierkant
gebod
geschreven
aviv
pleister
pain
##krui
kwik
kwantiteit
##zelgang
colin
colton
winnie
pakist
##misschien
verbog
verbied
##knecht
maji
author
##iviteit
antonie
##ziene
geronimo
pari
harald
gezins
##lingen
unger
geducht
jazeker
naastee
##halmani
##snt
##ovski
##lossen
gly
redactrice
sfeerschets
##extre
steil
##merkt
##amed
##wekkende
eeden
##kijkt
##wasi
fanelli
fanatisme
pose
poss
position
shap
shane
shining
##rommel
pester
luciana
medaille
konig
konstan
##crets
opperst
corfu
co2
coherent
milton
moker
matter
##comment
veum
vehikel
superman
edwin
eddy
plezieren
##roerend
##elingencrisis
franka
morck
jacky
news
##ografie
finaal
finley
##preading
##kton
rosnay
##filet
olive
##editie
##ixante
whole
melody
bedw
sympathiseer
asha
##tegenzeg
153
proven
plato
platonisch
httpreading
aborig
abnormaal
funest
100000
subtitel
horn
rush
russel
yorkse
##enkast
obser
##urgis
borra
hilda
allengs
kingdom
##stapo
burcht
assad
scherpte
import
jacq
nonactief
liars
windmeijer
##geschonden
felic
##fouten
166
compagnon
jessy
##ritme
timo
bomann
##monnee
camoufl
soixante
exploreer
explodeer
wiske
janeiro
##2016
richmond
##horig
zachts
##barotti
faul
##retzen
verkrachten
##hartig
mateo
prompt
nazid
##shirt
definieer
versa
thron
consistentie
akwasi
bernar
##world
##presentatrice
daryn
##ileens
stiefzoon
stiefdochter
creative
crespo
##automaat
egoist
hamster
##forum
miy
modieus
graaff
remake
arrow
arrium
vertelvorm
sjoberg
eft
mayer
##902
dwarrel
rutten
tabit
adria
##beteken
ending
toronto
rune
##limburg
eleanora
showbiz
francisca
vonnis
##polijst
kundera
haye
hayley
boekenfan
chanel
##effen
##eyemi
romeo
kasper
lofth
baantj
evi
##ijev
geevolueer
##serum
1921
sarcofaag
arnon
junior
sheridan
##moreel
gardiner
retour
roemeens
gecompliceerd
lieden
appie
aura
kaste
jakhals
beklijev
secur
pinch
gulzig
otten
textiel
personneer
nadja
trilog
marjolijn
978902
978908
bescheiden
marcuw
piepjong
wieler
nathaniel
tolkie
bruijn
documentairemaak
##lexie
ashley
budd
ceo
couperus
innoveer
innocent
historicusic
titus
airbn
gotland
libie
##diefstal
1897
safia
##igoh
lexicon
temperance
broad
lulu
##hrer
##correspondeer
##corrigeer
memoriam
hoogstens
guillaume
##contract
##function
bitch
troj
goris
heeming
##hassel
enveloppe
krimi
dominic
manga
benedictus
conservatorium
defensie
riga
francois
eufem
clarke
nikkie
perkament
##concert
delicatus
##journaliste
stream
thibaul
astor
bardo
craig
##gebeuren
brooklyn
httpinfoboekenblogspotbe20160
vtm
incluis
mischl
dissocieer
geemigreer
khalil
loves
flauber
raabe
rumoer
##principe
##princesssam
tornado
sodom
##tumor
manoeuvreer
saxofoon
dyslexie
lundi
jeugder
fanfic
97894918
fontanelli
yolanda
brighton
mozart
##discussieer
metamorfose
kiezel
initieer
niccolo
geinverteerden
caffery
coulisse
kitty
##commandeer
##journalprincesssam
brookmyre
ganymede
##procedure
shades
inquisitie
geavance
textuur
territorium
standvastig
illusionist
compostela
portemonnee
geexecuteer
##beschadiging
geallieerden
##fixeer
verstegen
alphonse
schwarz
spijbel
anachron
manteau
joaquin
parvathi
##paradijs
##temperatuur
darkness
nishkigoh
gopher
sergio
soleil
ugresic
##wauwel
metropool
glibber
smoske
rijkeluis
veeteren
cabrillo
pyrenee
different
culpa
fergus
fifty
kordaat
laila
lieneke
saffier
seskis
vunzig
entourage
verfrissend
aangemeld
spetteer
requiem
terloopse
kennedy
adjunct
httpreadingjournalprincesssam
showbizz
httpreadingjournalprincesssamnl
71
74
88
aad
avey
amaniti
aivd
bik
buw
bore
bull
bavel
cem
coom
cair
cah
ced
coss
ciar
coordineer
dok
dash
dario
ek
emer
ecker
establishment
fik
fug
fine
fbi
goek
gaat
gover
gium
guin
gubbel
haa
hast
hui
huff
hurk
ist
jin
jog
jers
jio
jene
jup
janny
joegoslav
km
kuk
koom
ling
laan
leem
lod
laast
lont
lide
lade
liss
lonel
mce
mica
muel
mmm
muteer
nb
nol
nir
nank
nits
ost
ober
owen
pec
rent
rage
rach
reeg
sind
sard
sah
tant
tad
tyl
tjonge
um
vend
vint
yet
yog
zara
zaven
##edel
##eiste
##lich
##lof
##liteit
##loeder
##nijd
##nuis
##ioel
##swaarde
##song
##sup
##oys
##ril
##rente
##reeuws
##maans
##mager
##uul
##zwijmel
##greet
##green
##town
##torment
##fok
##fonie
##dot
##donk
##diner
##preek
##core
##case
##hank
##home
##jah
##joen
##jka
##vos
##bain
##bonne
##bingo
##beleid
##yssens
##wiel
##54
##96
##ening
##enium
##erto
##eta
##analist
##anberry
##elet
deep
defect
deporteer
##inen
##inees
##inueer
##investeer
##atiet
##itys
##itcard
ingel
inzit
infin
inherent
##story
##sthriller
##style
verijd
verkn
verwarm
verbloemen
geheid
gevel
geiger
gewezen
geblader
##eerischwili
##orte
##igu
ale
ales
alep
almar
alek
tewerk
##onoom
opin
opgetogen
##isi
bey
beinvloed
beugel
bevredigende
##depressie
##degradeer
boekerij
##alee
##alert
ikpersoon
nietig
##gegen
##geweer
hebreeuws
voorschijn
##lezer
##lebak
##lequin
##levard
##lekker
erve
erwin
once
ongeluk
onopge
##verblijf
##verpleeg
stunt
stup
styl
stipt
style
stasia
sturgis
aanhang
##arag
##arieer
##arelli
##olia
##ologen
##ollo
omstreeks
ooster
##oub
##otto
##redig
##indler
scherf
##andie
##andre
##oedan
weide
weitz
spinnen
##ense
##ensen
leylum
##tex
##teuil
##teverstaan
##ieronde
animeer
##zeik
reuk
reiger
welteverstaan
vrien
##iku
##ikke
gratie
graff
grossier
##entum
pry
##genaak
tower
##istig
##istol
##bein
##bestand
##bestuur
##bestaande
##bediende
##iefstuk
##dender
##denis
##imen
##imes
##eleyn
elitair
dreef
druil
##ulus
##opslag
tweet
bret
braam
bristol
plet
manu
manja
##oothie
thank
##dreer
##slie
##bren
##brook
##bruck
##esha
doesnt
##sengel
moest
##stern
##observeer
##afide
duet
hemd
hemmer
sluis
vloot
vlies
vliegen
grootscheep
mensensmokkel
##leesen
geniek
##gelley
##trude
##valk
snoek
snoei
truff
troebel
trudy
##volutie
##oerier
jona
spannings
gewone
gewapende
##ectus
hermans
herziene
kleer
klad
##iesef
chileens
terugkijkt
romancier
minota
##usteer
events
##oceer
##ocide
kram
kras
kraag
krocht
marga
problem
##berisp
##ground
blijkens
##ploeter
##oogst
hands
handy
handje
freed
##oemel
zeggen
ariane
##abul
##naec
##vander
##oepeel
stra
gelder
jamison
##meend
nederig
##sym
recep
orkest
paginal
##boekensite
dow
pere
perform
percent
cly
##ielle
##vlin
fear
##niscaat
sed
cricket
berm
berd
bergen
berry
##klik
##klets
##klah
amin
ameland
knus
known
##struik
##stronk
##strategisch
losing
##atha
##aylum
##nevel
adder
admir
fileer
##nerd
##matisch
##iemel
heerma
neerbuig
binchy
key
keir
kezer
##clair
##wijlen
##ened
beticht
betuttel
pleas
tenness
carte
carmen
##vatt
##pleiter
##krabbel
kwistig
##ffect
##0000
original
autonoom
##ivier
##ivia
iron
gerhard
gerretzen
simmon
paraat
parap
parks
hareerischwili
vijftiger
nachteg
contreien
glinster
vermin
redact
##flik
##exscene
##expert
angus
hardvocht
laos
laere
smid
smak
##roll
fanfiction
##reddy
##ances
desert
lastig
positie
sha
shiro
##rait
peace
godver
doelgericht
getto
##hton
lichaams
##cour
holger
sari
saroo
witte
witse
##azijn
mosterd
matthew
vey
vezel
moriesef
##minister
##gevende
michigan
baltisch
bekoor
ongeinspireer
##them
##theater
forceer
melle
bedwel
bodine
dwz
haut
bosnie
leverancier
ask
asfalt
lauritz
anneke
abc
dunk
##ainen
##herstel
brandaan
101
##affe
filosofe
raars
origineels
noordamerika
##helley
##balk
##bald
zwakte
klassen
tvshow
tvprogrammas
verveeld
ellison
187
hilja
zuidamerikaans
allooi
kaplan
etmaal
penit
pengelley
roberts
padden
epub
epstein
lindqvist
waanbeeld
gareel
simonini
##domineer
tuinieer
plotwendingen
music
##books
luy
gesto
salaad
salami
##hana
notaris
francaise
verhoeven
camus
afgeslacht
weston
malin
malafide
merc
connor
veerle
zweedse
##2014
##2015
okee
14e
uiteenvallen
strafpleiter
##willem
parket
casp
casus
jacoba
spoileralert
##kopen
riant
susp
miry
mirror
vondel
darlington
##hamn
megalom
massas
massimo
massaaa
##iled
cremeer
linie
millenium
dorbeck
##scheuren
muns
galgee
ridge
scarlet
goodkind
rae
sjah
##onso
plantijn
##905
##ctionaris
astrologie
outcast
saskia
1930
echeno
endgame
maryam
kristien
kristine
kristina
222
synchroon
230
castro
casteleyn
##ventura
boum
boulevard
antiqu
vampire
##kartel
##zzy
downton
beschaam
rebels
##geboorte
lilya
timeout
boeman
tsuk
lisette
livy
##hydreer
daklozen
onbeschoft
##geerde
kenneth
florent
luidop
ideologisch
jaapjan
ladym
tentakel
fielding
hansen
lammer
debby
1927
ivanov
ivy
hopman
##morgen
##hoven
##geschikten
hendriks
pathologisch
peloton
pastor
schermutsel
kwartet
rete
##namees
santos
gabrielle
didier
##dimensionaal
liever
sadie
##kundigen
venetiaans
pirri
sicco
sicilia
##chemistisch
benter
protege
splijt
singapore
tatja
tatiana
##kleun
moore
libri
hulk
trevor
bourgeois
mccart
premio
##sala
killing
venture
servus
ayesha
center
##ranen
jordie
written
lorca
havik
industrieel
bulk
multination
titaan
##gluur
amazon
##consistentie
scepter
axl
folder
folter
hyperion
gustaaf
sayenna
##vondst
triologisch
1206
repeteer
hoffman
hoffschlag
californ
distantie
kabouter
##schrijver
mompel
anything
ferrara
gehoorzamen
messi
biechten
odette
sulfur
hihi
##festijn
##muzikant
##functionaris
terrazone
haasse
##eeeeeeee
aidan
tijdssprong
kazerne
##catcher
verdomme
steinz
shakee
cosm
poesj
##casteele
flowers
smachten
pijler
utopia
##gehoorzaam
adolesc
sergei
aakin
wyatt
astronoom
chaplin
lazarus
dieten
##gestelden
majoor
pelecanos
picoul
ribbe
avonturenboek
nakend
##iarabie
##corpius
##maker
zedee
bryndza
families
bardugo
gynaec
kinsella
brooke
memory
barrett
laveer
##limazl
##kalender
benoite
aimee
lemniscaat
##behagen
marielle
bannister
buzzz
canning
sorteer
##gerekt
cruysse
##ghghghghghghghghghghghghghghghghghghghghghghghghghghghghghghghghghghghghghghghghghghghghghghghghghghghghghghghghghghghghghghghgh
federaal
gilead
hindoe
oosteuropa
oosteuropees
##terrorist
ambulant
ambulance
fakz
pjotr
##wierra
onderzoeksjournalist
vwo
vandecasteele
gluten
revolutionair
lobby
wyld
surprise
caarey
corpor
lippman
ackerman
psychedelisch
kahlen
washington
spaey
brockton
katarina
football
maaike
wulff
##camera
saraceen
notaben
adamsberg
firmament
appetite
baay
civil
vrijpartij
overnachten
schieot
broeck
perceptie
saoediarabie
python
griffiths
tieenerdochter
aquarel
eureka
golden
maastricht
ugly
anatomisch
illustratrice
byrne
##youtubecomwatchv
dinosa
hickam
lannoo
##definieer
spagaat
verloskundige
imoj
stereotypeer
tifani
##josesprak
besmeur
overkoepeel
commissario
arizona
gesplijt
patriarch
bolognum
lijfeigenen
infantiel
##service
higgins
bildung
delfts
estelle
eclips
wrevel
##vervelend
lewinsky
anastasia
rekruut
minuscuul
aboriginal
camoufleer
airbnb
9789491875
aveyard
buwalda
cairo
cossee
ciaran
jersey
nanking
nitsa
reegina
inzitt
verijdel
aleksej
##gegeneer
hemmerechts
grootscheeps
minotaurus
paginalang
##boekensitegent
##klahoma
nachtegaal
morieseflex
megalomaan
echenoz
ladymia
##limazlnik
##josesprakeloos
58
62
66
8e
8week
aai
aspireer
ayl
bd
bing
biet
bets
bung
bless
biefstuk
cage
coop
caaf
canc
cement
dail
damp
dall
dara
dhr
etien
evalueer
ff
fath
fuz
fern
goeroe
hamp
hiv
hub
hork
huf
hour
hilly
ion
ipad
iwan
jah
java
kul
kink
kall
kersen
kory
kada
kurk
kooot
lij
lus
lane
mh
mv
moel
miek
mood
maaf
nig
nus
nok
namen
og
ose
oja
oed
pus
peek
pett
pavel
pizz
quis
rost
rund
ragn
raffineer
saam
sade
sure
sight
safe
sagan
sappe
soedan
tg
till
tiend
tinder
toll
vm
voo
vid
vouw
wid
wien
wander
wurm
yin
yaal
yate
zi
zussen
zoem
##ev
##eend
##lu
##lol
##lul
##lah
##leest
##lift
##loma
##lauwer
##iven
##ianne
##sing
##sar
##sme
##oya
##rail
##rabet
##mij
##mbr
##mort
##maai
##uteur
##uyn
##uijt
##uizend
##uanceer
##a©
##aer
##zacht
##zane
##kuur
##koester
##goo
##guy
##giant
##toor
##fiet
##fael
##frey
##freak
##dic
##dial
##psy
##pub
##pistool
##prijzen
##cas
##cass
##cott
##his
##hab
##hne
##jel
##jell
##vaat
##vag
##voogd
##vitch
##baad
##baby
##billy
##beeck
##yrus
##wist
##wogen
##witter
##wski
##68
##63
##100
##300
##eriaal
##erikel
##etz
##etus
##etreek
##anza
dear
deut
degradeer
depressief
##chon
##inot
##inquent
##oev
enid
entree
enquist
##atz
##atlas
##ital
vanriet
vanmiddag
inje
inger
invallen
##stu
##staak
##stag
##staaf
##stueel
verge
vervan
vereiste
gev
gebr
geoorloofd
gefortun
gemeend
##orgene
##igd
##igret
alg
alie
alab
albus
tes
teel
heal
heug
heikel
##derogen
##isj
##ising
behang
##omet
##omber
##iete
##deb
##dedig
##alow
##endo
##endaal
##gegrond
##leke
metr
meth
era
erhard
zestig
stoof
stanny
stotter
stolp
aanger
aangaand
aanvallen
aangeleerd
aanprijzen
##ilt
jester
##schaak
uitbraak
overbe
##rez
##ogus
##ogyn
waarachter
leeser
scha
##amy
##hein
##heilig
##hevig
spoet
spiek
spade
space
spark
zovele
doormidden
##ensp
lein
leve
lewinter
ledden
##asar
goedgeschreven
bijwijlen
dang
anke
analist
##uko
reina
reach
reson
welbe
##ikvindlezenleuk
##akije
##antroop
gris
grol
##entor
priet
##eldheid
##apt
aftand
##genstein
##genuanceer
bloe
bloom
meul
toern
persif
##aageer
##iston
##bezig
##beheer
##beaut
##spec
nabok
##imir
volume
elina
drac
##ulet
##ulatie
meeuw
meegegeven
##opa
##opus
##ages
##atiemanager
##uitstre
twees
##osa
brui
brokkel
plur
thug
thaise
terri
terzake
##igenaar
##dry
##drogeer
##sli
##sly
##slaat
##breer
##bras
##brouw
##utions
##icipeer
##esota
toege
##steren
##afan
duisters
slaak
slui
##ofonie
achterom
##uisd
genocide
langst
##gelov
##trot
##trich
##track
denken
##uduleus
trom
trop
tramp
trick
travis
trotta
##voll
rombout
jonk
jones
sommer
conto
gewaad
vriendje
##person
##veu
##veig
##vester
verschiet
herdruk
hermel
samar
samoer
helm
hella
helsink
##bijbel
klont
##emonie
##aase
cheer
chick
##selen
liefs
evenredig
kroost
kretum
krioel
interventie
marik
mariko
##gry
valeur
comate
bode
netel
frame
fritz
##seizoen
##ineus
##talli
##manoe
##pertz
jonger
karst
##overste
##overwogen
arri
pola
polar
polak
##abar
execht
export
##vaaren
sujin
struin
strigo
##stair
gelaten
geleerden
flate
anderszins
1918
##syelement
neal
recalc
##inkslag
##inkhaan
orange
zwendel
zwolle
vrijgezel
familiea
familieepos
##boekenkast
##vlok
jost
jochie
##legas
fed
##neeme
seven
secrets
hoopgevend
##auf
##thie
##avaan
##iteratuur
emir
amal
##achute
##achiko
adject
uitgebeeld
uitgedachte
##materiaal
##prost
roly
##iemoeder
henzelf
heerlijk
ruste
literature
##anski
##toire
##offeer
##actor
geschonden
carn
carver
##versum
##pleit
##dova
detectief
detentie
##krab
##kronkel
kwinkslag
synd
harten
hartung
filmset
verborgene
##knoei
mao
marije
maigret
autis
antiter
antarct
gerron
gerlof
germaans
simuleer
vijftigste
##assin
##assic
##snoer
##ovs
##ovis
##ovik
pretendeer
chret
content
glo
glets
##cone
##atege
vermogend
reduceer
##achtigs
##flits
##appa
node
stekel
steward
bennet
benito
jansson
##ecensie
##iance
fiasco
eea
lax
donut
donia
smarag
smoothie
##frans
meerderen
wrap
write
middelbeek
pats
patro
image
eeuws
barsten
barbie
ijsland
pear
peul
##acek
##quote
mediter
charlies
getrainde
norman
normandie
corrie
##hta
briefen
##azuur
matte
monk
monter
montal
##damme
agatha
tombe
watertand
vesper
##laug
##lyandre
collector
christel
christmas
luchtigs
vision
fictiedebuut
geestee
morning
morrigan
youn
houston
michon
roche
concern
##dragen
bergmann
zomerliefde
ingebed
ingeburger
##abellum
bandiet
##bourn
##interesse
##ennial
bekocht
##uire
profectus
forward
forever
fornuis
gezind
bedreven
domino
##ysboeken
jasji
haiku
leverku
identity
lijnrecht
lauryssens
15e
##toestel
discover
discours
vaarwel
##ibal
opbouwend
platform
wanhoop
abonneer
dunham
dax
dawn
##marie
##afficheer
filosofeer
armzalig
##inca
##incident
##baldon
greene
##biografe
122
123
patriot
185
hilversum
presentatrice
sprookjes
zweig
eta
solutions
portier
portrait
25jaar
curtis
schaduwzuster
##ylin
##ylon
##smith
varya
vargas
zelda
priveproblemen
aangrijpen
nonkel
nonons
##vechten
format
##archief
aspek
guide
163
musso
salazar
haki
hakkel
madonna
geinteresseerden
houtman
malaria
symfonie
##cella
jurassic
takano
mcdon
spoilen
##fanaat
absurdisme
##riool
##aldi
viol
etcetera
##2018
alcoholverslaafde
wildvreemd
serial
bonda
sigurd
##horror
called
fabr
##hooge
pozn
rooms
blindelings
surrealisme
110
##kopieer
fender
koele
kozak
##shop
three
consider
priveleven
mirthe
aciman
willems
skyl
masseer
linh
linwood
buso
schotland
munitie
pitu
rona
ohl
galidi
woii
modus
silence
sylvester
carls
fitness
dekker
210
keeland
sensitief
##kwik
latent
royle
##arrangeer
##dwaas
mayas
##bewogen
slapjes
outback
argwan
lugh
oersterk
##collectie
##kleurde
urbain
maffios
echos
ends
kristallen
##kozen
castreer
verpleegkundige
franciscus
shes
shep
achilles
transactie
##maskerde
##mannetjes
##mesis
copeland
goh
##eyr
grimm
verdeeldheid
mythologie
spotify
ludo
verzoeken
lifestyle
##veiliger
mathias
clear
##dictie
radioactief
evil
mengele
prior
transplanteer
socialisme
lamb
debora
1924
1923
wallanderreeks
dalai
escape
##ikki
288
##omanen
capriool
vermeulen
santo
since
##zield
magnolia
tirt
dynast
hassel
nobody
ipod
bjork
kaun
vivienne
##galactisch
kruiden
farah
naphta
janson
vervalsen
rogus
premie
httpwwwboekensitegent
272
9789044
killer
ventoux
httpsbird
kamele
snede
##psychi
vietna
##verslaafden
cece
fabian
havank
maeve
html
hadriaan
##consistent
sharp
libisch
##toereik
##instantie
1892
player
devon
devus
narcot
1909
horizont
bouquetreek
##sneden
tjerk
lesbienne
kabinet
##hallow
##info
##infarct
martinez
odysse
sully
##opgelos
knoks
##controle
nyk
sunny
balletwereld
evangeline
mikaela
bambi
ottomanen
##247
besogne
##gehuw
novak
bezoedel
jameson
doping
mathilde
octavia
octopus
##havend
##lezende
benauwd
savanne
##ballon
programmas
ultrak
answer
jolanda
reece
virtue
heinrich
francesco
copywriter
tsjechie
##duits
schroomt
major
roxy
athene
cornelis
jihad
catalonie
##days
slowaak
##nuchter
comedy
furore
freddy
aafje
aafenu
candy
tinka
classificeer
##amuseer
##spannen
##claim
imagine
reservoir
##professor
##professioneel
##heppar
animal
activist
##behoefte
jaagoslavisch
brigitte
sixten
thrillersensatie
blankenberge
operand
frauduleus
struggle
lancaster
index
manoeuvre
naliet
brendum
zienderogen
annette
thiesler
wittgenstein
whodunit
creditcard
become
##gedachten
wilhelmen
majeau
costello
dunnetjes
epileptisch
ciaageer
keeper
kimberly
akefi
benson
citadel
duke
settembr
opzichzelfstaand
##sylvania
##nimf
##zwijgen
##hlecker
bezielde
aanvullende
schumacher
##http
english
httpsnlboekenrecensieswordpresscom
kreukniet
##puree
veroorlov
##gebreidelde
mexico
##begrensde
##heresien
moldavie
vandermeeren
havelaar
roekeloos
release
##horeau
wexford
triviaal
hernan
magnetron
friedman
baltimore
petronella
artificieel
ridicuul
mississippi
hohlbein
cachet
ithana
desperaat
##strauma
konstanz
felicity
geevolueerd
trilogy
trojaans
anachronisme
jupiter
joegoslavie
vendetta
vintage
kleerscheuren
clyde
tennessee
bedwelm
tsukuru
multinational
cosmopolitan
poesjkin
familiesaga
##josesprakeloosblogspotnl201
8weeklyandre
aylans
bungalow
daily
etienne
hillybilly
koryta
petterson
tgv
##inoti
injectie
aangerand
spoetnik
##ikvindlezenleuknl201
aftands
toernooi
##uitstrevend
sluiot
hermelien
comateus
strigoi
flatey
recalcitr
adjectief
smaragd
leverkuhn
argwanend
httpwwwboekensitegentnode
httpsbirdysboeken
##toereikend
odysseus
settembrini
hillybillybeaut
3x
3de
7days
8jaar
ail
bijk
bies
bred
bits
bles
baum
bachel
battle
cp
cun
cact
crijd
cwa
cetera
dn
doet
dug
drek
daphne
dutr
dhooge
ea
eig
ect
esper
foet
fes
feed
foer
fate
fuzz
fischer
gees
gunt
gille
gijp
gitta
gurney
hus
hik
hist
hage
hod
huz
hailey
hogan
heeft
izzo
izzy
jl
jc
jb
jandy
ket
kine
kiv
kub
kib
kain
kibbel
londer
lif
lager
loner
mant
mau
male
masc
mendel
moose
ns
nif
noren
nena
nolet
oc
ola
pig
pies
puik
poef
pyn
pell
pffff
push
phoebe
qserie
rk
ringer
rott
seer
sied
sett
seren
sachs
salsa
tend
tou
taan
tuig
tube
tshirt
ud
una
vig
vich
vage
vive
vendel
vikki
wu
wf
wig
weeks
wenn
xuno
yuki
zap
zeem
zui
zaida
##ejet
##lacht
##lade
##louter
##nx
##nage
##nos
##sant
##sum
##sford
##sector
##rin
##rier
##rag
##ric
##rir
##rink
##rup
##mur
##moon
##muid
##makel
##movie
##uq
##uee
##uiet
##uge
##ubl
##uper
##uja
##zal
##zaat
##zam
##zas
##zuk
##zool
##zio
##kleef
##gil
##gument
##guard
##tot
##foe
##fleur
##father
##folie
##dz
##das
##duivel
##pg
##peel
##pag
##pomp
##paleis
##pauper
##cot
##cul
##cken
##crom
##censeer
##corn
##hend
##hier
##haas
##hner
##haard
##happ
##jk
##jama
##jana
##bee
##bud
##bitter
##boets
##yol
##ycl
##wich
##waad
##wiek
##woede
##wrocht
##woeker
##28
##49
##91
##⭐⭐
##enze
##energie
##aauteur
##anos
##elies
##eloes
decl
depres
develop
dejav
##ooh
##oogedrag
##chure
##check
##aarij
zijnen
##oever
##ating
##itur
##itive
init
incons
inzake
inlossen
##stamp
veror
vertoon
gep
geisha
geamuseer
##oorde
##oraf
##oresk
##igt
##igium
##ignon
aly
alwaar
aless
teaser
hei
hes
heid
heath
##dertijd
oppositie
##iserie
##isman
##isma
beel
bede
bekommer
bezield
##devent
##alin
##gestraf
##leut
##leman
erl
eragon
erectie
onos
##verraad
##verkoop
##verstandig
##vergiet
##verdedig
zesen
zegel
stol
stick
stiff
aandrang
##iliaan
##urier
##urion
##urbeer
jeu
##aro
##aren
##arella
##schend
##schaad
##schild
##schema
##schandaal
omroep
omhel
omkader
verhaalvorm
uitgelezen
##idie
##identie
##ouille
dittrich
overd
overman
oversten
overmacht
overzee
overload
##elijker
schout
schulp
schors
schindler
##jeugd
wemens
weather
##amar
spy
spijs
##usett
doorwerken
doorkruis
doorwrocht
leader
leium
##teugel
danwel
##agent
anijs
anest
anagram
another
angry
##vende
##venant
alleman
allegaar
allegiant
reiz
revel
reyn
reboot
welget
welniet
vrie
##ikwie
##ako
##aku
komkommer
gaine
grig
graai
gruber
grisha
##entovic
pride
priem
##eldoorn
afwerken
meute
ontraad
ontwr
toib
##aager
##istente
##oorden
veelen
##beul
##beeter
##begrip
##bemind
##spar
##spreuk
nadel
##imed
ondermijn
volks
##tertre
elfi
drom
driel
dromen
draco
##ular
##ulteit
##oplettend
##osief
##oshi
##stema
brynn
bracke
plum
plut
mans
begijn
begaan
##schrijfster
thier
##uggen
##adr
##drug
##drix
##slaa
##slim
##brab
##bruid
tweedel
##aamse
##ickl
##icult
##icate
doeae
mijnen
dutertre
slak
##eenvoud
vlaut
grootser
##rillers
##iree
##irus
##irurg
stahlecker
##orten
##orthriller
langu
##baarheid
##gelof
##wein
##weit
snug
truman
thrillerreeks
##waarom
vriendin
##vea
herm
helvet
klaver
##emin
theodore
chijn
chose
##schappen
romanov
##engracht
dagnum
mineer
##bloot
##blank
##oce
##oci
##ocre
kraal
krug
marx
marad
marlijn
marrie
marib
marleen
plottwist
##bergen
##gril
##gracht
##delle
drievoud
##plas
##pluis
##plunder
handen
handma
valer
##wijck
bowe
bourg
freer
zina
##perd
##perend
karoolina
aron
aram
arkel
expressie
##naud
##navitch
subs
##vante
hoogstraat
##lijnen
##lijnde
##stavond
##oolin
verdon
##ifieer
##sses
##mep
1910
1913
1912
seriepersonage
##sya
##woorden
neveu
ora
orgel
relief
relithriller
relikwie
zwoel
##uidel
##keuken
##ontwikkel
##onthriller
peroni
##vliegen
scorp
scrol
cro
creed
cruz
##belsen
bergh
##klier
##kloot
##klass
##thuis
##eptueel
##epidemisch
##itely
embry
amulet
knel
knots
knox
kneus
##logica
prey
##achusett
##pellier
##pelibr
##ides
##oween
##ayer
adelijk
vlotlezende
##pracht
henni
neerpen
##cliff
##offier
beteer
bethan
avoc
hoorspelen
vervolgboeken
pup
carine
carpelibr
paint
##vation
schram
mogelijks
openstaat
legitiem
zusak
colgan
amerikas
##knel
lekkers
menora
oorlogser
maes
autope
##ivaal
##dagh
absol
warri
parr
paragnost
parachute
isles
isaksen
hark
haring
harpij
united
unplug
unheime
geding
##snederlands
##ovicus
zwaargewond
apollo
stadion
gline
precair
##flans
##flirt
##handelaar
##eco
##hangende
smets
eleaz
roberto
slave
##anceerd
wrote
wright
desmet
desinteresse
patch
avontur
dorps
shall
##rax
barak
barber
barack
koppie
passend
peaks
machte
machtel
machteld
##inski
lucarelli
vergif
##ynl
##ynck
charles
getr
##criticus
corb
corner
holy
holslag
hologram
holiday
ilarium
milit
##demar
##azzo
mathe
monogram
talese
tommie
tombola
romantiseer
superfood
edit
edvard
editor
overtuigd
kerstavond
katap
##dienst
morse
newman
finis
finland
vakantiebieb
vreeswijk
##gemiddeld
pauls
paulo
michele
rocha
johnnie
conceptueel
parttime
##drager
kwaadschiks
basisa
olav
dramat
##bosch
##scan
##scoor
##intern
##ennl
bekken
davide
immuun
##these
melinda
mellink
zevenen
domina
##erey
dweep
lotz
##hoopt
hajo
##lievend
receptionist
##jecteer
157
##nette
carrousel
wederwaardig
resi
resem
platt
rijcke
nicotine
##otswe
##imentatie
##enkwaad
helderziend
flashmob
##biolog
##gevoed
##gevorder
1800
1880
hilariteit
alli
pennen
##aktiseer
solveig
docteur
portland
epic
burund
effic
curran
mondaine
garnaal
reeelity
bedroef
postmort
doldwaas
woezel
leegstaand
##smul
steengoede
impress
##record
priveschool
completel
local
klassieken
bronagh
renato
delp
##archite
constantin
felt
##fire
165
compiet
luier
salon
salem
saligium
##monument
camiller
##gewand
##gewricht
westvl
turow
malorie
explosief
jurriaan
mcmanus
artur
natur
butang
rijdend
kaya
billingham
caspar
kernwoord
surreeel
117
##ernob
##shock
##shmi
lyc
##burgse
halloween
suske
susanne
suspen
bernlef
bernadette
prives
##irectie
##vorst
macc
macomber
mirrax
stuiter
scheven
anni
ready
hofman
sketch
linus
milli
##ucky
venita
munkel
palme
palace
paloma
mollig
ohio
galg
obbe
hymir
econoom
mi5
verheyen
mention
cela
silas
ogenschouw
missing
352
kalkman
remember
raim
ramone
ramotswe
alineas
mauric
maureen
cassian
cassette
kyoto
rasp
ultima
korte
##regor
##registreer
starck
beleg
##nemie
enthousiasmeer
##gedijk
falke
1935
rutger
basic
maffi
blanke
baer
baud
baete
tabat
paradise
kristinia
torre
##linie
runner
##magazine
##poliet
hohen
kaaren
veler
norwegian
hendel
boyle
##harine
jeanette
adopt
beschor
##ivalent
schimmen
##clusief
cocon
puta
kirst
rudolp
wolter
housew
incasseer
idea
idealist
damian
3000
birg
##huapr
##hauer
brittannie
transl
evanby
vuijs
##dda
typerend
##fortuin
debut
blackout
dalcher
insider
insinueer
escoffier
##ikkig
28jaar
storyl
veertigste
sherry
wimpel
pedaal
told
##505
zondagskind
roemrucht
highschool
ethi
##ways
douane
##fotograf
procede
4000
osama
claudia
fallada
woods
woodhead
oceane
##jonair
##jongeren
apps
append
mikaylum
wierin
laarmans
support
niels
flesh
nomade
breukel
dystopian
futiel
yourself
hoofs
secuur
secund
selas
schrijven
cathar
monty
jansz
rogi
wikile
##treiter
bijlmer
primo
##lokaal
bradshaw
ravn
ravage
##indoctrineer
mccoy
##kapitaal
thijssen
httpwwwikvindlezenleuknl201
tentoonspreid
270
ventileer
gompertz
snedig
century
pyjama
protestant
jordaan
puritein
stations
bruins
nephilim
bullet
bullebak
coup
selfmade
smeets
multat
multimed
##palend
levy
jodisch
mammoet
hallucin
cusk
ongeloofwaardig
folklore
langedijk
##patrick
##instituut
playlist
fossiel
lexi
##kruisig
palestijn
##miljonair
dragos
brochure
##dorus
repet
verwilder
verontschuldig
##becue
##miley
ecury
ecothriller
androide
collini
guardia
duma
##container
hewson
stippel
thinking
frederique
attitude
dicte
steinbeck
cosmo
##borduur
passanten
##fantasie
temple
dvds
##statement
ansicht
barnaby
pitta
pittoresk
wyler
##heemen
grossman
luitinghsij
##nataal
against
dietz
lauwere
oregano
woolinoti
##ificant
vegetarier
httpswwwyoutubecomwatchv
##steuropa
braun
euforie
##imatur
relaxed
##concept
piece
##tentoonstel
ciao
vocabul
candice
krakkem
fucking
tbser
##zania
##erweeten
##verschrokken
kapelaan
knausgar
anthos
mechanisme
terrible
##wordpresscom20160
bannock
cuijp
geemancipeer
gudmund
sorto
##elaure
herboren
villan
zimmer
deductie
brabants
cliches
geraldine
shotgun
signora
tumor
vacuum
##bisschop
equivalent
organisme
fanfare
kenter
anarchistisch
champagne
##explosie
nihilist
number
pineiro
##zwelg
stendert
costeloe
epilepsie
perdue
clinton
gereedschap
titanic
ongeevenaard
ongeevenaarde
fandorin
wtf
##uerite
duckworth
cronin
imprimatur
yuknavitch
##pulver
##juffrouw
fantasyserie
mcgregor
moluks
##neurose
department
inventief
hesselink
##verteller
schemaa
mishka
existentialisme
quichot
schokkends
himalaya
andriesse
httpssurfingannblogspotnl20180
build
puissant
suther
drogist
##stellair
colorado
institut
transgenders
czentovic
glossy
arsenaal
actually
monogaam
principessa
children
bacchus
censuur
renniston
##economisch
##verslind
repertoire
places
bereden
glyver
miyuki
##betekenend
innocentius
jenever
leemte
lidewijde
sahara
##homeini
verknocht
aleppo
onopgesmuk
truffino
straight
performance
percentage
bergenbelsen
redactieronde
hardvochtig
luyendijk
gestoeld
gynaecoloog
imojiman
inzittenden
betsy
fathers
fuzzie
kadaver
ragnar
saamhorig
tienduizend
wiener
vergeeten
alabama
persifleer
dracula
pluriform
##gelovige
trampoline
samoerai
helsinki
arriaga
gletsjer
laxness
mediterraan
watertanden
nononsens
kameleon
operandi
hillybillybeautynl
cpn
cactus
dutroux
huzaar
pynchon
tendens
vichy
depressed
verorber
reynold
welgeteld
ontraadselen
ontwrich
toibin
ondermijnen
handmaids
hoogstraaten
##klassiek
neerpennen
bethany
carpelibranl
autopech
warrior
unplugged
eleazard
superfoods
##biologeer
burundi
postmortale
completely
camilleri
##huaprofiel
krakkemikkig
tienduizenden
1½
290
76
750
9jaar
ael
ais
aom
agen
aart
aale
aspir
aiden
belf
bim
beem
bav
bult
bub
bng
base
boul
buidel
cen
cil
cot
coet
cert
clem
dil
dof
dope
dicker
diney
eul
evol
ether
fie
fokkel
fury
gt
gets
gia
gina
gierig
gint
guggen
hm
hin
heef
hail
hade
hone
huwelijks
huy
huss
ica
jorg
jette
koet
kod
kite
kwijn
kira
knauw
ketel
laal
lets
lia
luz
lish
lardeer
mord
mieg
mather
mute
nin
name
note
nelli
nope
oak
odelle
pou
pief
peng
pient
purs
pinson
rin
rant
rau
rah
rins
rakel
rather
sø
saal
saad
soer
sip
serp
sout
siem
sall
sacher
souter
sacha
tag
toet
tic
tort
taz
tijm
uly
uri
vad
vinde
villy
vagina
wicht
wond
wort
wont
wagon
xitr
yal
za
##eo
##edo
##ll
##lab
##laai
##luc
##ladder
##nens
##nad
##iope
##sog
##sas
##sak
##sule
##sukkel
##soratorium
##ruis
##rif
##raaf
##rits
##rix
##roth
##mt
##mier
##mast
##moer
##mumm
##ais
##zaa
##zol
##zage
##zover
##zoen
##zza
##zweef
##kit
##kil
##kade
##kaz
##kous
##kore
##kater
##krediet
##koerier
##gers
##gans
##ting
##teef
##ties
##far
##fine
##furt
##farm
##full
##dir
##dahl
##directie
##pje
##pier
##pion
##pjes
##packer
##cond
##culair
##hing
##hot
##hage
##heng
##hay
##hagen
##hockey
##jor
##jus
##jac
##jab
##janne
##jlind
##vc
##vaal
##vil
##vac
##vink
##vete
##bit
##baal
##boon
##buster
##butt
##yan
##you
##wann
##worm
##wina
##wold
##219
##88
##711
##35
##qar
##ennis
##enfeest
##eri
##eros
##aaaa
##etagne
##etheus
##etimes
##elij
##elot
##chet
##chip
##chai
##chidee
##chauwer
##chirurg
##inl
##ieiee
##oeve
ende
entrop
ensem
##atma
##itat
##itius
##italie
vantoor
vandamme
inan
indacht
inelkaar
inzage
##stuit
##stoll
verbouw
vermis
verweer
verwit
verstok
gemaal
geoc
geks
gedrie
gepast
gepositie
##iga
alge
already
alimentatie
tep
teugel
heut
##ono
##onaut
##derlijk
opium
opcent
opponeer
##isc
##isan
behe
beast
bevoor
bevr
bevoeg
bezorgd
beveiliger
##ingeer
##ingale
##omy
##omin
##omtrent
##deo
##deus
##deaux
##alk
##alisch
ikea
##endoe
##endol
##gemiddelde
##gekleurde
##gekozen
hebdo
voorduur
metal
erop
eriks
ervaarde
ones
onheil
onpass
onafge
##verhuis
##verklaar
##vermeld
zest
zeus
stuff
aantocht
##ilver
##ilius
##ursie
jep
##arad
##argument
##scheel
##schacht
##schuur
##schierig
omi
ootje
uitval
uitkijk
##ously
##otatie
##otes
overt
overtol
overstag
##reb
##reportage
leesuur
schijt
schuber
schreden
watch
waters
weing
weids
wemen
##amari
##amateur
##hei
##heit
##heun
spread
spider
##ensee
ley
lear
leip
##tes
##tegel
##aseer
##agor
##agra
##ague
##venir
rex
resp
reither
##angle
##eefer
vreek
komen
komijn
##erke
naars
gab
gaul
gazet
grind
grief
ground
grendel
##entachtig
##entiment
hoolig
prison
pratt
afth
afstaa
afranen
blas
blaf
blix
bldz
mey
mean
means
meinder
often
echte
ontsteek
toward
laats
##bepaald
##bewoon
##beperkt
##bekw
##bejaard
##iefheb
##spuw
##spul
##imus
##imperium
onderwijl
onderscheppen
volgen
##illis
##illier
totally
elit
hoest
drol
drone
##ulu
##opel
##opolie
##opniveau
brut
brene
brix
bruus
bragus
wilde
wilbert
wilders
planck
manol
manchester
thur
thun
thad
thans
therm
##addevent
terveel
terdege
##draak
##dric
##druis
##drow
##slot
##slank
##slow
##bright
weerbar
##icium
##icisme
toef
toestaa
##afleur
dubo
duenas
##komedie
##astore
achterelkaar
stay
tegenwerken
tegenstaat
tegenbosch
##geland
##trud
##troef
##troman
##trailer
snob
snipper
tros
troel
tried
tray
trix
trying
sometimes
verlaten
verlinden
##mert
##meralda
nieuwe
wegvlucht
cong
conrad
aub
##tijds
##veil
verschuldig
herhael
##keleer
##ipus
##bijeen
##eme
##emar
##empel
theoloog
eersten
##acle
chees
chand
chak
chia
chass
chandra
samenlezenisleuker
samenhangende
magus
minke
beloev
##occ
##ocks
kra
kruk
krik
krop
maris
marger
marita
marillier
pasoolini
sterckx
##berd
##berlain
##gra
##gras
##grine
##graven
##delict
##plet
valle
netflix
moederliefde
moederziel
freeman
zinsneden
##sequ
##talle
##peren
2020
jongvolwassenen
kari
kara
karim
karamel
karkas
karwei
##overtroffen
arisch
##abee
##abis
exgel
exec
expartner
existeer
suzie
suqar
weiner
strob
strofe
gelauw
fliere
flore
andersson
verdorie
##mey
##mespect
woords
idolaat
##syauteur
orn
orchidee
relation
zwaager
pagan
vrijbuit
##kei
##ontginnen
pern
perce
perron
perhap
clee
clash
cluster
##leren
feather
prachtig
sequel
sebald
cracker
##klauw
bijns
zonn
##th300
##ion8
emile
beeldspraken
ambi
amnes
kniel
knobbel
##achez
##eegard
##ayne
##negen
adag
adul
##ucks
binnens
genoegendoe
ruin
rups
vasthoudend
##claude
##toch
##dekt
##offie
bestwil
geschool
betty
##hoortechnisch
humo
sprinkhaan
##ostad
tener
##velen
parij
##version8
##aapest
##pleister
heenen
##dozijn
humoreske
opener
openstaande
##krul
kwiek
syfil
sybol
synest
winfrey
##misme
##misaris
##sprook
##knot
##knuppel
antide
##ended
##zienl
##ziende
##zenbach
dertigste
isid
isma
harrie
harvard
quoot
quarant
unter
univer
lethar
jaw
##ovitsj
appe
christer
glen
##conmissaris
##atefo
##ograph
vermont
vermaard
fijntjes
##ext
bloedstoll
angl
janis
##tekenen
slachten
tella
telly
july
julienne
dongen
smoes
##fries
elect
fante
restore
patent
patisse
shel
shooter
imam
##winnen
##romaan
ijstwee
ijsengel
stilzwijg
pedag
peachez
opgewassen
##rechts
lucide
lucky
vergiss
##ziti
ilias
dienst
saras
redempt
##vieve
moster
mozz
matroos
monaldo
monarchie
##comfort
agoraf
talisman
##upeer
##law
romantic
seksisme
edita
edmund
criminal
frankfurt
##ografeer
vakantieboek
##rode
rosam
houden
michail
michette
rozane
##getal
concilie
parts
partituur
olip
olsson
ingeborg
##edijn
##interest
willie
##enning
##ennox
ongecompliceer
indus
profijt
##issant
popel
gezwol
wijsgeer
domest
##banon
regressie
davids
joset
##tske
bosatlas
asad
asja
##tonen
gronda
laurens
lauras
louvre
disbel
carrier
carrasco
vaara
resideer
##visor
##peil
##peper
abu
vanda
##witt
103
1012
drugs
filosof
armand
speurneus
lovel
louren
zwakzin
borjlind
bordeaux
12e
##geveld
httpjosesprakeloosblogspotnl201
gatsby
roberta
##resant
##schroef
256
253
ambigu
community
gedetaill
associ
curie
schaduwzwart
garvie
oef
oester
bankr
access
feels
behind
##smoor
sabr
sauna
bolivia
honor
haatliefde
vinnie
geboortestreek
groente
##domme
##domready
pandem
bremt
negatiefs
negatiefiteit
liu
libanon
##kana
martinus
constantino
feline
gude
luijten
salter
gezelle
esmeralda
boman
bommel
176
stephan
lark
noorse
realist
##duiken
##oureer
turken
malaise
rivka
symbol
symmetrisch
merle
mercy
connotatie
##daagse
mckenzie
5050
##ighton
butter
hersenbeschadiging
maannacht
sandor
toverena
##portaal
schatzing
1400
faits
ulf
chem
polem
vleeschauwer
##henge
surr
promot
prometheus
verongelijk
spoilervrij
112
115
1100
williams
williamson
nazar
##sham
##sheld
definitely
lida
lidium
akos
akata
hallberg
privile
##iregime
##vors
macaron
mirko
anneloes
dartel
darby
ferry
megastore
ski
skaye
stiefbroer
refrein
hameco
ronsel
##forward
galbra
claustr
##pension
luxem
verheugd
kalman
sjiek
princess
indringender
24jaar
rask
decoreer
oerlemans
sonn
sabir
##column
##gedeer
bobbi
falck
faletti
urine
1934
##woestijn
bazel
tabby
kindermeisje
##betwist
individualisme
krista
fysica
tors
torkel
224
225
239
23jaar
##politicus
transit
understatement
hoi
velt
##nietigend
gordianus
dwarszit
gozo
##gebond
roboticum
overheiden
klikspaan
parallele
kirby
gehaast
gehyp
kaderen
mathijs
incogn
byron
specialiseer
damme
5000
evas
##boekenz
birgit
buhne
hanze
lambs
intellectu
##pijnig
raynor
wouda
rossi
geneve
genevieve
##proza
##ketinor
jori
##hove
elsbeth
pedant
vermeir
crossan
##literair
##503
mortale
oxy
pastiche
scriptie
poeha
semin
semper
##radio
##602
##fotografeer
procureer
stonehenge
blondine
liesl
liederlijk
jilliane
kraakhelder
hawai
##806
kaj
kaur
##wrak
coleman
hazelnoot
farce
singel
stockholm
montpellier
##ewyck
agendas
jensen
##trede
koolschijn
##lantaarn
treiter
tilon
##kapt
##kapje
fortuyn
gentleman
left
command
australiee
citytrip
ayoub
##oucheer
pyromaan
culmineer
##honda
bundy
giselle
slechterikken
bruijns
londens
smartp
bodyguard
fabio
nights
nightingale
bellivier
maestro
verzacht
##bestendig
bagger
hadley
nicolaas
british
##appartement
##amerikaan
sharko
boorman
##installeer
einar
indonesische
poppedijn
hyperbool
sayer
voyn
inktzwart
confituur
365
masturbeer
fundamentalist
nelis
kabbal
walser
antropologisch
eekhaut
ferrari
baba
katrine
##sjak
collins
hiaase
swing
stags
stagneer
orgie
orginee
profiler
culture
cultiveer
souls
##bloine
friedrich
##romantisch
rosenberg
marlies
guardner
dumas
##hhh
troye
hippo
##piloot
jubelien
octav
vicieus
sokrates
abdul
lasz
savant
savoureer
##fantaseer
##schede
games
gamache
dizzienl
bibber
provocerend
mackay
course
belemmeren
jolien
queenie
instinctief
virtual
royalty
kreupel
luma
software
##loods
##338
spartel
chapter
guille
##hats
daniele
httpswwwhebbannl
siob
marchant
cadans
eufoor
mahatma
albertien
signeersessie
catalogus
lowlands
##boezem
isolde
tsjip
tsjernob
antisemitisch
arianne
gyan
closeup
beulah
duizendeneen
catastrofea
borger
lockwood
mindset
harmonieus
windowaddevent
istanboel
extremistisch
wagner
##geregel
petersburg
peterselie
cvs
ceremonie
verstane
height247
sociologisch
vonnegut
fierce
tusscher
brabant
horrorthriller
liberaal
significant
macleod
gregorio
gregorius
girona
lanckor
independ
ankh
perzisch
lupe
##hunter
##biljet
brendan
##blabla
divid
flexibel
##sijpel
cherry
vegter
whodunnit
hildegard
hudson
powerf
##mobiel
##viool
##ately
##stream
##gedachtenis
zonnevel
question
psychedelicum
978949211
cameo
fisher
payback
sienna
blowup
##opstanding
kraaikamp
fandom
herken
kgb
geengageerde
roarke
fausto
sabbatical
lacune
wiik
##gordel
##gordijn
##hannon
kannibalisme
leuvens
chamberlain
paisley
kameerlain
bendeleid
balsem
fidelma
mimi
ricardo
##hampton
##analyticus
##instructeur
##verzadig
##vergeten
lezers
botanisch
celestial
sigurðardottir
bleu
jannetje
mouth
rashleigh
seemed
##oliberaal
chabot
familiair
movement
egyptoloog
zimbabwe
mckin
moviehttp
seeker
womens
xenia
stigma
##universiteit
materialisme
##enthousiast
pessimistisch
jørn
smeris
ufocre
vnthriller
woodrow
zagreb
zedenschets
schaatsen
duchene
provence
observer
faulks
broadway
lovesong
glibberig
cooming
linguist
mcewan
nirwana
infinity
graffiti
penitent
mccarthy
california
adolescentie
hufter
ionah
mh17
moelands
oedipus
width300
overbezorgde
resoneer
prietpraat
netelig
polaroid
vrijgezelle
syndicate
antarctica
visionair
younger
kozakken
skylar
ultrakorte
recalcitrant
httpsbirdysboekenblogspotcom201
dnf
foetus
hagedis
kibboets
siedjah
viveca
##crombie
initiaal
omhels
doorkruisen
anesthesie
reveleer
thierry
snugger
helvetius
maribeth
freerun
parrish
##architect
constantinopel
celaena
raimy
kaareninum
housewive
ethiopie
appendix
secundair
repetitief
lauwereys
villanelle
build0
ragnarok
cilinder
guggenheim
penguin
pienter
serpent
souterrain
ulysses
xitrue
##mummificeer
ensemble
vantoortel
indachtig
verbouwereer
verwittig
verstokt
gedrieen
heutink
bevoorrecht
bevoegd
onpasselijk
overtollig
##bekwaam
weerbarstig
dubois
gelauwerd
flierefluit
##mespectrum
perhaps
ambival
syfilis
quarantaine
lethargisch
bloedstollende
agorafobie
ongecompliceerde
domestic
gedetailleerd
hamecourt
galbraith
incognito
confituurwijk
windowaddeventdomready
ufocreatefo
380
4de
480
5jaar
69
89
99
aq
a©
aig
aich
azijn
amede
across
bz
bh
bog
bool
bash
bott
banner
cut
caf
ceur
ciel
cous
dl
dt
din
dos
dull
dillard
ew
eat
eil
ekel
edo
ecus
einder
fb
foos
fink
fau
fash
fenn
fish
fakkel
fello
fnuik
gid
gob
goer
geeuw
gote
gue
gijs
goede
giver
gutter
heng
hamel
hane
hocus
hagel
heeee
jf
jachtig
jidd
jody
jikke
kiek
kart
kuis
lal
lens
louw
lien
lop
laai
lau
lander
lene
lass
lurf
laude
lava
lauper
md
mp
muil
mere
moun
moolin
nc
nord
nop
nyp
nyn
nale
nijp
nessa
nura
oon
oster
oth
oate
owan
pf
pp
pee
pees
poem
psy
porie
poneer
qr
qaida
rd
rist
rast
rica
rai
ration
risum
send
saag
ses
sorm
soef
sieg
sja
siegel
sager
taa
tann
tuit
took
tone
tabel
toeter
une
uwen
uproo
vacht
vex
vpro
vigan
wp
wiet
wiek
wick
weter
worth
xv
yaa
zor
zur
zerk
zool
zamp
##eb
##ester
##lij
##laan
##loog
##lengte
##laten
##locatie
##nicht
##nius
##nigs
##ibly
##ionthriller
##si
##san
##soo
##sat
##seld
##sman
##sapp
##sara
##saga
##smissie
##sentiment
##oh
##oens
##reel
##rief
##rob
##reed
##rma
##riere
##ming
##map
##matie
##mart
##mett
##massa
##uust
##uary
##uvius
##abr
##ailleer
##zar
##zets
##zai
##zale
##zain
##zoete
##zalf
##zelden
##kak
##kes
##kne
##kiem
##ketting
##kolk
##kreuk
##kibbel
##gier
##gaam
##gaai
##ght
##tan
##tin
##toos
##tijg
##tax
##t13
##tombe
##touf
##fie
##fav
##fah
##fingeer
##dol
##dard
##dina
##dyn
##dock
##deeeuw
##py
##pees
##ci
##coon
##cop
##cult
##cks
##centr
##cini
##hm
##hee
##hood
##haai
##hiem
##hamer
##hong
##hame
##houder
##haga
##hrig
##xx
##xpert
##jord
##jerk
##jut
##jart
##jaagd
##jorie
##jib
##jandro
##vn
##vid
##vaak
##vio
##villa
##bd
##bing
##bou
##bop
##bash
##boodschap
##baum
##bapt
##yst
##ycom
##wb
##wy
##waal
##wals
##wine
##wuif
##wapend
##woorde
##89
##812
##42
##46
##eniet
##enus
##enik
##enboom
##ering
##erck
##erwijze
##ijzig
##ijah
##etown
##anium
##ely
##elena
##elope
##eluja
deir
degr
destr
demar
##ooo
##chat
##child
hetty
##inu
##inth
##incus
##inati
##oea
##oeip
engeel
##atu
##atia
##atlant
vannacht
vanmorgen
inzicht
inspan
inwend
inno
inname
inwerken
inclusive
inboet
inconsequent
inkopen
##stij
##stouw
##stage
##steeds
##stuiver
##stueus
veree
verte
verant
vermaak
vertaal
vernie
veranda
verwijder
vereeck
vercam
gekr
gematig
gemert
##oori
##orstel
##oriseer
##orecensie
##igne
##igue
ala
alster
alix
alvar
alyson
aloys
always
teil
heul
heine
hedda
##chtstat
opslag
opvar
##isco
beate
bekrom
bestrooi
beieren
##ingway
##deze
##deken
##destructie
boeket
boekhet
##aler
##alter
##alove
##endar
##gemaak
##geworden
##gebakken
hebb
voorspel
##lege
onvol
onna
onecht
##verdeel
##verbloemd
dies
zeit
zeppel
##rijm
stir
stibbe
aanrecht
aankomen
aanhef
##ility
##urium
##urgisch
jeant
##arect
##arby
##olin
##olees
##olgen
##schoei
##schans
##schept
##schka
##scherf
##schande
omg
omas
omhein
verhaalwereld
uitstel
uitdruk
uithalen
uithouding
##idz
##idian
##ouilleer
##otor
##otam
##otomie
overl
overnieuw
overname
overspannen
##rei
##rechter
##rese
##reunie
##revolutie
waarrond
leesers
schal
schacht
schorp
schunn
watson
wever
weifel
##ameer
##ames
kanonnen
##heon
##heuvel
speld
zovelen
doors
doorschijn
doordender
leop
ledig
leuze
lemon
leave
lemmer
##assen
goedgekozen
bijgeleerd
bijfiguren
dane
##agi
##agher
anter
animo
ananas
##vender
redig
repel
##uni
##unaal
##angirl
welgevallen
vreem
##ikker
##ikelen
##aka
##akar
komrij
gail
gauk
gaitan
grab
granger
grady
##enta
##entje
##entagon
pru
prat
prok
prada
##aparte
meere
aftrek
afwezigen
##genie
##generaal
blaar
bluf
meh
meil
meister
meghan
ofschoon
ontstel
ontbied
ontvreemd
ontzi
tox
toko
toyne
##ista
##istel
##bedr
##bezwaar
##spiek
##sparad
nah
nava
nabestaande
navenant
##imar
ondermeer
onderwijz
onderhevig
onderschept
voldem
volteit
##illiaans
##teren
elaine
elijah
dros
drum
##ijff
hoofdpersoon
##annah
meeg
##opisch
##opvang
##osium
##osofisch
##stead
bren
bris
brid
bros
braad
brena
brille
brizzo
manx
manor
##dation
thim
thuy
##ugte
##adamus
##dro
##drive
##druip
##slee
##slang
##brown
##umi
tweede
weerbeer
##onderhoud
##onderbroken
##icopter
##iciat
##ondisch
##esi
##esh
##esie
##eside
##esuvius
##ormick
misstap
misofonie
##afr
duquet
hemingway
slet
slons
werkloze
##ofon
##eeney
##eenstrum
vlier
##arta
##irah
##odus
##odance
ziedaar
##weven
##tra
##vallei
snij
snauw
denise
trin
tras
##vols
##voland
ietsjes
wegge
convent
conclus
gewijzig
alleenzijn
##rekend
audry
kennen
##veins
herten
hermo
##maakten
helicopter
##ipel
kla
klan
klote
##ieson
##uike
##accent
chimer
##sels
lieftal
mags
magie
dagboek
##ustre
belong
believe
##bleem
diam
##ocle
##ocker
krot
kribbe
interresant
##zoeken
marle
marineer
marain
marfin
marlo
marjan
##ession
##gae
steriel
##berger
##voorraad
handhaaf
frats
freegard
zinnigs
##manuel
##perc
20jaar
karmijn
##macher
##persoonlijk
aryn
arpad
ariana
polis
polane
##abi
##abon
exp
expect
exped
##iteiten
strat
stratege
flies
fluweel
flakker
jamieson
andersdenkend
##ifi
##ifa
##ifan
##ssite
##mei
##meyer
woorden
1919
##syreeks
neo
near
necr
orson
fameus
zwicht
zwavel
##kefel
perec
natuurlijk
clai
clande
clinch
##vliet
##vloers
joker
journey
##legend
##legalen
feo
feist
##nissen
##vinden
seal
seine
seym
seabis
meisjes
sce
crown
crouch
cranberry
berber
##standaard
##drukt
##klag
##klant
##thian
##thuy
toename
##aves
beelden
amor
ampe
knack
prest
##achen
##achau
##stradamus
##owl
psychologie
psycholog
adhd
##prov
##menteer
myself
rules
literaire
keye
keiko
andal
vastom
bovenaf
bovengemiddelde
gemoeid
beter
landay
vervolgdeel
vervolgboek
vervolgverhaal
plezant
plechtstat
tenen
cares
carab
carice
carole
carrey
paw
##vater
##ahi
##ahy
##ahaw
schraal
nederlandsindie
##dox
detaill
##krai
kwan
makkelijk
colofon
sommelier
winckel
winsford
##lichten
geldig
verbum
verbeeck
verbolgen
##knaap
##kson
maire
##iving
antiv
anticipeer
##dagen
irine
irund
gertrud
absor
simenon
derden
dert13
warsch
paramari
isk
haram
harem
harman
harling
harbor
harvath
quasis
quick
quilt
quotes
unheim
allerijl
allergisch
actiemoment
jaja
##assistente
##snoep
##snuffel
haale
haalewyck
perspectiefwissel
apress
apeldoorn
gloeiend
merkel
##adese
##cona
##flak
##flakker
angola
nostradamus
steiger
steiner
stekker
benji
meenen
janus
hardcore
##eckeleer
psychologische
eede
enigmaa
droomman
donitz
smi
smel
smits
smoke
##frase
knapper
robuust
johrma
##anca
##ancee
wren
wroet
patat
politied
terechtstel
imme
midnight
##wintig
barm
barbecue
rustiek
passion
pef
peins
godfather
topcrimineel
##rechtadvocaat
charlatan
getwijfel
cors
corry
corlier
corinne
##coat
##cusa
##langen
coz
covey
##hauna
illa
illegalen
milene
moder
talbot
##ijstens
kostja
##sons
supervlot
##entieel
groeps
##schikte
specerij
kerrigan
##elingen
frankisch
franklin
kator
katten
mors
morelli
morfine
##ckwitz
##olfreak
eetl
fintro
miche
roal
partur
bergdorp
olden
balk
instalove
##board
##scott
willis
##iase
indiase
aangewend
aangepaste
marta
##aleak
forrest
##uipaard
zeev
eurodance
bedaron
##clubboek
##bano
lotus
jasmine
josz
##zoals
##netel
##ibie
##elliet
platvloers
abn
abt
dunant
wonderful
gedragen
subthema
horne
horatius
maxime
maxwell
jules
10e
104
##holen
walker
walrus
##incx
ingmar
intelligen
controlfreak
tvkok
greppel
##iffer
michaelis
bory
boring
borne
126
121
124
technologe
httplees
##leptum
##parazzo
allende
tippel
gouda
etappe
penelope
adultgenre
winterthriller
##schroei
burk
burden
communic
gedetailleer
assassin
cureer
reeelitys
bookmaker
simons
behoef
behendig
save
varia
steenis
boland
moedwil
locke
papyrus
intensive
novella
##financier
delac
delete
kellen
hommage
hometown
##kanon
martinsson
##geschool
asper
justice
justyce
167
japin
competeer
viraal
atleet
gesteld
verhit
experience
##kasteel
suzanna
17de
maddox
larix
##loch
soit
##gewapend
bibliofiel
merlin
connect
jurre
juracek
takes
pseudop
elfen
elfie
schipper
adamo
jerich
##geleden
servisch
saraje
logo
sorna
sigmund
sands
146
143
1415
faw
fault
chemicus
namaak
##temore
excursie
##zwam
##chez
nazmi
sekse
lycke
lyceum
razvan
razzia
akyol
halleluja
sushi
suspect
raampoort
##workshop
bons
bonita
bonfire
cypr
computergame
macro
mirjam
skie
skip
##uela
##kunsteld
##garine
mundo
collegaauteur
hamburger
ronaldo
gala
hyena
hybride
##lopend
mi6
luxor
lapland
ridd
scared
##yeh
scenarioschrijven
oostzee
risotto
355
35jaar
kalle
kalief
remi
remus
rais
21jaar
sjoerd
upon
update
##kwaal
##kwal
##ollah
247
##detail
johansen
kylie
stambach
##oundation
masala
klokk
kokhalz
##stonecraft
korn
koraal
korneel
##904
stark
started
oerholland
falo
brugman
kitchen
louisiana
babe
adri
running
##limited
##panel
##beterde
sheff
##polder
vlaminck
howe
howell
bouman
trappelen
zuidafrik
hayne
tamm
adelaar
adelmund
##stofstaf
happening
happened
##effery
##eyter
##konijn
##193
##1969
rating
golfoorlog
estee
puts
##verschillen
campbell
kirk
rodney
wolken
gehore
affair
byatt
damon
baldwin
beerke
30000
birk
baarend
lamont
lamrabet
##deskundig
spatel
geneugte
academy
murakam
neryn
##traumaa
wimper
##enderwijs
crossing
japanse
morton
centraal
retoucheer
highway
sentin
taek
taita
mooij
##atoir
##atoya
tania
tansy
##gezant
falls
guidi
##leerde
suppleer
digger
nielsen
pirotti
toedicht
beheerste
iphone
##uyt
##wondeer
suspension
vivien
viviane
vermissingen
hazelwood
tatjana
nestor
cathinca
##rrr
##ratel
patti
##voetend
schaakbord
grayer
personificeer
general
steeem
cecil
mccormick
##potent
elektro
##salik
9789023
##geborene
surinaamse
huys
centurion
hollandse
##hauser
bunny
modest
bruijstens
spijkerzwijgen
##zyna
verzadig
sapiens
nicolas
nicolai
provinciea
niki
##engels
ahw
##consumeer
##bekka
sharon
fitzpatrick
follet
langeveld
yeaag
##gedragen
roads
poppins
celebr
narcist
waite
wouldnt
lexie
1904
geregel
366
tjok
bowman
olifante
hoffmann
joelle
genuanceerd
##media
cooke
kabul
kabila
verwaand
micky
##hallot
anyone
tourette
cabine
glamoureus
333
##teleid
everyone
boudica
rainie
##sjoemel
anais
clayton
##vruchtig
walking
ddvc
farmac
swift
##uitgegev
##blinddoek
##ieves
wikipedia
tahrir
tomaaten
dumpl
nicholl
##hhhh
##filosoof
miezer
souvenir
cartaar
issa
##spital
tunis
##catal
zwalk
global
vakantiel
##fanta
kriskras
marijke
flikker
symposium
##exicaan
##exicostad
workaholic
bayaz
gammel
kagge
jezuiet
homerus
rembrandts
dobbel
narrative
##dreun
##barmhartig
deflos
tosca
kubler
pinkster
astronomie
gwendys
lumas
luiselli
mallar
sparks
orpheus
buitenshuis
alexandr
nijland
grandeur
glorieus
cabaretiere
##houwen
altaar
braeckeleer
marcheer
tigers
##4883
whyd
hospice
hospita
schrijverspaar
euh
nakita
panter
##vernake
vrouwenboek
thrillerfanaat
knekel
isoloe
escaper
buzzboek
siberisch
vital
beauvoir
strega
##mechanisme
melodrama
flutro
neonato
carlyle
whittemore
##lindalinearect
habitat
pentland
rooy
rooij
##fusilleer
##spanning
##spannend
navarra
herbergen
bengts
fokke
lakeside
lavendel
aimabel
aimerey
raffe
meinen
##platform
birdys
almost
brainstorm
storyteller
ehbo
hirak
jelka
philippa
dedain
beatriz
restauranthoud
margret
quizavond
tornados
federico
muzie
##ariah
gonzale
kaduike
destiny
suicid
televisies
fuhrer
rockefel
schoorvoetend
sperma
queber
noorderveen
hitsig
kentucky
nitro
roehrig
yolande
##pedaal
omaric
##ambitie
gertjan
criminelen
functionaris
ganz
square
##kemia
becomes
wilhelm
segment
zonneveld
majestueus
kiara
winkler
information
bravoure
kraaien
amaruq
katarzyna
bmk
bmw
seneca
##gitaar
##firma
aankaarten
sterrenmoord
##zinnigs
cristina
##classificeer
gunnersen
hydraleak
cordelia
causse
dahle
farris
##juffie
vernedeer
repliek
channeling
dixon
detectiv
talking
stoicijns
agritur
esteban
koosjer
rhijn
vinex
##ized
##kabinet
##hampier
##analyticum
##instrument
inspectie
pragmatisch
langdrad
langdradig
##wijzigde
midasmoorden
handelswijze
handelsblad
freyja
##ffffffffffffffffffffffffffffffffffffffffffffffffffffffffffffffff
lantaarn
pokemon
##dooder
##dumont
##video
algoritme
duffy
parasiet
##communist
identiteitsfraude
evertjan
basiliek
basilicum
genealoog
evelien
etta
kendrick
venez
wheeler
##teelt
geordend
beverly
onuitgewerkt
nabb
scientology
sacrament
foucaul
dordogne
laafinia
mbv
wollstonecraft
##judice
verweving
bemd
reverend
creeren
uitgekiende
pakistaans
possible
shapiro
##commentarieer
bedwang
lofthouse
security
ferguson
cahier
ceda
fugue
huib
lissabon
lonely
nolan
prythian
##symbool
keirran
##vattend
deserteer
godverdomme
hautaine
miryeer
patriarchaal
cooper
quisco
tillman
tolliver
##dialoog
##psydra
gefortuneerde
health
montero
##ennialang
sigurdardottir
narcoticum
bachelor
##happy
dejavu
inconsistent
alyssa
beeltenis
grigor
##icklit
maradique
bourgondisch
subsidie
shallot
getroost
alliantie
efficient
delphi
lycdrop
adoptiemoeder
storyline
catharsis
wikileak
aomame
ginti
hailsham
huygen
rinske
entropie
opcenter
behept
eropuit
onafgewerkt
chassidisch
perceval
binnenshuis
parijse
synesthesie
universe
redemption
mozzarella
association
bankroet
sabrina
pandemisch
chemical
privilege
luxemburg
gehypet
vermeiren
oxymor
voynich
kabbala
laszlo
tsjernobyl
powerful
amedeo
ceurvel
eindere
fashion
fellowe
goteborg
gutteridge
jiddisch
mp3
oonincx
osterberg
sormum
uprooted
xvii
zampano
##soomer
##reelancee
destroy
inwendig
verantwoorde
vernieel
vercammen
aloysius
bekrompen
zeppelin
jeantine
uitdrukkelijk
schunnig
voldemort
gewijzigd
hermoine
chimerium
lieftallig
marlowe
andersdenkenden
clandestien
seymour
seabiscuit
plechtstatig
detaillistisch
irundina
paramaribo
apresski
illaun
intelligence
gedetailleerder
nazmiyeh
oerhollandse
gonzalez
agriturismo
2½
3jaar
310
370
490
415
416
550
6e
810
892
9e
91
98
93
aven
acr
asc
bug
bner
brecht
babel
boets
biep
baude
bjar
baham
backer
cb
ctr
cine
cok
cost
caap
canne
creig
cald
cilla
caca
cute
douw
dooi
doer
dale
dora
dandy
dachau
eo
ear
eun
edie
etern
eiffel
fog
fus
faas
fusie
faz
feeer
fck
fieie
foundation
goel
gow
ginds
gour
ghet
gump
gull
gwyn
hid
hock
hurt
ive
ipen
joek
jus
jool
jara
joes
jeline
kand
kele
ksen
koei
kav
kint
kell
kille
kuch
kisse
kauf
ls
lag
luur
leeds
loog
lath
lact
luig
loots
lommer
lija
luipaard
mias
nk
nun
nele
nath
notie
nass
nix
nara
nipt
nasi
ntl
oi
och
obe
odr
oss
oerm
oase
osh
osterd
poo
pacht
peder
paai
pav
porp
pian
prefereer
piemel
pylon
ral
raat
rul
ries
ritter
riff
rika
rendeer
rhysand
renger
sje
sik
sele
sine
soom
sau
sans
sake
sell
swit
siger
siam
tio
tamp
tres
tami
tuss
tilda
tuimel
tetr
tichel
use
unauw
vian
vuig
vito
wing
weed
wits
wuif
women
xav
yid
yup
yoss
ziet
zut
zappen
zlatan
##ej
##eill
##eke
##eva
##eille
##ewijk
##ego
##luis
##lachtig
##later
##lagen
##lana
##labyr
##nur
##ners
##neef
##nic
##nies
##nep
##iy
##iaar
##iol
##ield
##ibe
##ibuut
##ially
##sf
##sje
##sad
##sval
##sub
##sijt
##ska
##soft
##sitas
##sakov
##oster
##ovend
##ral
##ries
##rine
##riel
##rium
##rade
##rante
##rose
##rogramma
##roest
##riman
##renthriller
##robot
##mig
##mol
##mler
##monde
##mile
##mila
##mando
##martre
##uje
##uas
##uele
##uve
##ualisme
##aica
##ascha
##aillon
##ably
##zoe
##zat
##zom
##zou
##zens
##zijden
##zja
##zanger
##kaat
##kut
##kuis
##klees
##kow
##kwar
##kles
##kuip
##kots
##kala
##kneus
##kreview
##gu
##gist
##gian
##tat
##tos
##tof
##toem
##treden
##timer
##faar
##fat
##fon
##fia
##fall
##face
##fles
##folk
##fnuik
##dader
##dool
##doneer
##doba
##poel
##poep
##pep
##puil
##poten
##penning
##plegend
##cee
##cik
##cous
##cement
##cami
##coun
##hk
##hur
##hers
##hik
##hir
##hiel
##hans
##hert
##hime
##hile
##hnacht
##hacker
##hieri
##jaak
##jank
##just
##jans
##jara
##jung
##vs
##vacht
##veder
##vont
##viseer
##boo
##bers
##bag
##bine
##buil
##bai
##base
##ballen
##bahn
##york
##weel
##wort
##wake
##willig
##65
##110
##978
##eny
##eneer
##enste
##enburg
##eraar
##ergen
##eres
##ijen
##ijek
##aaie
##aaar
##aauw
##eturn
##etierig
##etro
##etime
##ansel
##aniem
##elo
##eler
##elius
deg
desp
dees
depr
dezen
devlin
deckwitz
##ooid
##oogen
##chron
##chinees
##chicklit
##ineem
##inic
##inval
##inius
##ieuze
##ieux
##iedenis
eens
##oeien
##oeed
encl
enqu
enfor
ended
##atter
##atio
##atra
##atjes
##atollah
##eester
##itaan
##itiviteit
vana
vandien
indruk
infl
infect
investig
input
inkleur
inanna
indri
inclusief
instead
##stijf
##stift
##stuntel
verwend
vervaardig
verplegend
ges
gef
gesel
gepe
gesu
gefluister
geanimeer
geograph
##orer
##ortel
##igail
##ignie
alos
alive
alban
algemeen
alpen
alire
alea
alderman
aljos
hear
##chtoon
##chtpaar
##oning
##onisme
##onado
##derik
opris
oplettend
##isson
bess
bedruk
beuken
##ingapore
##dema
##deugd
boekik
boek10
##alius
##alleen
##ality
##endaar
##endheid
##endron
##gein
##geschrijf
##gess
##gezer
hebben
vooral
##leader
##leau
##legende
##levoland
err
erd
ernest
onuit
onrust
onstaat
ongenade
onaange
oncha
onnos
##vere
##veron
##vertoon
##verzeker
##verzorgd
##verbaal
zem
zeist
stang
stine
stub
stuiver
aanwez
aandenken
aanvragen
aansporen
##ilion
##ilah
jeans
jeanne
maargoed
##arian
##arius
##haalslag
##schicht
##schout
##schare
##schetsen
##schlimazlnik
uitgele
uitschot
uitstoot
uitgroeit
##idis
##idium
##idiaan
##oude
##ouna
##oterie
overde
overdacht
oversteken
overdragen
##rea
##recl
##ogaat
waarsch
schm
schor
schon
schend
schur
schism
schoffeer
##jeu
##andar
waterk
weij
weir
weight
##amem
##ambo
##ambi
hijs
##hey
##heug
##hekel
##heff
##hewn
spaak
spad
sporen
doordesem
##enswaardig
lec
##tekend
##teboom
##asse
##ascus
##asaki
##ierge
##aglia
anc
aneek
antr
ansel
anima
##ukt
rei
rema
repr
reform
reena
remy
repressie
revieew
##unzel
##unja
##unny
##uniform
##angir
##eefd
##eeffect
welp
##ikt
##ikaal
##ikend
##ikos
##ikund
##akte
##anto
##antisch
##erken
gap
gabe
gaius
##icher
grooot
##enti
##ento
##entijn
##entof
prak
prav
proul
praktiseer
afzet
##genoemde
blaak
blun
blits
blonde
blanch
blender
blitz
mep
mecht
meiden
meule
mechel
##oetra
schrijfen
schrijfster
ontbij
ontzie
ontknop
onthut
ontsteken
ontslaan
toere
tokar
##isto
zalm
zalf
zalia
##beo
##beko
##bedachte
##bevolkt
##beklag
##iefden
##spuit
##spendeer
heels
##dente
onderin
onderwezen
vold
volpi
##illan
##terig
elif
elodisch
drost
drup
druif
drenkel
##uly
##ulent
##annex
##annette
##annery
meed
meegaand
##iente
##ienka
##oper
##opees
##opek
##opres
##opgele
##opotam
##agehalte
##atieke
##osia
bral
brak
brill
brien
broman
bruch
brauer
wilbur
plof
planteer
plons
plinius
manf
manip
mancini
begif
begeester
##schrijft
##dateerd
thil
thul
thune
thieves
##ughan
##adal
##adia
##dronken
zelfver
##bruiloft
##umbo
tweevoud
##uta
weerom
##ici
##icem
##icks
##iculeer
##ondo
##esome
##esalius
hunk
ergo
##sence
##obber
##obiel
misogyn
misantroop
##afspraak
##afgod
duf
duos
##komt
##astand
slaa
sluik
slash
slijm
##ofobie
vlaard
vlijt
achterste
achtervolg
##rilla
##irs
##iris
##odendron
##uisine
zieg
##gelen
##weide
##weiss
##trum
##trut
##traditie
##tromp
denny
try
traa
trijn
trash
trance
truy
trope
truly
##voller
##volmaakt
thrillerlezer
##waardoor
romp
jonker
jonson
jonny
nieuwkerk
nieuwatlant
##iteur
contem
geworstel
auctor
auburn
##werkte
vriendee
herz
herzie
hertz
herdrukken
herrijst
samir
##iper
##iploma
klam
kluister
spanog
dusic
##stelp
##uiken
##acus
##acken
##acola
chief
cheek
chiz
chinas
##selves
##seltown
##stukken
romandebuut
dagonaut
minami
mineraal
##uston
wieder
wiebel
believen
##orgwik
##bloon
##blond
##block
dia
evenaar
kry
krake
kroes
marvel
marra
marqu
marja
markies
marsh
##ardio
probst
##gaven
kortgeleden
stervende
##dachten
##berto
##berdina
##gro
##grif
##grappig
##play
##pleton
##iah
##iavel
##deels
##voorwerp
##voorzichtig
comman
board
boko
fru
frit
fract
frozen
frodo
zinnen
##sek
##inez
##inek
202
jongun
jongkind
karou
karate
karavaan
arrond
polo
nietsdoen
beetje
##abo
exgevangene
##vaarder
##oki
##oket
##okken
##naz
superk
suez
stral
stroud
gelijek
fluff
flannery
anderszijn
##ifist
##ifine
##ifuge
##mekker
idd
idol
##sylief
neander
orgas
fame
famili
zwarte
##uiden
##kefiet
##doeh
perine
perple
perifer
##digitaal
clim
nooteboom
##vlog
jour
feet
fesper
sekt
sehl
seattle
belangstel
scre
scara
scooter
##airie
##ization
crab
cruel
crighton
##beleefd
##klin
##klund
zoniet
##thee
toendertijd
##eprogramma
emm
emiel
emmas
embleem
amina
amput
knol
knies
press
predict
prescott
prejudice
lose
##ideaal
rondjes
##owereld
##ayef
##near
relatiep
kantine
##prik
##praktisch
##producer
henriquez
neerlands
##uco
##uccus
##geraak
mynx
bini
keuk
keuvel
vaststaat
vastklamp
##cloughlin
##eneigen
##offrey
gebass
##tueus
besten
bettien
##yprijs
##ypso
hummel
lands
puert
cary
caren
caroolina
paste
pawel
paetro
ondoden
stelt
##dowell
detox
##krik
##kraan
##krimp
##kroket
kwetter
vreemdganger
makker
colbert
##amputeer
system
sybil
syrier
sytske
winiew
##ffe
schoolopdracht
##knick
##ksandar
##urnus
nieuwsgierig
maike
mazz
rechttoerecht
antie
antilliaans
irena
gerd
gerne
warempel
##vends
isaak
harlem
zieken
quint
uns
unt
unicum
unaniem
##weging
##assijn
##asserie
##ovich
apoc
direction
mysterious
stadler
glooi
##adebuut
##coni
##flow
##flauw
##tenberg
##apped
noa
noake
##ubub
stek
stevie
steamy
##bergh
jany
hardbo
julias
laika
lavender
niemands
student
donnie
smoel
smash
##fraai
##wash
##waspraktijk
robijn
##brecht
##redik
deskundigen
shoot
shana
politic
##uzer
barney
barcelona
barkee
rustmoment
rustgevende
ijk
passaat
godfried
goddard
toptie
verguisd
vergilius
medaillon
corien
coronado
##htar
##coin
##colep
cochr
##hae
hollo
holtz
ilay
milk
gekwal
gekweld
##democraat
witch
moh
matrix
monolog
monologen
monopolie
##come
ago
agress
aggelen
waterdicht
lukas
wendel
vega
##lawaar
##lessen
zomb
geniep
superheld
superba
supermooi
gespuis
gespeend
edmond
edilion
specul
specimen
crimi
blijver
kleuren
kerry
katz
katoen
katzenbach
morrow
yougian
middenoost
koningslaan
##mini
literatuurlief
eindigheid
##gemeten
##gemoeid
intoneer
paull
rosco
houtrot
rozen
##vormde
concierge
bergs
halfelf
ingebeeld
balder
##edoc
##scoop
willits
##ixant
ongekunsteld
indier
indian
industr
##wateren
proficiat
##thea
forces
intrigeerend
mell
meland
melod
beduus
dome
domen
##erei
ijsber
##yserie
dwergen
##backa
regiment
reggae
jaspers
joss
josha
joshua
haunt
bosco
jijzelf
##lie100
##puber
##vrienden
autochtoon
152
155
1516
##rorisme
annewil
disi
##maatregel
##ibi
##ownload
##orain
##peut
##peius
##schouwd
abbi
abagn
abbott
abomin
abigail
##heriff
decimus
decennialang
subgenre
horo
horde
horatio
maxine
daun
armoe
armetierig
maaler
loh
loge
walton
##eki
franken
helderziende
noorditalie
##helm
##helena
##helmine
##balans
zwakker
zwakhals
control
egg
greens
gresh
##biose
borak
bordewijk
128
127
12de
techno
ellens
1815
1848
hilst
##stigs
##partement
allene
##serieus
present
etan
etter
etage
solitair
ergernis
schietincident
robertsheld
kathirah
lindgren
buruma
burgess
ernstigs
254
ambiance
effen
efficie
verfoei
schaduwen
garbutt
scherprechter
kastner
postit
postuur
postma
posttraumaa
dolk
zakarium
feelings
unieks
##atrum
##erfant
##ylla
offred
professie
profession
##smaad
saun
saenz
imposs
daniela
##myra
priveklinisch
completer
##lachen
babybeer
paneer
panor
panem
breath
breck
forma
vleet
cira
circle
delhi
delinquent
libre
voedings
ritsel
##soms
##geschiedenis
justin
feliers
bloemen
16de
##novelle
compaan
muse
viral
miljarden
randall
rachella
pilaar
salif
salai
salvo
##party
##hania
esoterie
francie
francke
timmy
timeturn
petit
peterson
##monnik
178
madam
madri
##hoeff
andrei
138
135
1314
oomer
soder
afgevaardig
boomsma
##gewortel
##vermoeid
##ouri
tiny
tintel
tinseltown
turner
turned
flaptekst
malmo
symbiose
mcm
mcgee
projectiel
native
natural
natalee
natascha
304
30jaar
butcher
viius
##2012
mossel
##inox
england
engstrom
junkie
##john
sandzja
##horloge
financier
##barak
calf
calv
calley
calypso
ull
##hooogen
duivels
chevalier
nami
cashewn
kernick
##henisch
blindganger
##zwets
chroni
veronique
legerarts
cats
##ernl
##ernut
benefits
rianne
riordan
nazim
naziregime
canadese
murder
consorten
resear
onderneemer
akkefiet
draaken
cytos
matti
macdon
scheikund
annelaure
isabellum
##umpeer
acte
darium
##intrige
##lectisch
skin
skill
##apeze
creatuur
credo
create
dorset
hamlet
palad
palmyra
menigte
galant
galiano
claes
cornell
theranos
ridley
silius
verkoopsucces
missouri
kalk
alfonso
goodwin
jimmie
raven
rave
sugi
sugar
rambe
rambo
##kwansel
##olli
245
latoya
testoster
crimezon
##ronsel
dijkstra
carolina
caught
everdeen
koeck
maye
korsakov
obsessieie
sebastien
##901
tandoori
##estorm
##coli
##college
greenwood
basterd
tabor
kantoorleven
kinderverhalen
kinderbarak
##betuig
assistent
kristen
fysicus
toran
toragh
stereo
rung
angelo
angelina
reacherthriller
22e
22jaar
reviewers
groters
synago
23e
237
235
##magend
##polis
transform
understand
underground
hoag
piercing
velira
##heilige
##risico
norfolk
sanct
sanchez
##oliede
##weebly
tamouna
##haring
##harde
##agrim
adeline
coppen
changed
goal
happiness
barton
rapunzel
siroop
##stalte
explicieter
ratel
selectiee
kasienka
lofoot
ludlum
reclasseer
zondvloed
##menu
keuris
vossen
satijn
saturnus
psychopatisch
rydahl
campos
kiril
kirstie
kirino
rodaan
rododendron
gehype
mariagra
incred
incarneer
affiche
ideas
gratuit
feelgoodboek
damn
damascus
ladd
birth
birdie
birds
micron
geeven
##atti
##attendeer
mesopotam
hypotheek
tyr
##schilderij
buelen
buchan
camerastand
hillen
debiel
dalton
rayon
##ikkie
arnold
mobius
paleo
##feratu
firenze
tarot
target
tarquin
sherrif
nergen
##morzel
captain
jorick
elske
##pressivum
##vinist
toltz
##508
callum
arean
narcolep
retro
semester
konijnen
webb
senta
sentence
taq
wayfaar
##oyd
douch
200000
february
##130
stoned
stoneheng
myrd
virginie
##walex
faculteit
lili
moons
##sierd
sicker
demand
cooking
limburger
##nuttig
rivera
##galerie
##galerij
##hemiri
dodenweg
jesus
split
singleton
cathys
montagu
pinok
vervalst
vervalste
rijswijk
wiki
personale
hollywoodster
ravens
bourbon
lawson
mccall
##liquideer
discuteer
discrep
lolita
##phaan
diamantroof
275
videotheek
videorecensie
commendat
##kwartet
tells
huug
servet
maandagen
ayatollah
kamilia
lennox
rowley
klimaaterweeten
centre
cobens
kemphaan
puree
tijan
lorraine
tongue
reichis
whitehead
cinderella
fabuleer
fabula
havo
bulstronk
bellicher
##palt
##palees
hadr
hadagrim
maman
nikita
niklas
toomey
##gloed
agnost
ahmad
colomba
sharlah
vestigde
roadie
1896
1898
1895
1893
safran
##begonnen
navo
devoot
devies
schelde
narcisme
bastien
luthie
voicem
triangle
confus
confident
1908
djat
##407
dragan
feilbaar
bateman
tjeer
tjibbe
geertrude
nelson
##settel
genua
##promo
buckley
##halla
deerne
scheuren
graniet
weergaven
knopp
##kleinzoon
336
geiten
everybody
vaughan
yvonne
stanley
andro
guillam
pamuk
##clean
leni
instructeur
silvera
eyck
mumbai
tibbe
entire
hoorndrager
ingrijpends
##motto
##korf
besana
thaniel
hypnoseise
384
routineem
souf
zatopek
berkouw
goran
gorlan
vilhelmine
waddell
##vijftig
frederiks
dicam
dickson
kazu
##campo
##lezers
driessen
benauwend
cosmet
edelweiss
liked
alibis
awesome
mango
##€™s
tempe
sympathe
bayern
dvp
pfeijffer
##feliciteer
atlantisch
##aksisch
triggerhappy
flanery
shoppen
eastwood
jolijt
travest
rabbits
luitinghsijt
routineus
mallory
##native
##natural
lezenik
chapters
gooisch
guilty
##zweden
picknick
rigide
##hitte
brains
klaase
geschikt
francoise
sieb
nakata
pantheon
##concern
19531969
tsjets
##afgewerk
gallagher
hmmmm
##denkende
buddyread
cardi
cards
cardinal
pentagram
saarloos
zachariah
traisha
choice
populisme
hatcher
mugeer
muggen
##rubriek
diffuus
difficult
shadows
fokko
mogendheid
##mandisch
##zanilla
##doornnl
harmony
shoah
bassani
fairy
mischa
##lowitsj
##origine
boeddha
cannon
cannot
fjall
loving
schaterlachen
branche
trompet
attribuut
ludwig
philipp
##chvil
##stabiliteit
tribunaal
fraudeer
flovent
crowley
quirke
sociop
montefiore
pacino
pacifist
##terroriseer
##terrorisme
kolonialisme
etsuko
girlie100
yorker
##nibus
##fundeer
destin
weihnacht
achterkant
saxon
nrcn
pompei
equinox
nalatig
##etchup
gedrong
rubber
fermin
koreaan
nitwit
tudj
anarchie
snorkel
rubenfel
mozambi
vestdijk
functionvar
surprising
metamorfos
vleermuismoorden
credits
lomax
lillith
numero
selectief
##gomery
analoog
segregeer
questions
fixer
fixeer
capitool
boeddhist
siena
##lifema
##wyns
informatie
##eeragewereld
sponsor
broccoli
guerrilla
nagasaki
niceville
wulf
graeme
kwakzalf
voetbalcarriere
missionaris
gladiator
##wikipediaorgwik
##pesh
verhalenverteller
boekestein
kannibaal
leuven
replica
closed
mcfad
9789403
ictil
youre
zarco
##ligente
##kabouter
omgesprongen
##transformeer
existentialist
automobiel
quichote
illumina
illuminati
himalay
celestijns
neonazi
migraineaanval
enjoyed
bukow
camelia
cognac
cognitie
lanterfant
rooney
##tapijt
##folter
algerije
##oliberalisme
afraid
conscious
chabon
outsider
genealogisch
polygaam
kuyt
kuyper
lauerhohn
situ
##capaciteit
destefano
geordende
drenthe
tweets
arcadia
mourits
foucault
nosferatu
wulps
##zijdank
##homme
##intelligente
verzuchtingen
metselaer
scherder
revanche
revancheer
growth
scepticus
arrowood
mayeras
9789082
eufemistisch
eufemisme
saffierblauw
bikini
dashner
guinness
mmmm
##suppleer
##bonneau
ingelicht
aleksandar
opinion
beyond
spanningsopbouw
kramat
freedom
dowd
admiraal
suspenny
antiquair
wulffer
dinosaurus
blessure
dallas
vmbo
##singel
##vagio
deutsch
##ometrie
zestigste
welbeschouwd
##speculeer
tweespalt
sommerfeld
samaritaan
##manoeuvreer
karstens
ijslands
matteo
mcdonald
maffiosi
shepard
##psychiater
breda
esperanza
mantra
ocd
vagevuur
zuider
##paginas
development
alessia
stiffenie
overdone
##adria
vlautin
languedoc
avocado
painting
finished
privesfeer
schevening
baudel
birgitta
protestantisme
multatulus
hallucinante
luitinghsijthoff
vocabulaire
onopgesmukte
cpnb
agency
belfast
certain
koddig
uribe
worthy
##kazerne
##young
bevroeed
zestiger
watching
bruusk
troela
congolees
cheese
chandler
chakra
margery
suzieq
strobbe
adagium
adultroman
tenerife
antidepressivum
appear
pedagogisch
dienstbaar
disbelief
filosofie
surrogaat
claustrofoob
intellectualist
commandos
9789492115
linguistisch
penitentiair
verbouwereerd
couscous
edoch
hengst
haneveld
nalezen
others
qrcode
sesam
wetering
##fahr
##centrifuge
innovation
alvaro
onechte
overlappen
schorpioen
meereizen
##sparadox
conventions
vastomlijnde
tenenkrom
pawlowitsj
##kraiens
antivirus
absorbeer
warschau
janusz
pefko
corsica
borneo
delacro
pseudopsych
jericho
cyprus
tjokvol
dumplin
dobbelsteen
mallarino
##lindalinearectanl
suicidaal
venezuela
boetseer
baudewyns
bjarne
bahamas
ctrl
cineast
creighton
caldwell
eunuch
fogg
feeeriek
goelag
gourmet
ghetto
gwyneth
joekel
joesbury
jelinek
ksenia
kintsug
kissed
lactose
luigus
lootsman
odran
osterdahl
ralph
switcht
sigerius
yossarian
##labyrint
enclave
inkleuren
indrið
oprisp
##gezero
onaangepaste
onnosven
##verzekerder
aanwezige
##reclame
schismatieke
##tekenden
aneeka
pravash
onthutst
toereikend
begiftig
truyts
nieuwatlantis
contempl
auctoriaal
commander
arrondissement
orgasme
perplex
periferisch
sektarisch
amputeer
vastklampen
gebasseerd
puertol
winiewicz
rechttoerechtaan
hardboiled
barkeeper
cochrane
gekwalificeer
beduusd
abominabel
greshoff
sandzjai
cashewnoot
akkefietje
testosteron
synagoge
##weeblycom
mesopotamie
buchanan
discrepantie
commendatore
voicemail
routineematig
mozambique
1q
360
aam
aval
aper
aure
aapen
agrid
ahorn
bum
biek
bate
buster
bally
bingo
cin
cig
ces
cod
cip
cout
cure
cater
corps
cuisine
dh
daans
dissel
drey
dadel
eem
eame
eight
easter
foe
fas
fif
five
gg
gw
ginder
gole
gyl
gisum
gons
giving
hb
hst
hord
houw
hsp
hinde
hine
horen
hah
hoen
hille
hafe
huston
iw
iain
ibu
iperen
jm
jat
jee
joer
jaas
jard
jipp
jannie
jastr
kuit
kiz
kits
kakel
kandel
kylum
krijgen
lur
lic
lion
lost
loen
lima
lorie
lys
lira
loft
lagr
laks
lanka
mw
miet
moc
milie
moren
merg
manne
murg
mile
muff
manna
maude
mpo
mtv
nies
nover
none
nva
nelen
nijs
nijg
nappa
olijk
oir
oem
ock
osm
pind
paf
puist
pina
pau
puc
pamp
poen
pfl
pace
pena
pix
pino
pelle
pons
psal
ppp
queel
rl
rooi
reng
rinder
rere
rara
rough
ravel
roug
rieder
roux
rousse
rylin
rucks
sz
seel
sot
slijk
sven
sief
smaal
seder
seen
sud
sia
sont
sail
sick
svens
sain
sitt
swan
sisters
sachiko
svante
swinnen
tz
tk
tee
toek
tiet
tac
takel
tore
tuber
tung
tuts
tiber
toorn
taille
tardio
ving
vole
veeee
wg
ww
won
wief
wut
waf
wasis
wyn
wire
wieke
xu
xa
xt
yus
yun
yak
yay
yous
yosh
yoshi
yelena
zg
zam
zaan
zoog
ziz
zuil
zaza
zoran
zadie
zucker
##eveld
##ested
##lit
##lens
##lad
##lion
##label
##liche
##letjes
##nder
##nol
##nug
##nooi
##nectie
##ictie
##seel
##sort
##smoord
##side
##sectie
##soll
##sbury
##oz
##oiteer
##rage
##raf
##rub
##rong
##rake
##rock
##reelance
##ranski
##rovik
##rivaal
##moo
##mers
##maag
##mijl
##mem
##mott
##muf
##menig
##mids
##mouk
##moffel
##uar
##a€
##azie
##ains
##aere
##aez
##zt
##zaan
##zuid
##zift
##zaken
##zasc
##kaa
##kis
##keel
##kand
##kige
##kaats
##kner
##kwijn
##kah
##kame
##kka
##gi
##goe
##goud
##geek
##giter
##gaap
##gingen
##ganda
##glim
##tar
##taak
##tuur
##tut
##taf
##tner
##tjer
##tijm
##tinent
##tunnel
##tjood
##toffensief
##ft
##fet
##fom
##fens
##foot
##fond
##fem
##fjord
##dij
##dil
##dut
##dies
##dia
##dair
##deeg
##dett
##dica
##pin
##pant
##page
##piek
##pir
##puut
##pong
##pora
##preeks
##palet
##cou
##cte
##caan
##cut
##cart
##cium
##cara
##cial
##cola
##cted
##coordineer
##czuk
##covicus
##cahy
##hog
##hoot
##honder
##hob
##hole
##hona
##hwater
##hassan
##hubub
##jou
##jap
##jul
##job
##jets
##jine
##jack
##jugend
##vik
##viaal
##vaux
##bijn
##beld
##bele
##bnis
##bbel
##bake
##both
##bys
##baken
##bots
##bonk
##buck
##bopolis
##yard
##yling
##ysteem
##yta
##wheel
##wick
##wonden
##wain
##wenk
##wagon
##warts
##wyck
##160
##85
##74
##43
##450
##417
##37
##enar
##enover
##enpas
##enkt
##enflap
##enzo
##enka
##enza
##enmarkt
##enbach
##enfel
##erum
##ijde
##ijze
##aah
##aaste
##etreer
##etlage
##aner
##anaal
##elief
##elight
##elane
degen
deux
departement
##oooo
##chi
##ches
##chio
##chetta
##ijnen
##aarloos
##aarzel
hetze
hetgene
##inist
##inhoud
##inium
##inslag
##inalist
##inli
##inieri
##iea
eenna
enar
enne
##atar
##atary
##itium
vanger
insch
inuit
insom
##stot
##steld
##stone
##stown
##stius
verstr
verity
verwater
verstrooi
verkramp
verbloemd
verpersoonlijk
verwateren
gege
geste
gead
geelen
gespring
gestroom
geillustreer
gevestigde
gecast
gecho
geflirt
geveins
gemaakten
##eereeks
##orus
##orgenre
##igie
##igent
##igster
##igner
##igari
##igula
alv
alq
alden
alect
aleid
algar
alba
aldrin
alstu
albright
tek
teens
teagan
heg
heat
heav
hearts
heisa
##ijkt
##onia
##onium
##onade
##derbij
##derson
opmerk
opwek
opvlieg
opvliegen
opgraven
##iso
##isatie
beste
beschr
bediende
bepalend
##inghet
##inggevend
##omo
##omb
##omot
##omdat
##desp
##demp
##degem
##debat
##devoort
boekweit
##alo
##alel
##alon
##alus
##aller
##alja
##alike
##aluf
ike
ikke
ikpersonage
##endie
##endit
##endoor
##endam
##endood
##geil
##gezien
##gekun
##gebed
##gecontr
voortekenen
##lede
##legen
##leck
erem
eroc
ervan
erauw
erwt
ongrijp
onger
onget
onstaan
##vero
##verlet
##verwoest
##verpool
##vervuld
##verhoopt
##verlangen
diem
diederik
zeis
zeul
zema
zefan
zeeland
stim
stork
stamel
stuif
stott
stanton
##ilo
##ilar
##ilynn
##ilosofisch
##urp
##urit
##uriet
##urrect
##urrie
jemis
jeck
##areer
##arijk
##artel
##arov
##arias
##orden
##eeshop
##schl
##schi
##schurk
omtrek
ombre
omzichtig
omliggend
omnibus
uitent
uithuis
uitlas
uitelkaar
uitbeelden
uitgifte
uitlaten
##idy
##eelink
##outal
##ouck
##otrip
overdracht
overmoed
##real
##reist
##repareer
##ogene
leesdan
schand
schwind
schlimazlnik
##jedit
##andine
wateet
weze
weap
wears
weimar
##amiteit
##amme
##amour
kano
##hek
##heist
##hema
##heorie
##hemm
spi
spam
speek
specht
zoeter
zodi
doorne
##ensamen
lech
leum
legr
leone
leco
lector
leda
league
[...]
